<unk>	0
<s>	0
</s>	0
<pad>	0
<|start_of_metadata|>	0
<|end_of_metadata|>	0
<|start_of_story|>	0
<|end_of_story|>	0
<0x00>	0
<0x01>	0
<0x02>	0
<0x03>	0
<0x04>	0
<0x05>	0
<0x06>	0
<0x07>	0
<0x08>	0
<0x09>	0
<0x0A>	0
<0x0B>	0
<0x0C>	0
<0x0D>	0
<0x0E>	0
<0x0F>	0
<0x10>	0
<0x11>	0
<0x12>	0
<0x13>	0
<0x14>	0
<0x15>	0
<0x16>	0
<0x17>	0
<0x18>	0
<0x19>	0
<0x1A>	0
<0x1B>	0
<0x1C>	0
<0x1D>	0
<0x1E>	0
<0x1F>	0
<0x20>	0
<0x21>	0
<0x22>	0
<0x23>	0
<0x24>	0
<0x25>	0
<0x26>	0
<0x27>	0
<0x28>	0
<0x29>	0
<0x2A>	0
<0x2B>	0
<0x2C>	0
<0x2D>	0
<0x2E>	0
<0x2F>	0
<0x30>	0
<0x31>	0
<0x32>	0
<0x33>	0
<0x34>	0
<0x35>	0
<0x36>	0
<0x37>	0
<0x38>	0
<0x39>	0
<0x3A>	0
<0x3B>	0
<0x3C>	0
<0x3D>	0
<0x3E>	0
<0x3F>	0
<0x40>	0
<0x41>	0
<0x42>	0
<0x43>	0
<0x44>	0
<0x45>	0
<0x46>	0
<0x47>	0
<0x48>	0
<0x49>	0
<0x4A>	0
<0x4B>	0
<0x4C>	0
<0x4D>	0
<0x4E>	0
<0x4F>	0
<0x50>	0
<0x51>	0
<0x52>	0
<0x53>	0
<0x54>	0
<0x55>	0
<0x56>	0
<0x57>	0
<0x58>	0
<0x59>	0
<0x5A>	0
<0x5B>	0
<0x5C>	0
<0x5D>	0
<0x5E>	0
<0x5F>	0
<0x60>	0
<0x61>	0
<0x62>	0
<0x63>	0
<0x64>	0
<0x65>	0
<0x66>	0
<0x67>	0
<0x68>	0
<0x69>	0
<0x6A>	0
<0x6B>	0
<0x6C>	0
<0x6D>	0
<0x6E>	0
<0x6F>	0
<0x70>	0
<0x71>	0
<0x72>	0
<0x73>	0
<0x74>	0
<0x75>	0
<0x76>	0
<0x77>	0
<0x78>	0
<0x79>	0
<0x7A>	0
<0x7B>	0
<0x7C>	0
<0x7D>	0
<0x7E>	0
<0x7F>	0
<0x80>	0
<0x81>	0
<0x82>	0
<0x83>	0
<0x84>	0
<0x85>	0
<0x86>	0
<0x87>	0
<0x88>	0
<0x89>	0
<0x8A>	0
<0x8B>	0
<0x8C>	0
<0x8D>	0
<0x8E>	0
<0x8F>	0
<0x90>	0
<0x91>	0
<0x92>	0
<0x93>	0
<0x94>	0
<0x95>	0
<0x96>	0
<0x97>	0
<0x98>	0
<0x99>	0
<0x9A>	0
<0x9B>	0
<0x9C>	0
<0x9D>	0
<0x9E>	0
<0x9F>	0
<0xA0>	0
<0xA1>	0
<0xA2>	0
<0xA3>	0
<0xA4>	0
<0xA5>	0
<0xA6>	0
<0xA7>	0
<0xA8>	0
<0xA9>	0
<0xAA>	0
<0xAB>	0
<0xAC>	0
<0xAD>	0
<0xAE>	0
<0xAF>	0
<0xB0>	0
<0xB1>	0
<0xB2>	0
<0xB3>	0
<0xB4>	0
<0xB5>	0
<0xB6>	0
<0xB7>	0
<0xB8>	0
<0xB9>	0
<0xBA>	0
<0xBB>	0
<0xBC>	0
<0xBD>	0
<0xBE>	0
<0xBF>	0
<0xC0>	0
<0xC1>	0
<0xC2>	0
<0xC3>	0
<0xC4>	0
<0xC5>	0
<0xC6>	0
<0xC7>	0
<0xC8>	0
<0xC9>	0
<0xCA>	0
<0xCB>	0
<0xCC>	0
<0xCD>	0
<0xCE>	0
<0xCF>	0
<0xD0>	0
<0xD1>	0
<0xD2>	0
<0xD3>	0
<0xD4>	0
<0xD5>	0
<0xD6>	0
<0xD7>	0
<0xD8>	0
<0xD9>	0
<0xDA>	0
<0xDB>	0
<0xDC>	0
<0xDD>	0
<0xDE>	0
<0xDF>	0
<0xE0>	0
<0xE1>	0
<0xE2>	0
<0xE3>	0
<0xE4>	0
<0xE5>	0
<0xE6>	0
<0xE7>	0
<0xE8>	0
<0xE9>	0
<0xEA>	0
<0xEB>	0
<0xEC>	0
<0xED>	0
<0xEE>	0
<0xEF>	0
<0xF0>	0
<0xF1>	0
<0xF2>	0
<0xF3>	0
<0xF4>	0
<0xF5>	0
<0xF6>	0
<0xF7>	0
<0xF8>	0
<0xF9>	0
<0xFA>	0
<0xFB>	0
<0xFC>	0
<0xFD>	0
<0xFE>	0
<0xFF>	0
..	-0
▁「	-1
った	-2
....	-3
てい	-4
ない	-5
して	-6
から	-7
って	-8
した	-9
その	-10
よう	-11
ている	-12
......	-13
する	-14
それ	-15
こと	-16
ていた	-17
――	-18
◆◆	-19
れた	-20
そう	-21
ある	-22
ウル	-23
かった	-24
れる	-25
?」	-26
!!	-27
いう	-28
彼女	-29
いた	-30
では	-31
だった	-32
んだ	-33
という	-34
でも	-35
には	-36
だけ	-37
のは	-38
ろう	-39
のだ	-40
ように	-41
しい	-42
AA	-43
れば	-44
なかった	-45
この	-46
なら	-47
なく	-48
です	-49
なる	-50
◆◆◆◆	-51
しま	-52
もの	-53
だが	-54
しか	-55
んな	-56
っている	-57
える	-58
している	-59
自分	-60
ような	-61
そして	-62
まで	-63
んで	-64
にも	-65
どう	-66
!」	-67
れて	-68
いて	-69
がら	-70
のか	-71
を見	-72
ジグ	-73
っていた	-74
ながら	-75
ける	-76
きた	-77
ほど	-78
ウルは	-79
ーク	-80
として	-81
▁「......	-82
だろう	-83
にな	-84
ため	-85
していた	-86
たち	-87
である	-88
▁『	-89
であ	-90
とは	-91
っと	-92
これ	-93
なん	-94
でき	-95
じゃ	-96
へと	-97
ディ	-98
ます	-99
しかし	-100
........	-101
める	-102
ギーク	-103
せる	-104
しく	-105
より	-106
AAAA	-107
冒険	-108
とも	-109
▁その	-110
いい	-111
――――	-112
まり	-113
けた	-114
魔術	-115
られ	-116
された	-117
冒険者	-118
それは	-119
えた	-120
ではない	-121
そんな	-122
身体	-123
リス	-124
シズ	-125
クレ	-126
...	-127
ことは	-128
シズク	-129
彼女の	-130
アイ	-131
ちゃ	-132
リー	-133
ああ	-134
の中	-135
クレア	-136
ック	-137
いる	-138
それを	-139
され	-140
られた	-141
けて	-142
めて	-143
言葉	-144
そこ	-145
かに	-146
ルド	-147
まま	-148
出来	-149
あった	-150
りと	-151
力を	-152
イン	-153
アイリス	-154
少し	-155
えて	-156
無い	-157
都市	-158
彼女は	-159
......」	-160
めた	-161
大き	-162
ので	-163
られる	-164
シア	-165
ディズ	-166
人の	-167
くる	-168
上げ	-169
がある	-170
ころ	-171
あの	-172
かな	-173
シャ	-174
ことを	-175
ってい	-176
わけ	-177
される	-178
など	-179
もう	-180
と思	-181
らい	-182
―――	-183
良い	-184
▁だが	-185
手を	-186
前に	-187
ただ	-188
!!」	-189
だから	-190
彼ら	-191
全て	-192
あり	-193
と言	-194
シェ	-195
になる	-196
ると	-197
しょ	-198
かり	-199
ちら	-200
場所	-201
のように	-202
▁そして	-203
迷宮	-204
らしい	-205
シェル	-206
ませ	-207
エシェル	-208
自分の	-209
れない	-210
ちゃん	-211
いつ	-212
ーガ	-213
▁それ	-214
ところ	-215
彼の	-216
感じ	-217
とか	-218
なった	-219
によ	-220
達の	-221
ウーガ	-222
こう	-223
ねえ	-224
魔物	-225
けど	-226
持ち	-227
まだ	-228
してい	-229
あまり	-230
させ	-231
まる	-232
ければ	-233
▁そう	-234
っても	-235
顔を	-236
ウルの	-237
出す	-238
取り	-239
必要	-240
理解	-241
たい	-242
もし	-243
ーシャ	-244
一つ	-245
的に	-246
すら	-247
視線	-248
のような	-249
引き	-250
とした	-251
仕事	-252
なり	-253
のに	-254
本当	-255
ことが	-256
シアーシャ	-257
振り	-258
時間	-259
ても	-260
彼は	-261
▁◯	-262
よりも	-263
はい	-264
手に	-265
しょう	-266
らない	-267
のだろう	-268
なんだ	-269
❤」	-270
達が	-271
世界	-272
同じ	-273
ここ	-274
はず	-275
できる	-276
以上	-277
▁◆◆◆◆	-278
▁◆◆◆◆◆◆◆◆	-279
▁◆◆◆◆◆◆◆◆◆◆	-280
ならない	-281
のが	-282
出した	-283
リーネ	-284
存在	-285
達は	-286
的な	-287
また	-288
小さ	-289
さん	-290
▁しかし	-291
OO	-292
に対	-293
ギルド	-294
かる	-295
いや	-296
言う	-297
方が	-298
しない	-299
お前	-300
間に	-301
ルイ	-302
気に	-303
自身	-304
リア	-305
起こ	-306
しまった	-307
えば	-308
............	-309
わり	-310
します	-311
子供	-312
になった	-313
ません	-314
ール	-315
精霊	-316
何か	-317
スタ	-318
▁「【	-319
動き	-320
上が	-321
思い	-322
なければ	-323
声を	-324
の一	-325
AAAAAAAA	-326
まあ	-327
なんて	-328
受け	-329
ために	-330
こちら	-331
本当に	-332
じゃない	-333
黒炎	-334
それが	-335
ました	-336
スー	-337
言って	-338
ことも	-339
大罪	-340
違い	-341
グレ	-342
!?」	-343
魔獣	-344
れている	-345
魔力	-346
騎士	-347
目を	-348
はない	-349
しても	-350
ならば	-351
人が	-352
考え	-353
だけで	-354
いか	-355
アカ	-356
しながら	-357
アカネ	-358
▁今	-359
さい	-360
すると	-361
ギークの	-362
しまう	-363
つも	-364
ことに	-365
げる	-366
問題	-367
攻撃	-368
表情	-369
わせ	-370
目の	-371
気が	-372
そも	-373
状況	-374
時に	-375
相手	-376
周囲	-377
よく	-378
しよう	-379
のも	-380
レイ	-381
どこ	-382
をつ	-383
との	-384
すぐ	-385
ジグは	-386
女性	-387
込ま	-388
りの	-389
立ち	-390
えない	-391
情報	-392
落ち	-393
なあ	-394
くらい	-395
いで	-396
そのまま	-397
首を	-398
にと	-399
わず	-400
こんな	-401
人は	-402
突き	-403
それでも	-404
によって	-405
こそ	-406
ロック	-407
可能	-408
いの	-409
当然	-410
大きな	-411
大な	-412
そうだ	-413
もない	-414
ていく	-415
があった	-416
身体を	-417
▁ウルは	-418
べき	-419
いている	-420
竜の	-421
とする	-422
すぎ	-423
ラン	-424
につ	-425
ちょ	-426
への	-427
いを	-428
変わ	-429
ってる	-430
そうな	-431
浮か	-432
彼女が	-433
部屋	-434
ほどの	-435
ハハ	-436
まった	-437
様子	-438
リと	-439
頭を	-440
真っ	-441
】」	-442
カル	-443
フィ	-444
ジャ	-445
切り	-446
向か	-447
違う	-448
すれば	-449
いが	-450
らず	-451
強く	-452
であり	-453
そうに	-454
飛び	-455
全く	-456
込んで	-457
とき	-458
いていた	-459
されて	-460
押し	-461
ユー	-462
いは	-463
更に	-464
あっ	-465
とい	-466
込む	-467
っく	-468
ラウ	-469
剣を	-470
みを	-471
それに	-472
ですか	-473
のだが	-474
来た	-475
此処	-476
ユーリ	-477
りを	-478
らく	-479
共に	-480
前の	-481
イス	-482
!!!」	-483
なに	-484
せた	-485
ラー	-486
言い	-487
武器	-488
無かった	-489
ってきた	-490
意味	-491
気づ	-492
確認	-493
既に	-494
あれ	-495
かない	-496
生き	-497
やる	-498
結果	-499
多く	-500
、【	-501
っち	-502
のを	-503
ヒト	-504
させる	-505
がない	-506
ジグの	-507
無く	-508
くれ	-509
身を	-510
まるで	-511
であった	-512
~~	-513
だと	-514
スト	-515
視線を	-516
後の	-517
イスラ	-518
▁そんな	-519
イスラリア	-520
ですね	-521
げた	-522
魔女	-523
にして	-524
▁「............	-525
ヴィ	-526
られて	-527
強い	-528
瞬間	-529
からの	-530
おお	-531
確かに	-532
ディア	-533
付け	-534
▁この	-535
通り	-536
の大	-537
ンは	-538
を持	-539
程度	-540
スーア	-541
父ちゃん	-542
からない	-543
振る	-544
事を	-545
つけ	-546
再び	-547
シズクは	-548
たちの	-549
ロー	-550
ディズは	-551
一人	-552
▁と	-553
声が	-554
なって	-555
ジグが	-556
言葉を	-557
...」	-558
ていない	-559
仲間	-560
使い	-561
ではなく	-562
!!!	-563
人形	-564
だけの	-565
理由	-566
ウルが	-567
他の	-568
いく	-569
達を	-570
出来る	-571
立て	-572
われる	-573
大きく	-574
にとって	-575
勇者	-576
グリー	-577
わない	-578
地下	-579
人間	-580
続け	-581
ずに	-582
やら	-583
無し	-584
戦士	-585
逃げ	-586
▁【	-587
依頼	-588
神官	-589
われ	-590
もなく	-591
いに	-592
おり	-593
くれる	-594
力が	-595
意識	-596
グリード	-597
アイリスは	-598
そこに	-599
完全	-600
ばかり	-601
状態	-602
ための	-603
同時に	-604
今日	-605
れど	-606
われた	-607
結界	-608
魔王	-609
クレアの	-610
と共に	-611
何も	-612
距離	-613
地面	-614
故に	-615
でしょう	-616
気持ち	-617
もしれない	-618
いえ	-619
ナイ	-620
クレアは	-621
破壊	-622
▁一	-623
全員	-624
やり	-625
悪い	-626
体を	-627
かれた	-628
でもない	-629
らの	-630
ようだ	-631
に対して	-632
合わせ	-633
ジャイン	-634
々に	-635
ンと	-636
打ち	-637
▁(	-638
ええ	-639
トル	-640
どれ	-641
これは	-642
すぐに	-643
叩き	-644
かし	-645
少女	-646
危険	-647
男の	-648
であれば	-649
ものだ	-650
ーレ	-651
くれた	-652
村の	-653
やって	-654
プラウ	-655
続ける	-656
プラウディア	-657
々と	-658
たちが	-659
どうか	-660
ちょっと	-661
できない	-662
アイリスの	-663
出て	-664
になって	-665
かけ	-666
大変	-667
事実	-668
話を	-669
まず	-670
さに	-671
アル	-672
みたい	-673
口を	-674
ようにして	-675
村長	-676
間違い	-677
巨大な	-678
やは	-679
を見て	-680
それで	-681
終わ	-682
ことで	-683
ああああ	-684
あまりにも	-685
カラ	-686
先に	-687
からは	-688
中に	-689
つもり	-690
ショ	-691
色の	-692
かも	-693
当た	-694
トール	-695
あら	-696
やはり	-697
自身の	-698
なのだ	-699
込んだ	-700
りに	-701
願い	-702
上げる	-703
出し	-704
殺し	-705
だけど	-706
と同じ	-707
せて	-708
かの	-709
と思う	-710
以外	-711
ンの	-712
をする	-713
言葉に	-714
今の	-715
もっと	-716
ベル	-717
だって	-718
グレーレ	-719
方の	-720
込み	-721
説明	-722
▁僕	-723
おう	-724
口に	-725
見た	-726
▁それは	-727
なのか	-728
者が	-729
の上	-730
太陽	-731
つまり	-732
はその	-733
者の	-734
の中で	-735
を見る	-736
aa	-737
今回	-738
高い	-739
んでいる	-740
聞こ	-741
過ぎ	-742
だな	-743
さを	-744
らす	-745
OOOO	-746
気を	-747
までの	-748
よね	-749
反応	-750
神の	-751
れていた	-752
一度	-753
彼が	-754
とう	-755
死に	-756
小さな	-757
の方	-758
力は	-759
向け	-760
流石	-761
ですが	-762
覚え	-763
ラック	-764
を使	-765
達に	-766
小さく	-767
よろ	-768
何故	-769
無理	-770
そういう	-771
数の	-772
出して	-773
自分が	-774
?』	-775
たちは	-776
っぱ	-777
足を	-778
まれた	-779
姿を	-780
魔眼	-781
グラ	-782
黒い	-783
っくりと	-784
られない	-785
想像	-786
者は	-787
くだ	-788
現在	-789
飲み	-790
けない	-791
名無し	-792
にお	-793
カカ	-794
彼女を	-795
彼らは	-796
いない	-797
分か	-798
後ろ	-799
物を	-800
浮かべ	-801
良く	-802
と言う	-803
今は	-804
二人	-805
戦闘	-806
準備	-807
の魔術	-808
好き	-809
▁―――	-810
ティ	-811
後に	-812
めていた	-813
てる	-814
ものを	-815
見える	-816
神殿	-817
からだ	-818
▁「――――	-819
先ほど	-820
完全に	-821
思った	-822
行く	-823
お願い	-824
全てを	-825
言った	-826
体が	-827
死ぬ	-828
います	-829
らし	-830
腕を	-831
ぁっ	-832
音が	-833
最初	-834
カルカラ	-835
り返	-836
だよ	-837
多い	-838
ドル	-839
GG	-840
出る	-841
いった	-842
実際	-843
んでいた	-844
されている	-845
がる	-846
が一	-847
そもそも	-848
勿論	-849
聞いた	-850
早く	-851
飛ば	-852
となる	-853
ブラック	-854
というのは	-855
っか	-856
であろう	-857
による	-858
んと	-859
ってくる	-860
とはいえ	-861
になり	-862
王の	-863
踏み	-864
に入	-865
おか	-866
エシェルは	-867
最も	-868
可能性	-869
決して	-870
......❤」	-871
やす	-872
食べ	-873
常に	-874
ほどに	-875
近づ	-876
としても	-877
動か	-878
グラドル	-879
死霊	-880
事は	-881
ダヴィ	-882
ダヴィネ	-883
さえ	-884
巻き	-885
関係	-886
しろ	-887
をか	-888
もある	-889
▁ジグは	-890
......❤	-891
▁だから	-892
となった	-893
光景	-894
丈夫	-895
息を	-896
ありが	-897
あるいは	-898
エル	-899
ート	-900
感情	-901
......!」	-902
つか	-903
ソレ	-904
合う	-905
比べ	-906
聞き	-907
騎士団	-908
ント	-909
ながらも	-910
について	-911
をした	-912
かもしれない	-913
落と	-914
ナイア	-915
のだから	-916
シャナイア	-917
下ろ	-918
経験	-919
っていない	-920
られている	-921
楽し	-922
していく	-923
ギークが	-924
出来ない	-925
ゆっくりと	-926
分からない	-927
あん	-928
普段	-929
までも	-930
始めた	-931
ウーガの	-932
できた	-933
は一	-934
リン	-935
力の	-936
なければならない	-937
の竜	-938
ード	-939
深く	-940
長い	-941
わざ	-942
大丈夫	-943
差し	-944
立つ	-945
えていた	-946
での	-947
移動	-948
用意	-949
されていた	-950
利用	-951
手の	-952
止め	-953
絶対	-954
にある	-955
ッド	-956
にいる	-957
を放	-958
魔力を	-959
なんとか	-960
七天	-961
評価	-962
くと	-963
彼女に	-964
ごと	-965
焼き	-966
ください	-967
ところで	-968
シズクの	-969
いだ	-970
感覚	-971
ことだ	-972
ラース	-973
実に	-974
体の	-975
笑う	-976
がいた	-977
上げた	-978
としての	-979
!?	-980
笑った	-981
判断	-982
達も	-983
を取り	-984
ずっと	-985
ついた	-986
はある	-987
っていく	-988
ありません	-989
術式	-990
えている	-991
リーネは	-992
来る	-993
考える	-994
うち	-995
警戒	-996
わせる	-997
なるほど	-998
シアーシャが	-999
指示	-1000
物の	-1001
しば	-1002
彼らの	-1003
▁それを	-1004
だったが	-1005
がり	-1006
目に	-1007
上手	-1008
よろしく	-1009
次の	-1010
パン	-1011
悲鳴	-1012
とても	-1013
続けた	-1014
作業	-1015
まさ	-1016
ーは	-1017
何を	-1018
レイク	-1019
初めて	-1020
特に	-1021
宝石	-1022
目的	-1023
訓練	-1024
を見た	-1025
聞いて	-1026
■■	-1027
随分	-1028
ット	-1029
出た	-1030
しに	-1031
人類	-1032
誰も	-1033
とは思	-1034
II	-1035
うん	-1036
サナ	-1037
直接	-1038
ものが	-1039
目の前の	-1040
しき	-1041
の外	-1042
クナ	-1043
イサナ	-1044
クナトル	-1045
知っている	-1046
クナトルレイク	-1047
としている	-1048
入れ	-1049
技術	-1050
お願いします	-1051
しゃ	-1052
だろ	-1053
ダメ	-1054
生み	-1055
▁――	-1056
大罪都市	-1057
のない	-1058
なの	-1059
入り	-1060
回復	-1061
▁これ	-1062
けれど	-1063
連中	-1064
フィア	-1065
を守	-1066
体は	-1067
此方	-1068
顔で	-1069
ですよ	-1070
のある	-1071
われて	-1072
恐らく	-1073
不死	-1074
少年	-1075
彼等	-1076
肩を	-1077
めている	-1078
かと	-1079
男が	-1080
座に	-1081
駆け	-1082
ベッド	-1083
なくとも	-1084
出現	-1085
かれる	-1086
つの	-1087
を作	-1088
ーム	-1089
!!』	-1090
。【	-1091
ロン	-1092
場合	-1093
黄金	-1094
わけではない	-1095
▁......	-1096
エク	-1097
合い	-1098
るのは	-1099
してきた	-1100
みに	-1101
一瞬	-1102
別の	-1103
度も	-1104
空間	-1105
かつ	-1106
本来	-1107
させた	-1108
かく	-1109
とん	-1110
ザイン	-1111
笑みを	-1112
しなかった	-1113
▁大	-1114
わか	-1115
別に	-1116
していない	-1117
が見	-1118
つつ	-1119
繰り返	-1120
▁それが	-1121
だけだ	-1122
くない	-1123
力で	-1124
吐き	-1125
ルー	-1126
人を	-1127
白い	-1128
流石に	-1129
魔術の	-1130
▁あ	-1131
事に	-1132
聖女	-1133
だろうか	-1134
ではなかった	-1135
動く	-1136
十分	-1137
天賢	-1138
管理	-1139
きて	-1140
伸び	-1141
払い	-1142
は無い	-1143
んだよ	-1144
全ての	-1145
心配	-1146
手で	-1147
向ける	-1148
取る	-1149
男は	-1150
さない	-1151
▁彼女は	-1152
戦い	-1153
精霊の	-1154
られていた	-1155
かれ	-1156
つく	-1157
を開	-1158
貴方	-1159
あって	-1160
はっ	-1161
指先	-1162
様に	-1163
エリン	-1164
かい	-1165
チュ	-1166
張り	-1167
代わり	-1168
を受け	-1169
上がる	-1170
ッと	-1171
変化	-1172
ゆる	-1173
怪我	-1174
速度	-1175
魔術師	-1176
捨て	-1177
少ない	-1178
を得	-1179
前で	-1180
おい	-1181
抜け	-1182
疑問	-1183
に向か	-1184
りは	-1185
討伐	-1186
じゃあ	-1187
すぎる	-1188
しまっていた	-1189
アナ	-1190
身に	-1191
分かる	-1192
んだけど	-1193
EE	-1194
キス	-1195
こっち	-1196
としては	-1197
恐ろ	-1198
撫で	-1199
シズクが	-1200
ライ	-1201
一緒	-1202
音を	-1203
からね	-1204
即座に	-1205
▁「...	-1206
ベー	-1207
ンが	-1208
明ら	-1209
部分	-1210
タイ	-1211
傭兵	-1212
らう	-1213
以上に	-1214
余裕	-1215
腰を	-1216
バベル	-1217
人に	-1218
助け	-1219
白王	-1220
相手に	-1221
無論	-1222
じる	-1223
を行	-1224
付き	-1225
しかも	-1226
の中に	-1227
なります	-1228
足り	-1229
魔石	-1230
だけは	-1231
つける	-1232
ここまで	-1233
妙な	-1234
行動	-1235
ボルド	-1236
頷いた	-1237
さて	-1238
尽く	-1239
降り	-1240
▁ウル	-1241
まと	-1242
正直	-1243
それも	-1244
難しい	-1245
々の	-1246
の内	-1247
場に	-1248
息をつ	-1249
装備	-1250
どこか	-1251
▁〈	-1252
りゃ	-1253
アレ	-1254
中で	-1255
量の	-1256
と思った	-1257
エクスタ	-1258
エクスタイン	-1259
を受	-1260
物が	-1261
答え	-1262
んじゃ	-1263
上手く	-1264
ハッ	-1265
無視	-1266
不死鳥	-1267
モノ	-1268
心を	-1269
日の	-1270
止める	-1271
エリン姉	-1272
ものだった	-1273
ブル	-1274
と比べ	-1275
まい	-1276
天陽	-1277
普通	-1278
無茶	-1279
ぐらい	-1280
ものは	-1281
アナスタ	-1282
アナスタシア	-1283
投げ	-1284
時の	-1285
つけた	-1286
グリ	-1287
気配	-1288
なので	-1289
距離を	-1290
そこまで	-1291
さら	-1292
面倒	-1293
々しい	-1294
母ちゃん	-1295
AAAAAAAAAAAAAAAA	-1296
笑い	-1297
なんで	-1298
まじ	-1299
ップ	-1300
握り	-1301
様々	-1302
響く	-1303
魔法	-1304
したら	-1305
すらも	-1306
~~~~	-1307
しかった	-1308
出された	-1309
の手	-1310
ンタ	-1311
混乱	-1312
自然	-1313
衝撃	-1314
なのに	-1315
命を	-1316
を引き	-1317
思わず	-1318
振り返	-1319
ジー	-1320
不意	-1321
にする	-1322
いたします	-1323
当て	-1324
ましい	-1325
たら	-1326
地面に	-1327
何の	-1328
呼ば	-1329
私は	-1330
までは	-1331
ではある	-1332
らが	-1333
りが	-1334
グル	-1335
女の	-1336
尋ね	-1337
馬鹿	-1338
カルメ	-1339
地下牢	-1340
やく	-1341
伸ば	-1342
白の	-1343
知ら	-1344
脅威	-1345
剣の	-1346
横に	-1347
ックス	-1348
感じる	-1349
▁そう言って	-1350
はぁ	-1351
一方	-1352
最悪	-1353
輝き	-1354
追い	-1355
をして	-1356
ディズの	-1357
ーの	-1358
背中	-1359
ラスト	-1360
冒険者ギルド	-1361
屋敷	-1362
始める	-1363
迷宮の	-1364
形を	-1365
放た	-1366
▁彼女の	-1367
ユーリは	-1368
良かった	-1369
RR	-1370
を抱	-1371
モチ	-1372
白王陣	-1373
つき	-1374
呼び	-1375
思う	-1376
はどう	-1377
マーク	-1378
落ち着	-1379
まれ	-1380
かなり	-1381
欲しい	-1382
せず	-1383
継続	-1384
限り	-1385
アルノ	-1386
ギークは	-1387
、“	-1388
かか	-1389
をも	-1390
が無い	-1391
るように	-1392
よろしくお願いします	-1393
すと	-1394
に見	-1395
!!!』	-1396
アルノルド	-1397
やや	-1398
姿は	-1399
満ち	-1400
ものの	-1401
ハハハハ	-1402
かは	-1403
ねば	-1404
のみ	-1405
抵抗	-1406
以上の	-1407
宝石人形	-1408
居る	-1409
最後	-1410
▁いい	-1411
に戻	-1412
▁ただ	-1413
感謝	-1414
様の	-1415
確信	-1416
道具	-1417
したい	-1418
▁ブ	-1419
けば	-1420
声で	-1421
おく	-1422
身体が	-1423
に対する	-1424
不安	-1425
んです	-1426
とて	-1427
とな	-1428
たく	-1429
乗り	-1430
方舟	-1431
ルイは	-1432
んっ	-1433
なくて	-1434
もまた	-1435
ねぇ	-1436
新た	-1437
研究	-1438
竜牙	-1439
納得	-1440
に手を	-1441
全てが	-1442
情報を	-1443
するように	-1444
ども	-1445
ちゃんと	-1446
地獄	-1447
突っ	-1448
冒険者の	-1449
ボロ	-1450
思議	-1451
手が	-1452
支配	-1453
文字	-1454
様々な	-1455
あらゆる	-1456
バカ	-1457
僕は	-1458
確か	-1459
興味	-1460
多くの	-1461
どれだけ	-1462
引っ	-1463
用の	-1464
してる	-1465
考えて	-1466
見て	-1467
込まれた	-1468
▁「......」	-1469
ござ	-1470
ング	-1471
場の	-1472
部下	-1473
ついて	-1474
グロン	-1475
グロンゾ	-1476
一切	-1477
直結	-1478
なさい	-1479
まさか	-1480
周囲の	-1481
女性の	-1482
められた	-1483
イツ	-1484
かける	-1485
二人の	-1486
身体は	-1487
をしている	-1488
っぽ	-1489
スカ	-1490
果た	-1491
護衛	-1492
起き	-1493
集中	-1494
取った	-1495
ましょう	-1496
ージ	-1497
果て	-1498
視界	-1499
重ね	-1500
っかり	-1501
出来た	-1502
なくなった	-1503
シン	-1504
俺は	-1505
邪魔	-1506
村長婦	-1507
終わり	-1508
随分と	-1509
だければ	-1510
ジースタ	-1511
なお	-1512
向き	-1513
維持	-1514
ウルを	-1515
自分を	-1516
ベーショ	-1517
モチベーショ	-1518
......、	-1519
機能	-1520
からも	-1521
するのは	-1522
セックス	-1523
地の	-1524
強化	-1525
未だ	-1526
知識	-1527
かつて	-1528
マフィア	-1529
ありがとう	-1530
なぜ	-1531
にて	-1532
▁そこ	-1533
一緒に	-1534
世界の	-1535
竜牙槍	-1536
▁今後の	-1537
じて	-1538
エン	-1539
ガザ	-1540
度は	-1541
ようと	-1542
力にも	-1543
ックマーク	-1544
正面	-1545
せない	-1546
ウルに	-1547
ことはない	-1548
笑みを浮かべ	-1549
双刃	-1550
発生	-1551
簡単	-1552
落下	-1553
からな	-1554
向こう	-1555
場所に	-1556
ようやく	-1557
分かった	-1558
のだろうか	-1559
与え	-1560
流れ	-1561
見る	-1562
▁評価	-1563
まって	-1564
を前に	-1565
二人は	-1566
しかない	-1567
のでどうか	-1568
加護	-1569
がった	-1570
どんな	-1571
魔獣の	-1572
において	-1573
コレ	-1574
期待	-1575
不思議	-1576
ンッ	-1577
回る	-1578
彼に	-1579
手段	-1580
どちら	-1581
▁いいね	-1582
▁ブックマーク	-1583
大きなモチベーショ	-1584
のでどうかよろしくお願いします	-1585
崩壊	-1586
んだが	-1587
相手の	-1588
力にも直結	-1589
▁今後の継続	-1590
だければ大変	-1591
ンとなります	-1592
▁いいねがいた	-1593
力にも直結いたします	-1594
▁いいねがいただければ大変	-1595
大きなモチベーションとなります	-1596
▁今後の継続力にも直結いたします	-1597
あげ	-1598
ギリ	-1599
光が	-1600
参加	-1601
食い	-1602
クレアが	-1603
間違いなく	-1604
所に	-1605
私の	-1606
を失	-1607
俺の	-1608
報告	-1609
戦う	-1610
規模	-1611
▁あの	-1612
らせる	-1613
見えた	-1614
できなかった	-1615
微笑	-1616
わる	-1617
安全	-1618
いつも	-1619
知らない	-1620
ことになる	-1621
あた	-1622
外に	-1623
安心	-1624
酷く	-1625
魔物の	-1626
魔術を	-1627
なくなる	-1628
アイリスが	-1629
はずだ	-1630
あな	-1631
恐怖	-1632
背後	-1633
そろ	-1634
らを	-1635
殺す	-1636
襲撃	-1637
ただの	-1638
何度も	-1639
時間が	-1640
無数の	-1641
というか	-1642
たた	-1643
魔具	-1644
▁僕は	-1645
必要な	-1646
美しい	-1647
けてきた	-1648
わかった	-1649
命の	-1650
限界	-1651
あれば	-1652
も無い	-1653
かのように	-1654
報酬	-1655
思考	-1656
カーク	-1657
はいない	-1658
回り	-1659
巨大	-1660
者も	-1661
凄まじ	-1662
といった	-1663
はは	-1664
何が	-1665
美味	-1666
一気に	-1667
理解した	-1668
少なくとも	-1669
っちゃ	-1670
大罪竜	-1671
になっている	-1672
......?」	-1673
えず	-1674
げに	-1675
事情	-1676
様は	-1677
聞く	-1678
ギークに	-1679
気づいた	-1680
なし	-1681
ヴァ	-1682
住民	-1683
単純	-1684
のです	-1685
終わった	-1686
回避	-1687
ウルも	-1688
仕事を	-1689
激しい	-1690
自らの	-1691
の間	-1692
上に	-1693
基本	-1694
ハッキ	-1695
意思	-1696
目で	-1697
を見つ	-1698
あまりに	-1699
かね	-1700
らは	-1701
力に	-1702
最近	-1703
無事	-1704
頷く	-1705
高く	-1706
はなかった	-1707
▁が	-1708
使う	-1709
容易	-1710
怪鳥	-1711
申し	-1712
こちらの	-1713
というのに	-1714
かが	-1715
もち	-1716
らせ	-1717
んの	-1718
名前	-1719
まれる	-1720
ウルと	-1721
しばらく	-1722
しました	-1723
であっても	-1724
ロウ	-1725
事態	-1726
全部	-1727
感を	-1728
爆発	-1729
エンヴィ	-1730
ーん	-1731
大陸	-1732
我が	-1733
持つ	-1734
銀の	-1735
長く	-1736
させて	-1737
どころ	-1738
今回の	-1739
だけれど	-1740
手伝	-1741
イカ	-1742
蜂蜜	-1743
被害	-1744
試合	-1745
とんど	-1746
ほとんど	-1747
えに	-1748
なさ	-1749
上で	-1750
結局	-1751
綺麗	-1752
転移	-1753
の間に	-1754
らした	-1755
わかる	-1756
いかない	-1757
ロックは	-1758
次の瞬間	-1759
にか	-1760
気の	-1761
無駄	-1762
睨み	-1763
竜が	-1764
絶対に	-1765
エシェルの	-1766
ほう	-1767
のために	-1768
大罪迷宮	-1769
◇◇	-1770
いと	-1771
っき	-1772
位置	-1773
協力	-1774
続く	-1775
非常に	-1776
わからない	-1777
問う	-1778
時は	-1779
正確	-1780
認識	-1781
あなた	-1782
たちを	-1783
すご	-1784
ファ	-1785
事が	-1786
場で	-1787
最早	-1788
真似	-1789
賞金	-1790
ライン	-1791
...。	-1792
クウ	-1793
吹き	-1794
不意に	-1795
竜は	-1796
近く	-1797
上げて	-1798
大きい	-1799
此処に	-1800
ディズが	-1801
上がった	-1802
先の	-1803
驚き	-1804
いくら	-1805
やっぱ	-1806
動きを	-1807
都市民	-1808
困難	-1809
外の	-1810
部隊	-1811
様な	-1812
殆ど	-1813
のなら	-1814
明らかに	-1815
満足	-1816
身体に	-1817
頭を下	-1818
だけでも	-1819
頭部	-1820
身体の	-1821
でもある	-1822
ンっ	-1823
組み	-1824
もちろ	-1825
当たり	-1826
感じた	-1827
表情で	-1828
多少	-1829
抱き	-1830
深層	-1831
跳ね	-1832
軽く	-1833
分から	-1834
いな	-1835
だね	-1836
やれ	-1837
異常	-1838
らしく	-1839
んだろう	-1840
代わりに	-1841
間もなく	-1842
みる	-1843
大麦	-1844
映像	-1845
王は	-1846
話は	-1847
かせる	-1848
せば	-1849
当な	-1850
眉を	-1851
ようで	-1852
入れる	-1853
▁「―――	-1854
下に	-1855
来て	-1856
背負	-1857
▁彼は	-1858
のこと	-1859
わらず	-1860
中の	-1861
圧倒	-1862
深い	-1863
頑張	-1864
こうして	-1865
だし	-1866
とり	-1867
以前	-1868
体に	-1869
構え	-1870
いたい	-1871
付ける	-1872
の姿	-1873
否定	-1874
様が	-1875
っては	-1876
まとも	-1877
存在する	-1878
っぷ	-1879
を狙	-1880
エイ	-1881
腕が	-1882
行き	-1883
徐々に	-1884
改めて	-1885
あります	-1886
▁お	-1887
元々	-1888
失敗	-1889
料理	-1890
者を	-1891
ストリ	-1892
ございます	-1893
ようだった	-1894
厄介	-1895
知る	-1896
立場	-1897
返す	-1898
選択	-1899
馬車	-1900
どうする	-1901
の冒険者	-1902
んじゃない	-1903
咆吼	-1904
心に	-1905
記憶	-1906
躊躇	-1907
死霊兵	-1908
きながら	-1909
エルシア	-1910
聞こえて	-1911
自由	-1912
覚悟	-1913
世界を	-1914
では無い	-1915
天陽騎士	-1916
ビク	-1917
彼を	-1918
払う	-1919
方を	-1920
気分	-1921
のため	-1922
ター	-1923
完成	-1924
みが	-1925
声に	-1926
役割	-1927
満た	-1928
表情を	-1929
これから	-1930
家族	-1931
目が	-1932
苦労	-1933
まして	-1934
やった	-1935
ジグに	-1936
理由は	-1937
▁「............」	-1938
いき	-1939
は大	-1940
▁それに	-1941
るような	-1942
一番	-1943
交易	-1944
指輪	-1945
掛け	-1946
範囲	-1947
そりゃ	-1948
攻撃を	-1949
ものではない	-1950
侵入	-1951
強引	-1952
影響	-1953
明確	-1954
読み	-1955
aaaa	-1956
展開	-1957
感が	-1958
響き	-1959
たちに	-1960
止めた	-1961
】【	-1962
さと	-1963
パー	-1964
従者	-1965
突然	-1966
風に	-1967
合わせて	-1968
あー	-1969
ッチ	-1970
意を	-1971
日は	-1972
私が	-1973
道を	-1974
そうか	-1975
はずの	-1976
アラン	-1977
付いた	-1978
叫んだ	-1979
飛んで	-1980
それだけ	-1981
知れない	-1982
えなかった	-1983
こぼ	-1984
べく	-1985
物に	-1986
魔導	-1987
たたき	-1988
喰らい	-1989
言うと	-1990
化け	-1991
地に	-1992
お前の	-1993
ジャインは	-1994
▁何	-1995
ひた	-1996
ぶり	-1997
ダー	-1998
残る	-1999
と呼ば	-2000
ウル様	-2001
そうだな	-2002
恐ろしい	-2003
続けていた	-2004
冷静	-2005
の一つ	-2006
やかな	-2007
首を傾	-2008
どうした	-2009
ことがある	-2010
OOOOOOOO	-2011
やすい	-2012
イカザ	-2013
スーラ	-2014
どういう	-2015
そしてその	-2016
エイスーラ	-2017
うう	-2018
刺さ	-2019
北方	-2020
悪く	-2021
空を	-2022
上がり	-2023
変わり	-2024
竜殺し	-2025
出される	-2026
どうしよう	-2027
性を	-2028
向けた	-2029
GGGG	-2030
もう少し	-2031
もちろん	-2032
アカネは	-2033
になっていた	-2034
ちゅ	-2035
ース	-2036
対処	-2037
教徒	-2038
となって	-2039
ストリゴ	-2040
込まれる	-2041
シアーシャは	-2042
交わ	-2043
家の	-2044
貴族	-2045
なのは	-2046
以外の	-2047
向かう	-2048
彼らが	-2049
逃げる	-2050
どうやら	-2051
AH	-2052
ぶん	-2053
バス	-2054
心の	-2055
かけた	-2056
したが	-2057
わから	-2058
勝手に	-2059
勢を	-2060
容赦	-2061
後は	-2062
現象	-2063
全員が	-2064
ってしまった	-2065
私も	-2066
身の	-2067
あんな	-2068
を確認	-2069
なっていた	-2070
わね	-2071
を探	-2072
沈黙	-2073
進む	-2074
▁あっ	-2075
が起こ	-2076
わかり	-2077
だろうが	-2078
わけには	-2079
黒炎払い	-2080
▁それでも	-2081
じた	-2082
制御	-2083
危機	-2084
▁自分	-2085
ガント	-2086
リスク	-2087
合った	-2088
黒炎鬼	-2089
なっている	-2090
わなかった	-2091
続けている	-2092
さは	-2093
一歩	-2094
教え	-2095
男に	-2096
かかる	-2097
までに	-2098
魔力が	-2099
グレーレは	-2100
ぶつ	-2101
剣が	-2102
地を	-2103
形で	-2104
最高	-2105
現状	-2106
近い	-2107
ここに	-2108
天賢王	-2109
立った	-2110
ひたすら	-2111
っす	-2112
触れ	-2113
酒を	-2114
酷い	-2115
してお	-2116
魔力の	-2117
められる	-2118
凄まじい	-2119
❤』	-2120
かせ	-2121
二つ	-2122
態度	-2123
指を	-2124
知り	-2125
ヒトの	-2126
悲鳴を	-2127
▁ウルの	-2128
抑え	-2129
若い	-2130
話し	-2131
しては	-2132
アンタ	-2133
予想	-2134
切れ	-2135
心臓	-2136
至る	-2137
解放	-2138
防御	-2139
頭が	-2140
だけが	-2141
ていった	-2142
かす	-2143
条件	-2144
比較	-2145
為に	-2146
結構	-2147
げて	-2148
ナは	-2149
斬り	-2150
場所は	-2151
に関	-2152
攻略	-2153
間違	-2154
魔界	-2155
グリズ	-2156
ルイの	-2157
死んで	-2158
開いた	-2159
シグリズ	-2160
げな	-2161
を求	-2162
何処	-2163
揺ら	-2164
銀級	-2165
まずは	-2166
ティア	-2167
周囲に	-2168
血を	-2169
相手を	-2170
静かに	-2171
しそうに	-2172
価値	-2173
僕の	-2174
効果	-2175
声は	-2176
責任	-2177
質問	-2178
たった	-2179
ろうと	-2180
生まれた	-2181
ああああああああ	-2182
ステ	-2183
信仰	-2184
先を	-2185
方は	-2186
等級	-2187
てきた	-2188
ナイフ	-2189
足りない	-2190
.........	-2191
同士	-2192
――」	-2193
▁彼の	-2194
今日は	-2195
振り回	-2196
の中でも	-2197
さず	-2198
ィン	-2199
バル	-2200
マシ	-2201
作戦	-2202
工房	-2203
抜き	-2204
文句	-2205
溢れ	-2206
防壁	-2207
これで	-2208
少しだけ	-2209
ブラックは	-2210
つい	-2211
ダル	-2212
チャ	-2213
処理	-2214
感想	-2215
指摘	-2216
詠唱	-2217
金を	-2218
あんた	-2219
奇妙な	-2220
程度の	-2221
都市の	-2222
ていなかった	-2223
あと	-2224
たど	-2225
の時	-2226
みた	-2227
戦争	-2228
消し	-2229
生物	-2230
ったら	-2231
化した	-2232
おおおお	-2233
ってしまう	-2234
うる	-2235
やつ	-2236
付く	-2237
再生	-2238
己の	-2239
慌て	-2240
痛い	-2241
絶頂	-2242
最後の	-2243
武器を	-2244
考えた	-2245
してくれる	-2246
するような	-2247
。......	-2248
アア	-2249
幾つ	-2250
砕け	-2251
話が	-2252
通信	-2253
鍛錬	-2254
僅かに	-2255
レイライン	-2256
きゃ	-2257
予定	-2258
唯一	-2259
調べ	-2260
を持つ	-2261
切り裂	-2262
残った	-2263
すること	-2264
どうして	-2265
わざわざ	-2266
▁は	-2267
あく	-2268
ゼロ	-2269
場を	-2270
消耗	-2271
見つ	-2272
迫る	-2273
都合	-2274
事も	-2275
動作	-2276
意図	-2277
計画	-2278
起こす	-2279
したのは	-2280
られなかった	-2281
の人	-2282
仕方	-2283
側に	-2284
大人	-2285
学園	-2286
必ず	-2287
意見	-2288
血が	-2289
通常	-2290
もので	-2291
この世界	-2292
ウル達の	-2293
われている	-2294
ほぼ	-2295
使用	-2296
気味	-2297
消え	-2298
緊張	-2299
観察	-2300
かれて	-2301
教えて	-2302
時間を	-2303
珍しい	-2304
であるが	-2305
!!!!』	-2306
▁父ちゃん	-2307
▁そしてその	-2308
しが	-2309
ずつ	-2310
ラビ	-2311
冗談	-2312
立た	-2313
邪教徒	-2314
こちらに	-2315
であると	-2316
ジグさん	-2317
リーネの	-2318
目の前に	-2319
っつ	-2320
肉棒	-2321
蜥蜴	-2322
重要	-2323
際に	-2324
これが	-2325
しまい	-2326
のまま	-2327
周囲を	-2328
申し訳	-2329
首を横に	-2330
まっている	-2331
エシェルが	-2332
▁先	-2333
さが	-2334
中央	-2335
作り	-2336
槍を	-2337
竜を	-2338
魔の	-2339
必死に	-2340
込まれ	-2341
のだった	-2342
正面から	-2343
っていった	-2344
。」	-2345
まう	-2346
オオ	-2347
天剣	-2348
がいる	-2349
のだと	-2350
の精霊	-2351
現れた	-2352
見えない	-2353
どのような	-2354
り着	-2355
待ち	-2356
生活	-2357
さらに	-2358
ルイが	-2359
っかりと	-2360
ということ	-2361
エンヴィー	-2362
つま	-2363
イズ	-2364
上の	-2365
不明	-2366
子を	-2367
食料	-2368
▁あッ	-2369
もしれ	-2370
大量の	-2371
うように	-2372
▁そうして	-2373
変わらない	-2374
ならなかった	-2375
......!	-2376
兵器	-2377
早い	-2378
書き	-2379
柔ら	-2380
竜吞	-2381
走り	-2382
でしょ	-2383
なんと	-2384
正しい	-2385
ひと	-2386
変え	-2387
建設	-2388
者達	-2389
舌を	-2390
言で	-2391
詰め	-2392
お前は	-2393
自分は	-2394
見れば	-2395
ざる	-2396
クソ	-2397
強欲	-2398
成長	-2399
最大	-2400
混じ	-2401
防具	-2402
そこで	-2403
の中心	-2404
まさに	-2405
グレン	-2406
何かを	-2407
切った	-2408
意識を	-2409
行った	-2410
IIII	-2411
わよ	-2412
交渉	-2413
拳を	-2414
物は	-2415
組織	-2416
続き	-2417
耐え	-2418
連絡	-2419
鋭い	-2420
ないと	-2421
何故か	-2422
言えば	-2423
▁ジグの	-2424
どころか	-2425
しまっている	-2426
出来なかった	-2427
くて	-2428
のう	-2429
数が	-2430
術を	-2431
を守る	-2432
▁シズクは	-2433
切る	-2434
女が	-2435
ていて	-2436
場所を	-2437
▁つまり	-2438
ギュ	-2439
チラ	-2440
半分	-2441
胸を	-2442
頼む	-2443
騒動	-2444
なんか	-2445
ミング	-2446
二つの	-2447
分かり	-2448
そこには	-2449
スーアは	-2450
なのだろう	-2451
のお	-2452
ッッ	-2453
名を	-2454
呼吸	-2455
残念	-2456
眷属	-2457
途中	-2458
にした	-2459
らった	-2460
――――」	-2461
一体	-2462
人と	-2463
内に	-2464
成功	-2465
探索	-2466
灰の	-2467
隊長	-2468
髪を	-2469
が必要	-2470
動いた	-2471
連れて	-2472
してくる	-2473
クレアと	-2474
グルフィ	-2475
分かっている	-2476
内部	-2477
安堵	-2478
島喰	-2479
治療	-2480
直ぐ	-2481
素材	-2482
の方が	-2483
▁ウルが	-2484
なのだが	-2485
▁カ	-2486
ごめ	-2487
の類	-2488
子に	-2489
対象	-2490
蹴り	-2491
あえず	-2492
が悪い	-2493
すぎた	-2494
指示を	-2495
構える	-2496
落ちる	-2497
こちらを	-2498
理解している	-2499
フォ	-2500
人も	-2501
任せ	-2502
光の	-2503
幸せ	-2504
まれて	-2505
るべき	-2506
優しく	-2507
入った	-2508
状況を	-2509
▁ディズは	-2510
タイミング	-2511
がな	-2512
バラ	-2513
気で	-2514
肉を	-2515
長船	-2516
そちら	-2517
ウル達	-2518
太陽神	-2519
AHAH	-2520
してしまう	-2521
めに	-2522
支援	-2523
示す	-2524
の意味	-2525
自体は	-2526
陽喰らい	-2527
ようとした	-2528
自分たちの	-2529
イル	-2530
一応	-2531
俺が	-2532
創り	-2533
力も	-2534
取引	-2535
性の	-2536
接触	-2537
特別	-2538
疲労	-2539
紛れ	-2540
遠く	-2541
きたい	-2542
はそう	-2543
死んだ	-2544
真っ黒	-2545
このまま	-2546
しまえば	-2547
ため息をつ	-2548
では無かった	-2549
不満	-2550
点で	-2551
たっぷ	-2552
により	-2553
ベイツ	-2554
入れた	-2555
置いて	-2556
かのような	-2557
叫び	-2558
困る	-2559
昨日	-2560
込め	-2561
通路	-2562
間の	-2563
▁少し	-2564
きっと	-2565
やかに	-2566
一方で	-2567
危険な	-2568
振った	-2569
離れた	-2570
先端	-2571
兵士	-2572
活動	-2573
自覚	-2574
起動	-2575
輝く	-2576
ってた	-2577
激しく	-2578
▁そこに	-2579
▁・	-2580
敵対	-2581
英雄	-2582
開く	-2583
くなる	-2584
変わる	-2585
■■■■	-2586
みたいな	-2587
パーティ	-2588
出てきた	-2589
こともある	-2590
に向かって	-2591
メー	-2592
冬の	-2593
回収	-2594
方に	-2595
方法	-2596
水を	-2597
目は	-2598
避け	-2599
チーム	-2600
何かが	-2601
強引に	-2602
新しい	-2603
ボルドー	-2604
どの	-2605
の奥	-2606
周辺	-2607
施設	-2608
メダル	-2609
島喰亀	-2610
黄金級	-2611
と同	-2612
ィア	-2613
叫ぶ	-2614
度と	-2615
格好	-2616
現実	-2617
砂漠	-2618
精神	-2619
▁無論	-2620
すべき	-2621
するが	-2622
に過ぎ	-2623
変える	-2624
振るう	-2625
言葉が	-2626
るところ	-2627
カルカラは	-2628
環境	-2629
相応	-2630
苦し	-2631
避難	-2632
頬を	-2633
かけて	-2634
クレツ	-2635
じゃねえ	-2636
ラクレツ	-2637
間違いない	-2638
ラクレツィア	-2639
▁』	-2640
ほら	-2641
一杯	-2642
店員	-2643
たちも	-2644
などと	-2645
太陽の	-2646
的には	-2647
知った	-2648
自然と	-2649
いつもの	-2650
そうなる	-2651
冒険者が	-2652
真っ直ぐ	-2653
そうだった	-2654
言っている	-2655
のよ	-2656
を指	-2657
性が	-2658
想定	-2659
提案	-2660
発動	-2661
解決	-2662
顔が	-2663
も無く	-2664
姿を現	-2665
押さえ	-2666
握りし	-2667
と言えば	-2668
合わせる	-2669
突き刺さ	-2670
いつの間に	-2671
聞いていた	-2672
こな	-2673
さま	-2674
らぬ	-2675
ーネ	-2676
両断	-2677
盗賊	-2678
わけで	-2679
を感じ	-2680
向けて	-2681
おかしい	-2682
ですから	-2683
アカネの	-2684
グレンは	-2685
シアーシャの	-2686
――――――――	-2687
の下	-2688
ーー	-2689
干渉	-2690
苦笑	-2691
過去	-2692
ゆえに	-2693
子供の	-2694
きている	-2695
やっぱり	-2696
しながらも	-2697
と呼ばれる	-2698
とる	-2699
よし	-2700
マジ	-2701
命令	-2702
居た	-2703
幸い	-2704
色欲	-2705
複雑	-2706
買い	-2707
頭に	-2708
はまだ	-2709
場所で	-2710
変わった	-2711
かなかった	-2712
なよ	-2713
オイ	-2714
ネル	-2715
人で	-2716
割り	-2717
創造	-2718
散ら	-2719
機会	-2720
油断	-2721
行為	-2722
々しく	-2723
いても	-2724
はそれ	-2725
やろう	-2726
スロウ	-2727
自身が	-2728
長屋敷	-2729
黙って	-2730
EEEE	-2731
することは	-2732
エクスタインは	-2733
やが	-2734
不可	-2735
斉に	-2736
爆散	-2737
調査	-2738
おかげ	-2739
を思い	-2740
そのもの	-2741
っていたが	-2742
でしょうか	-2743
ひたすらに	-2744
というよりも	-2745
!』	-2746
を突	-2747
スの	-2748
効率	-2749
多分	-2750
寄せ	-2751
感に	-2752
敵の	-2753
直撃	-2754
お前が	-2755
最後に	-2756
終えた	-2757
動揺	-2758
囚人	-2759
疲れ	-2760
身が	-2761
髪の	-2762
そっと	-2763
ほんの	-2764
表情は	-2765
▁自分の	-2766
ではないが	-2767
▁ふ	-2768
機嫌	-2769
渡す	-2770
金貨	-2771
すごい	-2772
自分に	-2773
▁すると	-2774
じゃないか	-2775
なかったが	-2776
よい	-2777
テー	-2778
フェ	-2779
ラと	-2780
俺も	-2781
倒れ	-2782
勝利	-2783
原因	-2784
司令	-2785
嫌悪	-2786
手は	-2787
痛み	-2788
苦茶	-2789
逆に	-2790
うーん	-2791
ここで	-2792
言葉は	-2793
魔獣が	-2794
だろうと	-2795
ています	-2796
わずかに	-2797
血の	-2798
らせた	-2799
サイズ	-2800
確実に	-2801
都市国	-2802
残された	-2803
”。	-2804
ぁあ	-2805
いろ	-2806
対応	-2807
次第	-2808
稼ぎ	-2809
口から	-2810
たどり着	-2811
よかった	-2812
を繰り返	-2813
アカネが	-2814
リーネが	-2815
クロ	-2816
戦車	-2817
最低	-2818
本能	-2819
自信	-2820
の力を	-2821
しくない	-2822
したのか	-2823
んだよね	-2824
❤❤	-2825
を纏	-2826
放つ	-2827
暫く	-2828
望む	-2829
然と	-2830
離れ	-2831
つけて	-2832
止めて	-2833
▁確かに	-2834
ウル達は	-2835
ダメージ	-2836
音を立て	-2837
だからこそ	-2838
でもあった	-2839
最中	-2840
そっち	-2841
まない	-2842
ノート	-2843
視線が	-2844
触れる	-2845
賞金首	-2846
してくれ	-2847
放たれた	-2848
ベグ	-2849
信じ	-2850
信頼	-2851
入る	-2852
力と	-2853
潜り	-2854
▁実際	-2855
ってお	-2856
でない	-2857
一つの	-2858
知らず	-2859
こういう	-2860
ていると	-2861
ベグード	-2862
ひそ	-2863
下の	-2864
位の	-2865
壁に	-2866
対策	-2867
広い	-2868
必死	-2869
腹を	-2870
▁ジグ	-2871
これを	-2872
グロー	-2873
二人が	-2874
使い魔	-2875
問題は	-2876
身につ	-2877
かもしれ	-2878
もっとも	-2879
出現した	-2880
変わらず	-2881
しの	-2882
メン	-2883
借り	-2884
意外	-2885
捕ら	-2886
約束	-2887
絶望	-2888
要塞	-2889
いえば	-2890
可能な	-2891
起きた	-2892
▁彼女が	-2893
ウルには	-2894
テーブル	-2895
振り下ろ	-2896
のだけれど	-2897
必要がある	-2898
さす	-2899
チン	-2900
今も	-2901
拘束	-2902
未来	-2903
気は	-2904
職員	-2905
衛星	-2906
馴染	-2907
魔王の	-2908
▁ジグが	-2909
のですか	-2910
りながら	-2911
ロックの	-2912
してくれた	-2913
グリードの	-2914
ふむ	-2915
みて	-2916
ペリ	-2917
刺激	-2918
幼い	-2919
方向	-2920
焦牢	-2921
特殊	-2922
端に	-2923
者に	-2924
防衛	-2925
がその	-2926
だけに	-2927
アイツ	-2928
仕方が	-2929
だったら	-2930
▁ギークの	-2931
そういった	-2932
グラドルの	-2933
いつの間にか	-2934
ねばならない	-2935
のかもしれない	-2936
っこ	-2937
わん	-2938
を一	-2939
内容	-2940
大事	-2941
契約	-2942
心が	-2943
心地	-2944
恥ず	-2945
社会	-2946
締め	-2947
▁当然	-2948
▁彼女	-2949
▁普段	-2950
が良い	-2951
ことの	-2952
なきゃ	-2953
現在の	-2954
答える	-2955
!!!!	-2956
つかない	-2957
メートル	-2958
してしまった	-2959
プラウディアの	-2960
刃を	-2961
型の	-2962
崩れ	-2963
当に	-2964
怒り	-2965
怖い	-2966
連れ	-2967
雰囲	-2968
騒ぎ	-2969
を開始	-2970
ペリィ	-2971
準備を	-2972
簡単に	-2973
すように	-2974
を持った	-2975
考えると	-2976
さあ	-2977
を与	-2978
不足	-2979
受付	-2980
守る	-2981
拒絶	-2982
生産	-2983
瞬く	-2984
顔に	-2985
ませる	-2986
自分で	-2987
落ちた	-2988
くらいの	-2989
けている	-2990
気持ち良	-2991
にとっては	-2992
らなかった	-2993
ビクトール	-2994
は見	-2995
カー	-2996
家畜	-2997
群れ	-2998
覆い	-2999
走る	-3000
過ご	-3001
集団	-3002
あげる	-3003
両手を	-3004
極めて	-3005
でもなく	-3006
まったく	-3007
を受けた	-3008
ウルバス	-3009
......!!」	-3010
に乗	-3011
分の	-3012
実力	-3013
度の	-3014
弱い	-3015
澄人	-3016
社交	-3017
部の	-3018
かしい	-3019
それと	-3020
一人の	-3021
取って	-3022
構えた	-3023
目を覚	-3024
遙かに	-3025
部屋の	-3026
それなり	-3027
はしない	-3028
ようとする	-3029
先ほどまで	-3030
々が	-3031
優先	-3032
吐息	-3033
尻を	-3034
村に	-3035
獲得	-3036
相談	-3037
驚く	-3038
▁「「	-3039
にはい	-3040
に満ち	-3041
今度は	-3042
状態で	-3043
覚える	-3044
貴方の	-3045
RRRR	-3046
いていく	-3047
を見ると	-3048
シズクに	-3049
ハッキリ	-3050
▁ギークが	-3051
していると	-3052
については	-3053
――――――	-3054
......)	-3055
しなければならない	-3056
たる	-3057
やか	-3058
元に	-3059
元の	-3060
抽送	-3061
消費	-3062
誰が	-3063
飛ぶ	-3064
黒剣	-3065
▁故に	-3066
うちに	-3067
くれて	-3068
せずに	-3069
その時	-3070
だけを	-3071
使える	-3072
地面を	-3073
▁本当に	-3074
りとした	-3075
ロックが	-3076
そう言って	-3077
のではない	-3078
▁天	-3079
いち	-3080
けに	-3081
らん	-3082
主の	-3083
凄い	-3084
子が	-3085
木の	-3086
歩ム	-3087
話だ	-3088
面に	-3089
▁もう	-3090
なにも	-3091
ガルー	-3092
今回は	-3093
此処は	-3094
落とす	-3095
しようと	-3096
ガルーダ	-3097
ギルドの	-3098
無視して	-3099
と言っても	-3100
ボルドーは	-3101
▁ん	-3102
うむ	-3103
もん	-3104
ウラ	-3105
性質	-3106
抜く	-3107
残り	-3108
突如	-3109
を見せ	-3110
上から	-3111
入れて	-3112
動かす	-3113
歩ム者	-3114
魔女の	-3115
魔王は	-3116
フィーネ	-3117
にならない	-3118
は無かった	-3119
シャナイアが	-3120
理解していた	-3121
~~~~~~~~	-3122
かを	-3123
スは	-3124
会話	-3125
奪い	-3126
所の	-3127
放置	-3128
競技	-3129
達と	-3130
遠い	-3131
そうと	-3132
よりは	-3133
後ろに	-3134
黒炎の	-3135
と言って	-3136
とりあえず	-3137
をしていた	-3138
らに	-3139
カタ	-3140
スが	-3141
水晶	-3142
泣き	-3143
積み	-3144
粘魔	-3145
食事	-3146
きます	-3147
すぎて	-3148
なれば	-3149
掛ける	-3150
決めた	-3151
ことなく	-3152
ばかりに	-3153
んだから	-3154
カルメは	-3155
かかわらず	-3156
しましょう	-3157
するための	-3158
ではあるが	-3159
しさ	-3160
べて	-3161
ーツ	-3162
亜人	-3163
会議	-3164
印象	-3165
子は	-3166
慣れ	-3167
殺意	-3168
甘い	-3169
蟒蛇	-3170
誘導	-3171
ときは	-3172
フィヨ	-3173
放った	-3174
何もかも	-3175
考えれば	-3176
フィヨルド	-3177
を負	-3178
代物	-3179
何時	-3180
告げ	-3181
回転	-3182
感触	-3183
挿入	-3184
確保	-3185
耳を	-3186
違和	-3187
となり	-3188
魔法陣	-3189
これ以上	-3190
とは違う	-3191
真っ黒な	-3192
そうになる	-3193
どうしても	-3194
あぁ	-3195
たび	-3196
めえ	-3197
シグ	-3198
ーグ	-3199
低い	-3200
刃が	-3201
女は	-3202
最終	-3203
男を	-3204
盾を	-3205
自在	-3206
うのは	-3207
そこは	-3208
でした	-3209
べきか	-3210
めない	-3211
ドーム	-3212
厳しい	-3213
違った	-3214
そこから	-3215
シグヴァ	-3216
名無しの	-3217
白の蟒蛇	-3218
▁大罪都市	-3219
まっていた	-3220
シグヴァルド	-3221
にく	-3222
に染	-3223
クリ	-3224
代の	-3225
似た	-3226
奴隷	-3227
姿に	-3228
安定	-3229
座り	-3230
性は	-3231
権能	-3232
ハリア	-3233
一人で	-3234
誰かが	-3235
震える	-3236
魔物が	-3237
どうにも	-3238
ジースターは	-3239
に従	-3240
めき	-3241
ーい	-3242
僧兵	-3243
天才	-3244
孤児	-3245
強力	-3246
愛液	-3247
脚を	-3248
量に	-3249
階層	-3250
さっき	-3251
んでも	-3252
ソレは	-3253
ヨーグ	-3254
大した	-3255
相手が	-3256
▁ギーク	-3257
したのだ	-3258
瞬く間に	-3259
ことはなかった	-3260
が始	-3261
しも	-3262
つぶ	-3263
を超	-3264
ガキ	-3265
バー	-3266
僕が	-3267
心底	-3268
把握	-3269
族の	-3270
腕は	-3271
間を	-3272
付けて	-3273
慣れた	-3274
繋がり	-3275
運命の	-3276
響いた	-3277
魔物を	-3278
と言った	-3279
ギリギリ	-3280
気がついた	-3281
きる	-3282
みの	-3283
分け	-3284
排除	-3285
AAA	-3286
▁なに	-3287
つつも	-3288
とは言	-3289
困った	-3290
女性が	-3291
飛んだ	-3292
▁冒険者	-3293
くらいは	-3294
とウルは	-3295
容赦なく	-3296
自分たち	-3297
!!!!」	-3298
するために	-3299
竜吞ウーガ	-3300
かき	-3301
ハル	-3302
不味	-3303
剣は	-3304
本の	-3305
能力	-3306
面白	-3307
▁いや	-3308
ますか	-3309
を果た	-3310
事前に	-3311
通りの	-3312
されない	-3313
方が良い	-3314
っていると	-3315
ジースター	-3316
はいなかった	-3317
の瞳	-3318
ふっ	-3319
サウ	-3320
暴走	-3321
汗を	-3322
かしら	-3323
がいい	-3324
こない	-3325
のかは	-3326
の前に	-3327
むしろ	-3328
仕事は	-3329
勘違い	-3330
思える	-3331
時間は	-3332
澄人教	-3333
者達が	-3334
複数の	-3335
ウル達が	-3336
カティア	-3337
ザインは	-3338
だけでなく	-3339
というもの	-3340
アナスタシアは	-3341
なぁ	-3342
今度	-3343
優秀	-3344
反射	-3345
承知	-3346
混沌	-3347
燃え	-3348
笑み	-3349
純粋	-3350
邪悪	-3351
開き	-3352
▁ぁっ	-3353
の良い	-3354
動きが	-3355
抜いた	-3356
淡々と	-3357
目を見	-3358
迷宮に	-3359
金色の	-3360
あったが	-3361
きていた	-3362
くなった	-3363
込まれて	-3364
▁とはいえ	-3365
しっかりと	-3366
グリードは	-3367
にもかかわらず	-3368
ありがとうございます	-3369
まし	-3370
りで	-3371
を通	-3372
ラル	-3373
反対	-3374
放り	-3375
突撃	-3376
背を	-3377
重い	-3378
なこと	-3379
の一部	-3380
を持ち	-3381
付いて	-3382
大なる	-3383
小さい	-3384
食事を	-3385
それほど	-3386
気がする	-3387
せい	-3388
たと	-3389
を解	-3390
トラ	-3391
中を	-3392
吹っ	-3393
年の	-3394
広げ	-3395
殴り	-3396
炎が	-3397
犯罪	-3398
素直	-3399
えると	-3400
こいつ	-3401
なもの	-3402
を放つ	-3403
を行う	-3404
を起こ	-3405
アオイ	-3406
起こる	-3407
出てくる	-3408
つけられた	-3409
▁アイリスは	-3410
......!?」	-3411
。“	-3412
々は	-3413
々を	-3414
ろく	-3415
子の	-3416
目指	-3417
素晴	-3418
行う	-3419
証拠	-3420
転が	-3421
こそが	-3422
その後	-3423
だした	-3424
っしゃ	-3425
ジグを	-3426
引っ張	-3427
捨てる	-3428
死霊術	-3429
終わる	-3430
肩を竦	-3431
魔術が	-3432
生み出した	-3433
らと	-3434
スを	-3435
出会	-3436
加減	-3437
守護	-3438
官位	-3439
指導	-3440
王が	-3441
禁忌	-3442
茶を	-3443
調整	-3444
とも言	-3445
めると	-3446
かかった	-3447
なんだよ	-3448
ステイン	-3449
しているが	-3450
ということは	-3451
ジュ	-3452
フギ	-3453
ワシ	-3454
天井	-3455
弾き	-3456
注意	-3457
烈な	-3458
生存	-3459
鍛冶	-3460
驚愕	-3461
▁まあ	-3462
サウナ	-3463
通常の	-3464
飛ばす	-3465
この状況	-3466
してもら	-3467
ウーガに	-3468
ラーレイ	-3469
ことにした	-3470
しなければ	-3471
トールステイン	-3472
】』	-3473
だい	-3474
労働	-3475
絡め	-3476
▁『【	-3477
うちの	-3478
っくり	-3479
の上で	-3480
もいる	-3481
スカベ	-3482
タリと	-3483
ヘイル	-3484
ルーン	-3485
済ませ	-3486
続けて	-3487
そんなに	-3488
なくても	-3489
を使って	-3490
ウーガを	-3491
構わない	-3492
眉をひそ	-3493
背後から	-3494
言われて	-3495
▁クレアは	-3496
▁次の瞬間	-3497
と思います	-3498
ハッキリと	-3499
イスラリアの	-3500
▁ク	-3501
るが	-3502
ンに	-3503
丁度	-3504
咆哮	-3505
気な	-3506
熱が	-3507
瓦礫	-3508
▁勿論	-3509
あいつ	-3510
人類の	-3511
付けた	-3512
何より	-3513
助けて	-3514
彼らを	-3515
浮かぶ	-3516
無言で	-3517
ただただ	-3518
ともかく	-3519
わけにも	-3520
溜息をつ	-3521
知っていた	-3522
しているのは	-3523
だぞ	-3524
シュ	-3525
下が	-3526
可愛	-3527
大分	-3528
奇跡	-3529
性交	-3530
許可	-3531
はこの	-3532
もって	-3533
グラー	-3534
加えて	-3535
明確な	-3536
驚いた	-3537
そろそろ	-3538
していたが	-3539
どうやって	-3540
れるように	-3541
グラージャ	-3542
▁ぁ	-3543
ぐる	-3544
たり	-3545
を迎	-3546
人生	-3547
保存	-3548
吸収	-3549
唇を	-3550
宿泊	-3551
後で	-3552
挨拶	-3553
数は	-3554
書類	-3555
特徴	-3556
臭い	-3557
見せ	-3558
子供が	-3559
新たな	-3560
極まる	-3561
者である	-3562
込んでいた	-3563
どん	-3564
を出	-3565
レナ	-3566
一行	-3567
先程	-3568
全然	-3569
図書	-3570
始末	-3571
嫌な	-3572
性格	-3573
成果	-3574
浴び	-3575
直後	-3576
語る	-3577
赤い	-3578
遭遇	-3579
▁結果	-3580
があり	-3581
ぬまま	-3582
の上に	-3583
んだろ	-3584
インツ	-3585
切って	-3586
実際に	-3587
時点で	-3588
此方に	-3589
膨大な	-3590
速度で	-3591
いきなり	-3592
口にした	-3593
衛星都市	-3594
えるように	-3595
というように	-3596
クナトルレイクの	-3597
▁→	-3598
▁男	-3599
光を	-3600
完了	-3601
彼も	-3602
憤怒	-3603
戻す	-3604
服を	-3605
興奮	-3606
色が	-3607
街の	-3608
銀貨	-3609
隠す	-3610
せめて	-3611
を手に	-3612
ヨラン	-3613
背中を	-3614
選んだ	-3615
えられた	-3616
まらない	-3617
ハインツ	-3618
からすれば	-3619
したように	-3620
......。	-3621
の先	-3622
を鳴	-3623
セツ	-3624
今更	-3625
吸い	-3626
商品	-3627
建造	-3628
竜呑	-3629
送り	-3630
あれは	-3631
ないが	-3632
のかも	-3633
のもの	-3634
クロコ	-3635
珍しく	-3636
▁だけど	-3637
のならば	-3638
スーアの	-3639
ボロボロ	-3640
放たれる	-3641
▁エシェルは	-3642
の形	-3643
ぶっ	-3644
を描	-3645
大会	-3646
始め	-3647
届く	-3648
拒否	-3649
有様	-3650
短い	-3651
言を	-3652
語り	-3653
▁パン	-3654
今まで	-3655
何一つ	-3656
使って	-3657
図書館	-3658
してから	-3659
を持って	-3660
んですか	-3661
太陽神の	-3662
少しずつ	-3663
そうとした	-3664
すっ	-3665
まっ	-3666
ーズ	-3667
再現	-3668
制限	-3669
半ば	-3670
味方	-3671
常識	-3672
滅ぼ	-3673
燻製	-3674
真人	-3675
腕に	-3676
致命	-3677
?!」	-3678
たない	-3679
ですら	-3680
らせて	-3681
神殿の	-3682
視線は	-3683
誰もが	-3684
身に纏	-3685
だろうな	-3686
ったのは	-3687
っていて	-3688
カカカカ	-3689
先ほどの	-3690
ろうとする	-3691
と同じように	-3692
▁い	-3693
ずれ	-3694
まく	-3695
まみ	-3696
やめ	-3697
余計	-3698
呼ぶ	-3699
声音	-3700
快楽	-3701
民会	-3702
炎の	-3703
簒奪	-3704
背筋	-3705
舞い	-3706
風の	-3707
ったり	-3708
も同じ	-3709
エネル	-3710
全力で	-3711
取れる	-3712
持って	-3713
生まれ	-3714
白銀の	-3715
めながら	-3716
エネルギ	-3717
幾つもの	-3718
理解でき	-3719
...?」	-3720
していった	-3721
そうとする	-3722
なのだから	-3723
やってきた	-3724
ハハハハハハハハ	-3725
//	-3726
あッ	-3727
ぶち	-3728
倒す	-3729
壁を	-3730
流し	-3731
礼を	-3732
種族	-3733
肉体	-3734
貴様	-3735
頭の	-3736
けどね	-3737
その場	-3738
ねえよ	-3739
をかき	-3740
不可能	-3741
掛けて	-3742
目を細	-3743
と一緒に	-3744
ユーリの	-3745
双刃剣を	-3746
都市の外	-3747
笑みを浮かべた	-3748
きれ	-3749
さっ	-3750
わぬ	-3751
プル	-3752
中心	-3753
左右	-3754
扱い	-3755
映し	-3756
案内	-3757
相対	-3758
竜に	-3759
羽目	-3760
足が	-3761
軽い	-3762
遊び	-3763
バルジ	-3764
一斉に	-3765
受けた	-3766
彼女も	-3767
慌てて	-3768
気づく	-3769
◇◇◇◇	-3770
ええええ	-3771
どうでも	-3772
もあった	-3773
といけない	-3774
めるように	-3775
ルーン文字	-3776
ことができる	-3777
グロンゾンは	-3778
視線を向ける	-3779
に出	-3780
まん	-3781
ッカ	-3782
冷燻	-3783
利益	-3784
勢い	-3785
回し	-3786
失礼	-3787
探鉱	-3788
数を	-3789
未知	-3790
機械	-3791
点を	-3792
腰が	-3793
自ら	-3794
邪霊	-3795
重量	-3796
顔は	-3797
この場	-3798
ちょう	-3799
なぜか	-3800
はぁっ	-3801
ロール	-3802
倒した	-3803
動きは	-3804
思いつ	-3805
能力を	-3806
途中で	-3807
だけでは	-3808
ところに	-3809
シェスカ	-3810
ディズと	-3811
多かった	-3812
そう言った	-3813
パーティー	-3814
真っ直ぐに	-3815
素晴らしい	-3816
聞いている	-3817
しようとした	-3818
tt	-3819
の戦	-3820
を眺	-3821
タラ	-3822
割と	-3823
咄嗟	-3824
変貌	-3825
度を	-3826
急ぎ	-3827
戸惑	-3828
才能	-3829
構造	-3830
注ぎ	-3831
肉の	-3832
色々	-3833
さんの	-3834
ときに	-3835
フライ	-3836
下さい	-3837
何でも	-3838
存在を	-3839
彼等は	-3840
祈りを	-3841
誰にも	-3842
ことなど	-3843
基本的に	-3844
▁クレアの	-3845
のでしょう	-3846
父ちゃんが	-3847
込んでいる	-3848
▁アイリスの	-3849
していなかった	-3850
▁「........	-3851
AAAAAAAAAAAA	-3852
えぬ	-3853
加工	-3854
国の	-3855
得意	-3856
揺れ	-3857
撃を	-3858
次に	-3859
歴史	-3860
浩介	-3861
聞か	-3862
話す	-3863
護る	-3864
するな	-3865
ならず	-3866
みれば	-3867
側から	-3868
勢いで	-3869
知らぬ	-3870
色々と	-3871
響き渡	-3872
魔術で	-3873
ある程度	-3874
かどうか	-3875
グレンの	-3876
最初から	-3877
することも	-3878
という事実	-3879
っているのは	-3880
わけでもない	-3881
を発	-3882
キュ	-3883
リザ	-3884
口の	-3885
度が	-3886
暴れ	-3887
構築	-3888
あげた	-3889
もしも	-3890
伸びた	-3891
住まう	-3892
十分に	-3893
普通の	-3894
覚えた	-3895
部屋に	-3896
飲み干	-3897
▁こんな	-3898
▁まるで	-3899
もう一度	-3900
ソフィア	-3901
トラブル	-3902
ラウラン	-3903
刻まれた	-3904
圧倒的な	-3905
目の前で	-3906
▁――――	-3907
われていた	-3908
すく	-3909
ウチ	-3910
ジェ	-3911
ヶ月	-3912
何人	-3913
初め	-3914
味わ	-3915
守り	-3916
完璧	-3917
待つ	-3918
活用	-3919
目撃	-3920
銀糸	-3921
そらく	-3922
告げる	-3923
比較的	-3924
だからね	-3925
まともに	-3926
フライタ	-3927
仕方ない	-3928
動かない	-3929
向かった	-3930
起こった	-3931
立っていた	-3932
▁見	-3933
せん	-3934
人物	-3935
刃蜂	-3936
年齢	-3937
扱う	-3938
拳聖	-3939
時折	-3940
気遣	-3941
知れ	-3942
練習	-3943
薬草	-3944
骨の	-3945
のでは	-3946
を破壊	-3947
ケイン	-3948
スープ	-3949
ミラル	-3950
僅かな	-3951
尋ねた	-3952
最悪の	-3953
消えた	-3954
生きる	-3955
背中に	-3956
面倒く	-3957
面白い	-3958
ざるを得	-3959
とてつも	-3960
と言える	-3961
われれば	-3962
ありがたい	-3963
もなかった	-3964
ダヴィネは	-3965
思っていた	-3966
言っていた	-3967
▁人	-3968
、「	-3969
だら	-3970
ちな	-3971
ラク	-3972
伏せ	-3973
妙に	-3974
宣言	-3975
小屋	-3976
引く	-3977
悪意	-3978
懸念	-3979
救助	-3980
猿狗	-3981
穴が	-3982
逸物	-3983
と思い	-3984
にでも	-3985
に来た	-3986
を突き	-3987
コチラ	-3988
出すと	-3989
抜けた	-3990
揺れる	-3991
正しく	-3992
真っ赤	-3993
笑って	-3994
って来た	-3995
どれほど	-3996
の魔術師	-3997
まともな	-3998
周囲を見	-3999
新たなる	-4000
させていた	-4001
始めていた	-4002
わけじゃない	-4003
っていなかった	-4004
を向	-4005
停止	-4006
同意	-4007
天魔	-4008
感心	-4009
握る	-4010
暗い	-4011
権利	-4012
真面	-4013
薬を	-4014
魔道	-4015
しさを	-4016
てめえ	-4017
ミリー	-4018
ローブ	-4019
互いの	-4020
嬉しい	-4021
返した	-4022
おかげで	-4023
くれない	-4024
けていた	-4025
すっかり	-4026
ウルへと	-4027
スーアが	-4028
口にする	-4029
問題ない	-4030
巨大なる	-4031
美味しい	-4032
近づいて	-4033
存在しない	-4034
かも知れない	-4035
KA	-4036
れを	-4037
丁寧	-4038
世話	-4039
久し	-4040
事の	-4041
愉快	-4042
操る	-4043
支え	-4044
毎日	-4045
牢獄	-4046
部に	-4047
頑丈	-4048
じっと	-4049
だなあ	-4050
は既に	-4051
ほしい	-4052
ヒトが	-4053
レベル	-4054
仕事の	-4055
何とか	-4056
冷たい	-4057
少女は	-4058
空から	-4059
術式を	-4060
過ぎる	-4061
まだまだ	-4062
を見せる	-4063
シズクと	-4064
発生した	-4065
そうですね	-4066
どこまでも	-4067
聞こえてくる	-4068
ミラルフィーネ	-4069
が出	-4070
しら	-4071
一本	-4072
主張	-4073
建て	-4074
手な	-4075
数百	-4076
業を	-4077
睨む	-4078
破損	-4079
穴を	-4080
繰り	-4081
聖教	-4082
警告	-4083
通じ	-4084
鋭く	-4085
▁既に	-4086
▁本来	-4087
だとか	-4088
を押し	-4089
コイツ	-4090
付き合	-4091
告げた	-4092
抜ける	-4093
様子で	-4094
自在に	-4095
近づく	-4096
まとめて	-4097
可能性は	-4098
考えても	-4099
▁そのまま	-4100
いていない	-4101
グローリア	-4102
しと	-4103
に応	-4104
に行	-4105
も見	-4106
ウウ	-4107
体勢	-4108
包み	-4109
如く	-4110
慎重	-4111
明日	-4112
晒す	-4113
期間	-4114
水車	-4115
災害	-4116
盛り	-4117
自体	-4118
記録	-4119
階段	-4120
▁また	-4121
▁僕が	-4122
しつつ	-4123
にその	-4124
助かる	-4125
空気を	-4126
進んで	-4127
魔術は	-4128
おります	-4129
かという	-4130
ここから	-4131
ばかりの	-4132
ギルド長	-4133
恐ろしく	-4134
グレーレの	-4135
気持ちいい	-4136
さで	-4137
ムニ	-4138
一般	-4139
内の	-4140
冷や	-4141
合図	-4142
夜の	-4143
女王	-4144
所で	-4145
所属	-4146
数日	-4147
村で	-4148
海の	-4149
狭い	-4150
誤魔	-4151
貫く	-4152
運び	-4153
開始	-4154
かろう	-4155
との戦	-4156
世界が	-4157
互いに	-4158
呆れた	-4159
掛けた	-4160
答えた	-4161
者達は	-4162
避ける	-4163
ってもら	-4164
と比べて	-4165
を受ける	-4166
ギークと	-4167
▁リーネは	-4168
▁無	-4169
しな	-4170
せえ	-4171
ぞれ	-4172
ほん	-4173
スゥ	-4174
ビー	-4175
レロ	-4176
仕草	-4177
保証	-4178
成り	-4179
暖房	-4180
槍が	-4181
腹に	-4182
認め	-4183
道理	-4184
した後	-4185
情報が	-4186
意識が	-4187
状況は	-4188
!!?」	-4189
―――」	-4190
▁という	-4191
あまりの	-4192
不死鳥の	-4193
などという	-4194
楽しそうに	-4195
続けてきた	-4196
】、	-4197
ンを	-4198
了解	-4199
備え	-4200
先が	-4201
区画	-4202
噴き	-4203
手紙	-4204
新人	-4205
精液	-4206
覗き	-4207
金属	-4208
隣の	-4209
面の	-4210
したり	-4211
ついで	-4212
なんの	-4213
の声を	-4214
ドロー	-4215
バラン	-4216
中には	-4217
去った	-4218
振って	-4219
此処で	-4220
空気が	-4221
選択肢	-4222
集まり	-4223
からこそ	-4224
手を伸ば	-4225
真っ当な	-4226
落とした	-4227
黒炎砂漠	-4228
と思っていた	-4229
よぉ	-4230
不快	-4231
同行	-4232
実は	-4233
感知	-4234
敵を	-4235
武具	-4236
螺旋	-4237
速く	-4238
酒の	-4239
!?』	-4240
からず	-4241
てくる	-4242
なにか	-4243
に対し	-4244
の大麦	-4245
みると	-4246
やがて	-4247
を作り	-4248
ジィン	-4249
使った	-4250
尽くす	-4251
次々に	-4252
落とし	-4253
これまで	-4254
そう言う	-4255
にしても	-4256
まさしく	-4257
ユーリが	-4258
合わせた	-4259
少しでも	-4260
彼女には	-4261
聞こえる	-4262
それよりも	-4263
なんだけど	-4264
残っている	-4265
真正面から	-4266
げげ	-4267
じろ	-4268
っそ	-4269
カの	-4270
ジョ	-4271
ニヤ	-4272
側の	-4273
内心	-4274
女衆	-4275
嫌い	-4276
家に	-4277
掴む	-4278
死体	-4279
決定	-4280
相当	-4281
空に	-4282
ローズ	-4283
下から	-4284
北方の	-4285
広がる	-4286
彼らに	-4287
情報は	-4288
最初に	-4289
本気で	-4290
此方の	-4291
相手は	-4292
神官の	-4293
▁ならば	-4294
あんまり	-4295
をかけて	-4296
天賢王の	-4297
聞こえた	-4298
そんなこと	-4299
ダツ	-4300
ーマ	-4301
不尽	-4302
偶然	-4303
回す	-4304
地上	-4305
歩き	-4306
注ぐ	-4307
物理	-4308
置き	-4309
職人	-4310
詳細	-4311
いって	-4312
っつー	-4313
てもら	-4314
を叩き	-4315
ダツミ	-4316
トップ	-4317
今日の	-4318
作った	-4319
女性は	-4320
怪しい	-4321
理不尽	-4322
者達の	-4323
あっても	-4324
さっさと	-4325
といって	-4326
ウーガは	-4327
リーダー	-4328
ワダツミ	-4329
そういえば	-4330
っています	-4331
に過ぎない	-4332
ダヴィネの	-4333
考えていた	-4334
を許	-4335
ドレ	-4336
伝え	-4337
感は	-4338
所為	-4339
死な	-4340
毒花	-4341
気も	-4342
異形	-4343
細い	-4344
負け	-4345
邪神	-4346
すべて	-4347
とでも	-4348
ゼウラ	-4349
事情を	-4350
何も言	-4351
前から	-4352
前には	-4353
引き裂	-4354
思い出	-4355
支える	-4356
最深層	-4357
有する	-4358
結界を	-4359
自身を	-4360
逸物を	-4361
顔を顰	-4362
▁やはり	-4363
いけない	-4364
かつての	-4365
どうなる	-4366
における	-4367
シンプル	-4368
バベルの	-4369
振り返る	-4370
白王陣の	-4371
音と共に	-4372
くれている	-4373
ジィンスゥ	-4374
飛び出した	-4375
とは思えない	-4376
ゼウラディア	-4377
聞こえてきた	-4378
ah	-4379
▁ン	-4380
が増	-4381
さも	-4382
っっ	-4383
サー	-4384
バケ	-4385
主は	-4386
呪い	-4387
困惑	-4388
幾ら	-4389
性に	-4390
怪物	-4391
手放	-4392
汗が	-4393
蜜壷	-4394
迷惑	-4395
這い	-4396
飲む	-4397
からか	-4398
そうね	-4399
たぶん	-4400
ものか	-4401
を使う	-4402
一瞬で	-4403
場所が	-4404
当たる	-4405
払いの	-4406
指先が	-4407
最低限	-4408
真なる	-4409
そうです	-4410
となると	-4411
に向かう	-4412
ませんで	-4413
を失った	-4414
カスカベ	-4415
毒花怪鳥	-4416
部屋の中	-4417
▁もちろん	-4418
たっぷりと	-4419
はいけない	-4420
エシェル様	-4421
クラウラン	-4422
ことになった	-4423
たま	-4424
の目	-4425
よそ	-4426
をと	-4427
ニシ	-4428
事だ	-4429
事で	-4430
便利	-4431
僅か	-4432
座る	-4433
忘れ	-4434
歩く	-4435
繋が	-4436
製造	-4437
要求	-4438
▁彼が	-4439
きった	-4440
で最も	-4441
に行く	-4442
七天の	-4443
人間が	-4444
正確に	-4445
追いつ	-4446
魔眼の	-4447
いました	-4448
ってくれ	-4449
なんだか	-4450
にしては	-4451
助かった	-4452
あくまでも	-4453
姿を現した	-4454
宝石人形の	-4455
突っ込んで	-4456
自分たちが	-4457
......♥	-4458
しみ	-4459
ねー	-4460
よー	-4461
一日	-4462
例え	-4463
寄り	-4464
彼方	-4465
憎悪	-4466
憑き	-4467
火の	-4468
肉が	-4469
肩に	-4470
迂闊	-4471
防ぐ	-4472
領域	-4473
するか	-4474
そうで	-4475
どうも	-4476
なかな	-4477
にいた	-4478
ほんと	-4479
受ける	-4480
合いを	-4481
尋ねる	-4482
感情を	-4483
掛かる	-4484
様子を	-4485
見た目	-4486
魔石を	-4487
▁先ほど	-4488
と同時に	-4489
ディズに	-4490
恐るべき	-4491
▁ギークは	-4492
かれている	-4493
さなかった	-4494
そのものを	-4495
だけだった	-4496
というのが	-4497
はずなのに	-4498
気持ち良く	-4499
▁“	-4500
▁手	-4501
ヤサ	-4502
凶悪	-4503
口調	-4504
叩く	-4505
地が	-4506
奈落	-4507
徹底	-4508
替え	-4509
最奥	-4510
武装	-4511
理屈	-4512
隠し	-4513
▁でも	-4514
いっぱ	-4515
どうぞ	-4516
の一人	-4517
を作る	-4518
んだな	-4519
カカカ	-4520
ローロ	-4521
咄嗟に	-4522
孤児院	-4523
自由に	-4524
貴方が	-4525
食べる	-4526
ヤサエル	-4527
度となく	-4528
移動要塞	-4529
そうな顔を	-4530
という間に	-4531
向けられる	-4532
立ち上がる	-4533
であることを	-4534
シアーシャに	-4535
......』	-4536
??	-4537
の余	-4538
はや	-4539
むに	-4540
ラッ	-4541
ンガ	-4542
三面	-4543
何度	-4544
前提	-4545
噛み	-4546
指揮	-4547
数十	-4548
時代	-4549
死の	-4550
監視	-4551
腕の	-4552
選ば	-4553
金の	-4554
頷き	-4555
いてる	-4556
おいて	-4557
しげな	-4558
してた	-4559
よっぽ	-4560
わけだ	-4561
三面鬼	-4562
単純な	-4563
問いに	-4564
微笑み	-4565
振りか	-4566
最大の	-4567
素直に	-4568
誤魔化	-4569
▁クレア	-4570
っていう	-4571
最後まで	-4572
言われた	-4573
足を踏み	-4574
▁シズクの	-4575
▁母ちゃん	-4576
ことがない	-4577
紛れもない	-4578
▁対	-4579
が大	-4580
の神	-4581
ンノ	-4582
伝わ	-4583
刻み	-4584
商人	-4585
実験	-4586
封じ	-4587
度に	-4588
恐れ	-4589
新谷	-4590
潰す	-4591
白く	-4592
精々	-4593
要は	-4594
贅沢	-4595
金額	-4596
銀竜	-4597
餓者	-4598
髑髏	-4599
▁あれ	-4600
▁まだ	-4601
▁今回	-4602
あとは	-4603
ここは	-4604
さずに	-4605
さんが	-4606
を放ち	-4607
ラビィ	-4608
下ろす	-4609
失った	-4610
感情が	-4611
此方を	-4612
砕け散	-4613
空間を	-4614
触れた	-4615
都市に	-4616
▁同時に	-4617
あくまで	-4618
それとも	-4619
それらを	-4620
シズクを	-4621
さの	-4622
とお	-4623
の後	-4624
ギネ	-4625
元気	-4626
到底	-4627
友人	-4628
哀れ	-4629
堕ち	-4630
所は	-4631
接近	-4632
羞恥	-4633
週間	-4634
達成	-4635
選ぶ	-4636
▁同じ	-4637
かした	-4638
に巻き	-4639
の無い	-4640
もその	-4641
タイプ	-4642
テギネ	-4643
ニシン	-4644
会話を	-4645
優しい	-4646
前へと	-4647
多くは	-4648
少なく	-4649
少女の	-4650
当然の	-4651
本来の	-4652
頷いて	-4653
▁これは	-4654
いいのか	-4655
かなりの	-4656
でも無い	-4657
と同じく	-4658
のですが	-4659
ようには	-4660
をつけて	-4661
だというのに	-4662
とんでもない	-4663
カーラーレイ	-4664
首を横に振った	-4665
てた	-4666
フル	-4667
反撃	-4668
得る	-4669
指で	-4670
日が	-4671
毛皮	-4672
瞳が	-4673
結論	-4674
賠償	-4675
らして	-4676
怒りを	-4677
最初の	-4678
消えて	-4679
特殊な	-4680
追いか	-4681
適当に	-4682
▁彼らは	-4683
くらいに	-4684
ところは	-4685
イサナが	-4686
ラースの	-4687
息を吐き	-4688
そのものが	-4689
それだけで	-4690
覚えのある	-4691
だけではない	-4692
キャ	-4693
具体	-4694
包囲	-4695
希望	-4696
待て	-4697
抗議	-4698
番兵	-4699
若干	-4700
証明	-4701
面を	-4702
骨が	-4703
▁元々	-4704
▁現在	-4705
あたり	-4706
いいか	-4707
不味い	-4708
司令塔	-4709
呟いた	-4710
始めて	-4711
強力な	-4712
息を吐	-4713
手のひ	-4714
攻撃は	-4715
最初は	-4716
真っ白	-4717
素早く	-4718
綺麗な	-4719
しっかり	-4720
するため	-4721
それなら	-4722
ちなみに	-4723
ぶつかり	-4724
アカネを	-4725
ヴァンノ	-4726
上げると	-4727
悍ましい	-4728
頭を撫で	-4729
しかしその	-4730
しています	-4731
っていても	-4732
なんだろう	-4733
れなかった	-4734
エネルギー	-4735
太陽の結界	-4736
頭を下げる	-4737
いかなかった	-4738
っけ	-4739
のと	-4740
の男	-4741
一見	-4742
下げ	-4743
働き	-4744
光に	-4745
内で	-4746
喜び	-4747
建築	-4748
役に	-4749
彼と	-4750
日常	-4751
最強	-4752
沢山	-4753
混ぜ	-4754
結束	-4755
貸し	-4756
身で	-4757
震え	-4758
駄目	-4759
かして	-4760
が違う	-4761
なると	-4762
の戦士	-4763
シンラ	-4764
ハルズ	-4765
万が一	-4766
匂いが	-4767
引きず	-4768
視線に	-4769
▁「――	-4770
それ以上	-4771
よっぽど	-4772
餓者髑髏	-4773
▁シズクが	-4774
こういった	-4775
ついている	-4776
つもりはない	-4777
というものは	-4778
分かっていた	-4779
ではありません	-4780
の力	-4781
ふぅ	-4782
べる	-4783
もと	-4784
人質	-4785
以降	-4786
先は	-4787
具合	-4788
匂い	-4789
埋め	-4790
天祈	-4791
封印	-4792
必然	-4793
断ち	-4794
方で	-4795
根本	-4796
真剣	-4797
者だ	-4798
連続	-4799
鎧を	-4800
かなあ	-4801
に入る	-4802
クラン	-4803
仕事が	-4804
体勢を	-4805
例えば	-4806
倒れた	-4807
動ける	-4808
単純に	-4809
戦いの	-4810
抱きし	-4811
▁村長婦	-4812
かねない	-4813
しないと	-4814
その力を	-4815
それまで	-4816
たくさん	-4817
ところを	-4818
を受けて	-4819
バケモノ	-4820
ミリーナ	-4821
偉大なる	-4822
出来れば	-4823
生み出す	-4824
知ってる	-4825
言ってる	-4826
がなかった	-4827
ってくれる	-4828
出している	-4829
有している	-4830
冒険者ギルドの	-4831
ろと	-4832
一撃	-4833
唾液	-4834
天拳	-4835
帰還	-4836
担当	-4837
断片	-4838
決め	-4839
用に	-4840
石を	-4841
破滅	-4842
程の	-4843
腐敗	-4844
途端	-4845
進み	-4846
進行	-4847
から見	-4848
マジで	-4849
一切の	-4850
切れる	-4851
彼等の	-4852
村長の	-4853
楽しい	-4854
肉体を	-4855
越しに	-4856
いながら	-4857
おそらく	-4858
ようとも	-4859
可能性が	-4860
悪かった	-4861
悪くない	-4862
禍々しい	-4863
言われる	-4864
ことは無い	-4865
というのも	-4866
まれている	-4867
グロンゾン	-4868
そんなことを	-4869
どうしようもない	-4870
わけにはいかない	-4871
えー	-4872
お嬢	-4873
ンビ	-4874
低く	-4875
光は	-4876
動け	-4877
勝ち	-4878
口が	-4879
君の	-4880
命に	-4881
壁が	-4882
外套	-4883
戻る	-4884
所を	-4885
映る	-4886
機神	-4887
済む	-4888
漏れ	-4889
狙い	-4890
瞳を	-4891
線を	-4892
耳に	-4893
舞う	-4894
返答	-4895
追加	-4896
隠れ	-4897
隣で	-4898
いたが	-4899
ったが	-4900
なにが	-4901
ならぬ	-4902
人形の	-4903
帰って	-4904
戦いを	-4905
背後に	-4906
部屋を	-4907
ことすら	-4908
たかった	-4909
といえば	-4910
と思って	-4911
の中から	-4912
もしない	-4913
を取り戻	-4914
合わない	-4915
地下牢の	-4916
精霊憑き	-4917
▁そもそも	-4918
いなかった	-4919
だったのだ	-4920
ジャインの	-4921
生きている	-4922
というのなら	-4923
ませんでした	-4924
ニコ	-4925
君は	-4926
塗り	-4927
尾を	-4928
慈悲	-4929
整備	-4930
机に	-4931
複数	-4932
▁魔女	-4933
❤❤」	-4934
せいか	-4935
とその	-4936
ますよ	-4937
ままに	-4938
仲間の	-4939
寄せる	-4940
思考を	-4941
掴んだ	-4942
次々と	-4943
止まる	-4944
疑問を	-4945
言い訳	-4946
魔獣を	-4947
ことには	-4948
の一人が	-4949
当たり前	-4950
生まれる	-4951
確認する	-4952
竜牙槍を	-4953
であったが	-4954
とも思った	-4955
にとっても	-4956
真なるバベル	-4957
GGGGGGGG	-4958
▁゙	-4959
▁両	-4960
かず	-4961
だす	-4962
ピン	-4963
ョル	-4964
事件	-4965
他に	-4966
危う	-4967
命が	-4968
影が	-4969
政治	-4970
杖を	-4971
消去	-4972
発展	-4973
砕く	-4974
趣味	-4975
階級	-4976
顔色	-4977
鳴り	-4978
かせた	-4979
の通り	-4980
やめて	-4981
らりと	-4982
クウは	-4983
ピンと	-4984
呪いの	-4985
思えた	-4986
払った	-4987
持った	-4988
疲れた	-4989
過ぎた	-4990
黄金の	-4991
が起こる	-4992
きました	-4993
してやる	-4994
としたら	-4995
やり取り	-4996
やれやれ	-4997
ればいい	-4998
ウーガが	-4999
思えない	-5000
つけられる	-5001
なくなって	-5002
ものである	-5003
向けられた	-5004
立っている	-5005
首を傾げた	-5006
を持っている	-5007
のめ	-5008
ナナ	-5009
一族	-5010
主に	-5011
勝負	-5012
地で	-5013
女を	-5014
奴は	-5015
情け	-5016
撃破	-5017
断言	-5018
有効	-5019
男衆	-5020
自己	-5021
どうせ	-5022
に近い	-5023
の中を	-5024
はもう	-5025
を重ね	-5026
元より	-5027
幾つも	-5028
直した	-5029
があれば	-5030
どちらも	-5031
を見せた	-5032
死霊術師	-5033
騎士団の	-5034
▁あまりにも	-5035
▁アイリスが	-5036
分からないが	-5037
GY	-5038
▁上	-5039
せよ	-5040
に襲	-5041
の儀	-5042
ひっ	-5043
もら	-5044
ズタ	-5045
一時	-5046
天使	-5047
少な	-5048
微塵	-5049
意志	-5050
戦力	-5051
手間	-5052
擦り	-5053
眠り	-5054
眼帯	-5055
眼球	-5056
薬の	-5057
酒造	-5058
が出る	-5059
たとえ	-5060
ためだ	-5061
められ	-5062
名前を	-5063
底から	-5064
抑える	-5065
無理矢	-5066
異様な	-5067
立てる	-5068
都市を	-5069
それぞれ	-5070
それ故に	-5071
だったか	-5072
でもって	-5073
どうにか	-5074
なんです	-5075
やりたい	-5076
を使った	-5077
正確には	-5078
死霊騎士	-5079
気になる	-5080
!!!】」	-5081
されるのは	-5082
それだけの	-5083
ろうとした	-5084
んじゃねえ	-5085
しかなかった	-5086
タイミングで	-5087
NN	-5088
っ端	-5089
に移	-5090
ルト	-5091
例外	-5092
同様	-5093
外で	-5094
姿勢	-5095
寄る	-5096
後悔	-5097
我慢	-5098
挙げ	-5099
有の	-5100
犠牲	-5101
種の	-5102
表現	-5103
誕生	-5104
調子	-5105
閉じ	-5106
飛翔	-5107
髪が	-5108
黒の	-5109
ぁあっ	-5110
この街	-5111
もう一	-5112
ビーカ	-5113
二人に	-5114
任せる	-5115
問いか	-5116
彼女と	-5117
知って	-5118
緋色の	-5119
至った	-5120
覚えて	-5121
魔界の	-5122
▁そこで	-5123
おかしく	-5124
しそうな	-5125
その前に	-5126
にウルは	-5127
の中には	-5128
後ろから	-5129
無理矢理	-5130
頑張って	-5131
▁こうして	-5132
それ以上に	-5133
としていた	-5134
のではなく	-5135
持っている	-5136
ようになった	-5137
シャナイアは	-5138
ことは無かった	-5139
の話	-5140
の音	-5141
ニュ	-5142
保管	-5143
変な	-5144
指が	-5145
掃除	-5146
敵に	-5147
湧き	-5148
滞在	-5149
為の	-5150
焼く	-5151
発見	-5152
線に	-5153
見え	-5154
規則	-5155
逃が	-5156
▁再び	-5157
に参加	-5158
ほうが	-5159
を食い	-5160
キスを	-5161
クチュ	-5162
ミリア	-5163
下がる	-5164
不気味	-5165
単なる	-5166
抜いて	-5167
普段の	-5168
確かな	-5169
KAKA	-5170
していて	-5171
だからな	-5172
っていい	-5173
ようだが	-5174
オオオオ	-5175
スロウス	-5176
始まった	-5177
強くなる	-5178
無茶苦茶	-5179
言いたい	-5180
ことだろう	-5181
することが	-5182
やってくる	-5183
幾度となく	-5184
結果として	-5185
▁シアーシャは	-5186
あっという間に	-5187
はあ	-5188
ひょ	-5189
も角	-5190
ズミ	-5191
他人	-5192
倉庫	-5193
即答	-5194
問い	-5195
奴ら	-5196
如何	-5197
対峙	-5198
尋常	-5199
目標	-5200
石灰	-5201
薄い	-5202
解き	-5203
負担	-5204
貴重	-5205
送る	-5206
遠慮	-5207
がれた	-5208
たびに	-5209
とおり	-5210
を背負	-5211
中でも	-5212
全体を	-5213
双刃剣	-5214
明らか	-5215
未だに	-5216
空いた	-5217
連中は	-5218
ところが	-5219
やってる	-5220
冒険者は	-5221
止まった	-5222
竜牙槍の	-5223
ことのない	-5224
になります	-5225
なんというか	-5226
aaaaaaaa	-5227
▁「.........	-5228
お尻	-5229
に着	-5230
の強	-5231
の数	-5232
はお	-5233
はじ	-5234
を取	-5235
クス	-5236
反論	-5237
売り	-5238
嫉妬	-5239
幸福	-5240
掴み	-5241
時期	-5242
様を	-5243
点は	-5244
照ら	-5245
腹が	-5246
足で	-5247
野郎	-5248
順調	-5249
▁「“	-5250
▁ルイ	-5251
▁僕の	-5252
▁迷宮	-5253
あああ	-5254
にかく	-5255
の竜は	-5256
わせて	-5257
中心に	-5258
伝えて	-5259
兎も角	-5260
叩いた	-5261
忙しい	-5262
済んだ	-5263
見せた	-5264
▁イサナ	-5265
それらの	-5266
だと思う	-5267
の言葉に	-5268
届かない	-5269
押し付け	-5270
起こした	-5271
関わらず	-5272
魔物達の	-5273
▁クレアが	-5274
与えられた	-5275
出していた	-5276
▁イスラリア	-5277
されてしまった	-5278
▁本	-5279
うな	-5280
かよ	-5281
きに	-5282
げえ	-5283
びた	-5284
をな	-5285
トロ	-5286
トン	-5287
マギ	-5288
中々	-5289
免罪	-5290
固定	-5291
増や	-5292
姿が	-5293
定の	-5294
少々	-5295
待機	-5296
投擲	-5297
拳が	-5298
提供	-5299
撤退	-5300
敵意	-5301
日も	-5302
発言	-5303
種類	-5304
結び	-5305
覆う	-5306
遅い	-5307
運ぶ	-5308
運営	-5309
量は	-5310
から外	-5311
せいで	-5312
とっく	-5313
にしろ	-5314
のには	-5315
は少し	-5316
やっと	-5317
れてる	-5318
ネズミ	-5319
ミクリ	-5320
向き直	-5321
変えた	-5322
好きな	-5323
強烈な	-5324
待った	-5325
椅子に	-5326
目的は	-5327
破壊の	-5328
進んだ	-5329
駆ける	-5330
なことを	-5331
はははは	-5332
を見れば	-5333
シズクも	-5334
吹き飛ば	-5335
祈りを捧	-5336
―――――	-5337
なってきた	-5338
のであれば	-5339
残っていた	-5340
▁下	-5341
うわ	-5342
すり	-5343
と見	-5344
バレ	-5345
ブレ	-5346
下で	-5347
先生	-5348
全身	-5349
到達	-5350
天衣	-5351
広が	-5352
終焉	-5353
蠢く	-5354
運ば	-5355
鍛え	-5356
▁勇者	-5357
こぼれ	-5358
に至る	-5359
ぬよう	-5360
のかな	-5361
を利用	-5362
を睨み	-5363
アレは	-5364
勢いを	-5365
大量に	-5366
存在が	-5367
少年は	-5368
捨てた	-5369
数百年	-5370
灰色の	-5371
異なる	-5372
進める	-5373
それでは	-5374
どこまで	-5375
ばかりだ	-5376
クレアに	-5377
ラストの	-5378
レナード	-5379
方がいい	-5380
行われる	-5381
このような	-5382
つつあった	-5383
まれていた	-5384
よりも早く	-5385
口を開いた	-5386
頭を下げた	-5387
つもりだった	-5388
GA	-5389
▁長	-5390
ごく	-5391
に角	-5392
わい	-5393
を外	-5394
イブ	-5395
ンチ	-5396
世の	-5397
代表	-5398
周り	-5399
垂れ	-5400
射精	-5401
挑発	-5402
活躍	-5403
無尽	-5404
物資	-5405
物質	-5406
竜竜	-5407
経過	-5408
考慮	-5409
荷車	-5410
裁判	-5411
謝罪	-5412
額を	-5413
風が	-5414
あるが	-5415
おかし	-5416
しばし	-5417
どっち	-5418
コレは	-5419
姿勢を	-5420
時には	-5421
自体が	-5422
そうだね	-5423
を続ける	-5424
中央工房	-5425
思い出す	-5426
残念ながら	-5427
理解できた	-5428
突如として	-5429
しているのか	-5430
そうになった	-5431
るようにして	-5432
になってしまった	-5433
きり	-5434
ささ	-5435
ちぎ	-5436
っが	-5437
に頼	-5438
コー	-5439
事故	-5440
交じ	-5441
何せ	-5442
保護	-5443
全体	-5444
司祭	-5445
子宮	-5446
幸運	-5447
愛撫	-5448
手甲	-5449
損な	-5450
村を	-5451
次は	-5452
濃い	-5453
皆が	-5454
石の	-5455
稼働	-5456
粉砕	-5457
絡み	-5458
翼を	-5459
薙ぎ	-5460
辺り	-5461
鈍い	-5462
雫は	-5463
顔の	-5464
いくつ	-5465
いてい	-5466
かって	-5467
にくい	-5468
もそう	-5469
やれば	-5470
らしき	-5471
りする	-5472
わった	-5473
をつく	-5474
を理解	-5475
チンポ	-5476
バード	-5477
フギン	-5478
伸びる	-5479
危ない	-5480
厄介な	-5481
居ない	-5482
引きつ	-5483
続いた	-5484
莫大な	-5485
貫いた	-5486
貴方は	-5487
赤黒い	-5488
越した	-5489
ahah	-5490
その瞬間	-5491
ちょうど	-5492
ろうとも	-5493
イカザは	-5494
クローロ	-5495
ショーツ	-5496
ことだった	-5497
ているのは	-5498
と比べれば	-5499
やっている	-5500
精霊の力を	-5501
首を傾げる	-5502
よりも遙かに	-5503
▁グ	-5504
▁誰	-5505
みは	-5506
めの	-5507
んが	-5508
ーっ	-5509
一部	-5510
威圧	-5511
実行	-5512
巨体	-5513
帰り	-5514
欠片	-5515
段階	-5516
点に	-5517
瞳に	-5518
積極	-5519
細工	-5520
量を	-5521
金は	-5522
障害	-5523
首が	-5524
から逃	-5525
しちゃ	-5526
ときの	-5527
の仕事	-5528
ましく	-5529
免罪官	-5530
向かい	-5531
幾つか	-5532
床暖房	-5533
攻撃が	-5534
新たに	-5535
気なく	-5536
痛みを	-5537
茶苦茶	-5538
言いた	-5539
諦めた	-5540
魔力は	-5541
えてきた	-5542
んできた	-5543
バラバラ	-5544
者として	-5545
こなかった	-5546
考えている	-5547
言いながら	-5548
となっていた	-5549
アルノルドは	-5550
存在していた	-5551
存在している	-5552
ことは出来ない	-5553
アイリスちゃん	-5554
▁二	-5555
▁前	-5556
くら	-5557
をお	-5558
んん	-5559
オー	-5560
マカ	-5561
一枚	-5562
人材	-5563
信用	-5564
到着	-5565
去る	-5566
収穫	-5567
君が	-5568
帰る	-5569
年前	-5570
掲げ	-5571
教育	-5572
日目	-5573
端な	-5574
補助	-5575
迎え	-5576
開発	-5577
黒睡	-5578
▁さて	-5579
そいつ	-5580
ただし	-5581
でさえ	-5582
と判断	-5583
もった	-5584
やりと	-5585
をつけ	-5586
兎に角	-5587
化け物	-5588
受けて	-5589
殺した	-5590
浮かび	-5591
理由が	-5592
疑問に	-5593
能力は	-5594
話しか	-5595
顔を見	-5596
▁ウルと	-5597
ちらりと	-5598
ついでに	-5599
できれば	-5600
となれば	-5601
に入った	-5602
ませんが	-5603
らっしゃ	-5604
マカール	-5605
感じない	-5606
繰り返し	-5607
▁エリン姉	-5608
かけていた	-5609
アイリスに	-5610
ブラックの	-5611
にも関わらず	-5612
はしなかった	-5613
.......	-5614
にはいられなかった	-5615
うと	-5616
くそ	-5617
に限	-5618
の山	-5619
ふふ	-5620
を仕	-5621
万能	-5622
個体	-5623
先で	-5624
努力	-5625
壊滅	-5626
夏の	-5627
奉仕	-5628
定期	-5629
尻穴	-5630
広く	-5631
心は	-5632
扉が	-5633
操作	-5634
曖昧	-5635
活性	-5636
熱い	-5637
眼を	-5638
者と	-5639
肌を	-5640
脳が	-5641
計算	-5642
購入	-5643
音に	-5644
いるが	-5645
かせて	-5646
さりと	-5647
できず	-5648
もしか	-5649
リット	-5650
レイは	-5651
今から	-5652
優秀な	-5653
受付嬢	-5654
台無し	-5655
戦いに	-5656
早々に	-5657
時間の	-5658
気に入	-5659
気配が	-5660
深々と	-5661
立てた	-5662
訓練所	-5663
魔獣は	-5664
▁自分が	-5665
そうした	-5666
ってから	-5667
に満ちた	-5668
滅茶苦茶	-5669
良くない	-5670
苦々しい	-5671
じゃなくて	-5672
と思ったが	-5673
によっては	-5674
わけがない	-5675
を見ていた	-5676
言葉の意味	-5677
▁シアーシャが	-5678
ため息をついた	-5679
▁Z	-5680
に仕	-5681
めく	-5682
やむ	-5683
ろよ	-5684
キー	-5685
ノア	-5686
乗る	-5687
墜ち	-5688
屋根	-5689
性能	-5690
支払	-5691
教室	-5692
流す	-5693
熱を	-5694
生徒	-5695
義務	-5696
肯定	-5697
膨ら	-5698
術の	-5699
製の	-5700
進め	-5701
どうだ	-5702
なんな	-5703
の一撃	-5704
ルート	-5705
依頼を	-5706
元から	-5707
反応は	-5708
含めて	-5709
当時の	-5710
攻撃の	-5711
痛みに	-5712
程度で	-5713
走った	-5714
間抜け	-5715
魔物は	-5716
黒睡帯	-5717
ことしか	-5718
し始めた	-5719
それらは	-5720
なかなか	-5721
ぬように	-5722
を纏った	-5723
ファイブ	-5724
ベッドに	-5725
一方的に	-5726
冒険者を	-5727
浮かべる	-5728
ではあった	-5729
に対しても	-5730
ベグードは	-5731
音を立てて	-5732
ように見える	-5733
不思議そうに	-5734
rr	-5735
▁不	-5736
あふ	-5737
うっ	-5738
ぐり	-5739
にゃ	-5740
プレ	-5741
主が	-5742
元を	-5743
向上	-5744
大抵	-5745
尤も	-5746
後も	-5747
揉み	-5748
撃ち	-5749
浅い	-5750
直す	-5751
眷族	-5752
背に	-5753
護符	-5754
音と	-5755
音は	-5756
風来	-5757
▁今の	-5758
が出来	-5759
ならん	-5760
にまで	-5761
に戻る	-5762
の中の	-5763
わせた	-5764
カップ	-5765
ジグと	-5766
丁寧に	-5767
加護を	-5768
多少の	-5769
安全な	-5770
山ほど	-5771
広がり	-5772
探鉱隊	-5773
握った	-5774
眉を顰	-5775
詰めた	-5776
込める	-5777
▁二人は	-5778
しか無い	-5779
しておく	-5780
じゃ無い	-5781
そうして	-5782
その結果	-5783
と思えば	-5784
のようだ	-5785
はあった	-5786
ましたね	-5787
を求める	-5788
アルンビ	-5789
フォロー	-5790
ラビィン	-5791
今度こそ	-5792
迷宮探索	-5793
じゃねえか	-5794
ってくれた	-5795
を見ている	-5796
アイリスも	-5797
グレーレが	-5798
上げながら	-5799
嬉しそうに	-5800
思い出した	-5801
相変わらず	-5802
黒剣騎士団	-5803
しようとする	-5804
と言うことは	-5805
アルンビョル	-5806
冒険者たちが	-5807
......?	-5808
分からなかった	-5809
クナトルレイク大会	-5810
し折	-5811
りも	-5812
リカ	-5813
ルの	-5814
乳房	-5815
何事	-5816
僕も	-5817
刀を	-5818
剣士	-5819
巨神	-5820
打つ	-5821
明る	-5822
染み	-5823
浸食	-5824
白銀	-5825
皮紙	-5826
真美	-5827
立派	-5828
経緯	-5829
視の	-5830
誰か	-5831
鏡の	-5832
闇に	-5833
防備	-5834
集め	-5835
▁ここ	-5836
▁正直	-5837
あの時	-5838
いずれ	-5839
が来た	-5840
してみ	-5841
の竜の	-5842
わずに	-5843
を打ち	-5844
ソレを	-5845
微笑む	-5846
感覚に	-5847
手の平	-5848
粘魔王	-5849
美しく	-5850
迷宮を	-5851
部分を	-5852
離れる	-5853
▁これが	-5854
▁なにせ	-5855
おいおい	-5856
するのが	-5857
する必要	-5858
ったりと	-5859
のですね	-5860
られても	-5861
アアアア	-5862
ディズも	-5863
ハリアン	-5864
使えない	-5865
▁どうやら	-5866
されていく	-5867
といっても	-5868
カルカラが	-5869
ジャインが	-5870
上げられた	-5871
動いている	-5872
様子はない	-5873
気にしない	-5874
笑いながら	-5875
▁シアーシャ	-5876
ことができた	-5877
っているのか	-5878
であろうとも	-5879
溜息をついた	-5880
生み出された	-5881
首を横に振る	-5882
ps	-5883
▁三	-5884
】。	-5885
すか	-5886
でに	-5887
わた	-5888
メイ	-5889
休み	-5890
例の	-5891
元で	-5892
分に	-5893
否応	-5894
審判	-5895
工夫	-5896
推測	-5897
敗北	-5898
斬撃	-5899
有名	-5900
的で	-5901
硬い	-5902
設置	-5903
資源	-5904
身は	-5905
速い	-5906
連携	-5907
隣に	-5908
頃の	-5909
://	-5910
htt	-5911
いかに	-5912
えれば	-5913
しげに	-5914
の類い	-5915
を吐き	-5916
ジグも	-5917
事実を	-5918
優れた	-5919
思えば	-5920
散らす	-5921
相応の	-5922
綺麗に	-5923
纏わり	-5924
襲いか	-5925
遅れて	-5926
風来鮊	-5927
魔女釜	-5928
―――。	-5929
があって	-5930
し続ける	-5931
それ以外	-5932
ってのは	-5933
メリット	-5934
今日まで	-5935
身体から	-5936
https	-5937
が無かった	-5938
この世界の	-5939
まっすぐに	-5940
込んできた	-5941
どう考えても	-5942
シャナイアの	-5943
当然のように	-5944
目を覚ました	-5945
IIIIIIII	-5946
............」	-5947
▁ア	-5948
▁小	-5949
コツ	-5950
ッコ	-5951
ッサ	-5952
ヤバ	-5953
並び	-5954
並ぶ	-5955
並べ	-5956
在る	-5957
年は	-5958
所業	-5959
暴力	-5960
死ね	-5961
水が	-5962
派遣	-5963
灰都	-5964
皮膚	-5965
空の	-5966
組む	-5967
青い	-5968
▁他の	-5969
▁村の	-5970
いれば	-5971
き出し	-5972
くりと	-5973
それら	-5974
ともに	-5975
まみれ	-5976
中から	-5977
事実に	-5978
今日も	-5979
光景に	-5980
出ない	-5981
動かし	-5982
回った	-5983
感情の	-5984
星の大	-5985
武器の	-5986
砕けた	-5987
達から	-5988
重要な	-5989
されても	-5990
だという	-5991
ってない	-5992
どこから	-5993
なんてい	-5994
ようにも	-5995
よろしい	-5996
ペリィは	-5997
主である	-5998
肩をすく	-5999
...!」	-6000
受け止める	-6001
星の大結束	-6002
▁https	-6003
ことがあった	-6004
▁彼	-6005
おー	-6006
で見	-6007
イク	-6008
体調	-6009
傷が	-6010
割れ	-6011
土竜	-6012
地帯	-6013
悲惨	-6014
救う	-6015
浄化	-6016
浮遊	-6017
焼け	-6018
煙が	-6019
痕跡	-6020
的確	-6021
装置	-6022
話の	-6023
貝殻	-6024
間近	-6025
隙を	-6026
▁以前	-6027
などは	-6028
にしか	-6029
に身を	-6030
のはず	-6031
の中央	-6032
ますね	-6033
めいた	-6034
トーマ	-6035
人間は	-6036
仲間を	-6037
出せる	-6038
切り替	-6039
同士の	-6040
容易く	-6041
引いた	-6042
急いで	-6043
振る舞	-6044
羊皮紙	-6045
連中が	-6046
▁恐らく	-6047
すような	-6048
であって	-6049
という話	-6050
と思しき	-6051
みたいに	-6052
用意した	-6053
それなりに	-6054
とばかりに	-6055
どのように	-6056
に合わせて	-6057
はならない	-6058
ましょうか	-6059
エシェルに	-6060
シグリズ様	-6061
創り出した	-6062
声を上げる	-6063
▁しかしその	-6064
▁だからこそ	-6065
そうではない	-6066
トールステイン大	-6067
ぎょ	-6068
とこ	-6069
よな	-6070
ンリ	-6071
削り	-6072
取れ	-6073
吊り	-6074
大幅	-6075
天愚	-6076
家は	-6077
年も	-6078
得た	-6079
方角	-6080
浮き	-6081
縫い	-6082
襲い	-6083
言わ	-6084
貢献	-6085
ごめん	-6086
さした	-6087
を維持	-6088
コント	-6089
シアン	-6090
ション	-6091
伝える	-6092
作業を	-6093
光景を	-6094
全ては	-6095
全身を	-6096
変えて	-6097
少女が	-6098
当然だ	-6099
待って	-6100
方から	-6101
昨日の	-6102
最近は	-6103
楽しみ	-6104
気にも	-6105
溢れる	-6106
違って	-6107
▁ゆえに	-6108
くらいだ	-6109
しており	-6110
てもらう	-6111
なにやら	-6112
はずだが	-6113
フェンリ	-6114
戦士達は	-6115
飲み込む	-6116
それ以上の	-6117
とエリン姉	-6118
なんだって	-6119
のを感じた	-6120
へと視線を	-6121
を開始した	-6122
仕方がない	-6123
声をかける	-6124
飛んできた	-6125
黒炎払いの	-6126
とも思ったが	-6127
しようとしている	-6128
いけ	-6129
おは	-6130
らな	-6131
ンス	-6132
事な	-6133
人だ	-6134
付与	-6135
依然	-6136
値段	-6137
割に	-6138
合わ	-6139
太い	-6140
干し	-6141
忌避	-6142
戦場	-6143
数に	-6144
的だ	-6145
直前	-6146
瞳は	-6147
祖母	-6148
簡易	-6149
置く	-6150
話題	-6151
量が	-6152
頼も	-6153
首筋	-6154
黒板	-6155
▁ンッ	-6156
▁竜の	-6157
けると	-6158
そこの	-6159
などの	-6160
にもう	-6161
は全く	-6162
ほどだ	-6163
やれる	-6164
わりと	-6165
ゼロは	-6166
出され	-6167
切れた	-6168
去って	-6169
増えた	-6170
指先で	-6171
掲げる	-6172
特有の	-6173
真面目	-6174
純粋な	-6175
魔眼が	-6176
▁しかも	-6177
▁ルイが	-6178
うような	-6179
かったが	-6180
させない	-6181
っており	-6182
とは思う	-6183
むように	-6184
メンバー	-6185
出現する	-6186
幾つかの	-6187
得られる	-6188
気づいて	-6189
顔をしか	-6190
魔物達を	-6191
▁そのため	-6192
▁ディズの	-6193
えるような	-6194
したような	-6195
そう思った	-6196
ついていた	-6197
どれほどの	-6198
になってる	-6199
グルフィン	-6200
似たような	-6201
回っていた	-6202
でありながら	-6203
▁問	-6204
おぞ	-6205
ふと	-6206
まー	-6207
りだ	-6208
るか	-6209
タと	-6210
ミミ	-6211
加え	-6212
務室	-6213
喧嘩	-6214
奏で	-6215
待た	-6216
快感	-6217
恐る	-6218
掻き	-6219
曰く	-6220
本を	-6221
父親	-6222
牽制	-6223
独特	-6224
皆様	-6225
知恵	-6226
第一	-6227
調理	-6228
資料	-6229
身分	-6230
酒場	-6231
間で	-6232
隙間	-6233
▁結局	-6234
が来る	-6235
さすが	-6236
もいい	-6237
エリア	-6238
コイン	-6239
ドラッ	-6240
ボール	-6241
二人で	-6242
倒れ伏	-6243
問題が	-6244
大地の	-6245
天剣の	-6246
忘れて	-6247
悲鳴が	-6248
想像も	-6249
慎重に	-6250
未知の	-6251
武器は	-6252
漏らす	-6253
特別な	-6254
状況で	-6255
装備を	-6256
言葉の	-6257
適当な	-6258
くような	-6259
っくり返	-6260
なんだが	-6261
のための	-6262
ドラッグ	-6263
久しぶり	-6264
恥ずかし	-6265
果たして	-6266
殺される	-6267
気がした	-6268
的だった	-6269
移動する	-6270
落ち着き	-6271
音が響く	-6272
▁なるほど	-6273
けるように	-6274
そうなると	-6275
とも言える	-6276
も無かった	-6277
父ちゃんは	-6278
立ち上がり	-6279
されていない	-6280
にはならない	-6281
わかっていた	-6282
わかっている	-6283
陽喰らいの儀	-6284
られてしまった	-6285
おおおおおおおお	-6286
こち	-6287
なか	-6288
に陥	-6289
スパ	-6290
俺に	-6291
元凶	-6292
全滅	-6293
勝て	-6294
即ち	-6295
呆れ	-6296
品を	-6297
強さ	-6298
我々	-6299
掛か	-6300
教会	-6301
生命	-6302
皆無	-6303
筈だ	-6304
腕で	-6305
街を	-6306
衝動	-6307
製塩	-6308
魔断	-6309
▁特に	-6310
さして	-6311
じろぎ	-6312
であれ	-6313
どれも	-6314
わしい	-6315
ターラ	-6316
乗り越	-6317
人とも	-6318
傷を負	-6319
十分な	-6320
反応を	-6321
口を挟	-6322
寄せて	-6323
届いた	-6324
強大な	-6325
我らが	-6326
普通に	-6327
流れる	-6328
聖教の	-6329
見せる	-6330
言われ	-6331
迷宮が	-6332
飛び散	-6333
々とした	-6334
その姿は	-6335
なんでも	-6336
なんとも	-6337
の魔術を	-6338
ませんね	-6339
んですよ	-6340
カークが	-6341
リとした	-6342
声だった	-6343
弾き飛ば	-6344
微笑んだ	-6345
渡された	-6346
理解する	-6347
真っ先に	-6348
良いのか	-6349
▁大罪迷宮	-6350
しくなった	-6351
それでいい	-6352
はずもない	-6353
は出来ない	-6354
ひっくり返	-6355
ギークとの	-6356
ヘイルダー	-6357
ラウターラ	-6358
声を上げた	-6359
言うまでも	-6360
訳ではない	-6361
コントロール	-6362
のは間違いない	-6363
................	-6364
▁パ	-6365
▁体	-6366
▁村	-6367
▁気	-6368
しで	-6369
の出	-6370
は今	-6371
ふり	-6372
まえ	-6373
を残	-6374
を経	-6375
一言	-6376
丸く	-6377
口で	-6378
名は	-6379
嗚呼	-6380
宙を	-6381
応え	-6382
忠告	-6383
怪訝	-6384
方針	-6385
治癒	-6386
獣の	-6387
真実	-6388
神経	-6389
秘密	-6390
脳を	-6391
蒼い	-6392
討ち	-6393
身内	-6394
障壁	-6395
面で	-6396
食を	-6397
がれる	-6398
が多い	-6399
これも	-6400
さんは	-6401
しくは	-6402
すのは	-6403
せっか	-6404
へし折	-6405
ものに	-6406
やすく	-6407
フォル	-6408
人間の	-6409
内心で	-6410
化する	-6411
完全な	-6412
時間帯	-6413
濡れた	-6414
細かい	-6415
色欲の	-6416
規模の	-6417
討伐祭	-6418
詰める	-6419
飲んで	-6420
魔道具	-6421
▁パンッ	-6422
から目を	-6423
そうそう	-6424
ているが	-6425
否応なく	-6426
然とした	-6427
者もいる	-6428
首をかし	-6429
▁ちょっと	-6430
せなかった	-6431
カルカラの	-6432
ブラックが	-6433
感じていた	-6434
逃げ出した	-6435
つまるところ	-6436
ようとしていた	-6437
ざるを得なかった	-6438
アン	-6439
プロ	-6440
中層	-6441
中庭	-6442
偉い	-6443
同僚	-6444
地位	-6445
声の	-6446
大地	-6447
好奇	-6448
好機	-6449
家で	-6450
平和	-6451
張る	-6452
急に	-6453
愚痴	-6454
日に	-6455
柄な	-6456
残骸	-6457
男性	-6458
短く	-6459
舌が	-6460
設備	-6461
連盟	-6462
郎党	-6463
離脱	-6464
食堂	-6465
鼻で	-6466
▁もし	-6467
▁子供	-6468
が一番	-6469
ことか	-6470
すまん	-6471
っぽい	-6472
は一瞬	-6473
を強く	-6474
を用意	-6475
ライカ	-6476
問うた	-6477
喰らう	-6478
存在は	-6479
後から	-6480
得ない	-6481
果てに	-6482
構わず	-6483
無防備	-6484
状況が	-6485
狙いを	-6486
睨んだ	-6487
立って	-6488
自身も	-6489
苦しい	-6490
表情に	-6491
複雑な	-6492
転がり	-6493
達には	-6494
違和感	-6495
いてきた	-6496
くように	-6497
ましたが	-6498
ウル達を	-6499
向かって	-6500
振り返り	-6501
来ていた	-6502
かれていた	-6503
ってもらう	-6504
に関しては	-6505
付けられた	-6506
顔になった	-6507
羽目になった	-6508
なくなっていた	-6509
ようとしている	-6510
わからなかった	-6511
AHAHAHAH	-6512
わけにもいかない	-6513
OOOOOOOOOOOOOOOO	-6514
、”	-6515
ご婦	-6516
に使	-6517
に収	-6518
に近	-6519
に隠	-6520
のね	-6521
の底	-6522
ひび	-6523
もた	-6524
もど	-6525
を保	-6526
を担	-6527
ゴミ	-6528
伸介	-6529
体重	-6530
呟く	-6531
土地	-6532
地区	-6533
大体	-6534
容姿	-6535
廃棄	-6536
建物	-6537
当初	-6538
形の	-6539
抱え	-6540
押さ	-6541
有力	-6542
法衣	-6543
激突	-6544
皮肉	-6545
紹介	-6546
至極	-6547
苦痛	-6548
銅の	-6549
首に	-6550
▁突然	-6551
くちゃ	-6552
こうと	-6553
すでに	-6554
ためか	-6555
づらい	-6556
とやら	-6557
の準備	-6558
を目指	-6559
を覚え	-6560
ガザは	-6561
スター	-6562
上回る	-6563
世界は	-6564
仕事に	-6565
何やら	-6566
容易に	-6567
技術を	-6568
行って	-6569
見えて	-6570
詰めて	-6571
詳しい	-6572
認める	-6573
!!】」	-6574
▁彼らの	-6575
うううう	-6576
に戻った	-6577
人である	-6578
島喰亀の	-6579
気にする	-6580
真っ白な	-6581
説明する	-6582
身じろぎ	-6583
が終わった	-6584
螺旋図書館	-6585
と言われれば	-6586
はありません	-6587
▁ピ	-6588
お茶	-6589
がれ	-6590
が無	-6591
しね	-6592
のさ	-6593
ひど	-6594
フフ	-6595
一帯	-6596
両親	-6597
事業	-6598
作る	-6599
刃は	-6600
向く	-6601
大樹	-6602
席を	-6603
店の	-6604
当時	-6605
悪党	-6606
悪態	-6607
星剣	-6608
王国	-6609
畜生	-6610
老婆	-6611
聖遺	-6612
荒れ	-6613
要素	-6614
観客	-6615
話に	-6616
豊富	-6617
賭け	-6618
遠征	-6619
▁一瞬	-6620
▁魔術	-6621
うまく	-6622
しらの	-6623
じゃの	-6624
ていい	-6625
などを	-6626
のかと	-6627
んのか	-6628
ジェナ	-6629
両手で	-6630
周りの	-6631
悟った	-6632
文句を	-6633
消える	-6634
無駄に	-6635
薄暗い	-6636
いでいる	-6637
おはよう	-6638
があると	-6639
これでも	-6640
せっかく	-6641
そうする	-6642
それこそ	-6643
っつーか	-6644
にあった	-6645
になれば	-6646
はないが	-6647
ませんか	-6648
むような	-6649
スーア様	-6650
ドローナ	-6651
話だった	-6652
震わせる	-6653
おうとした	-6654
かけられた	-6655
じゃあない	-6656
するという	-6657
でしょうね	-6658
ないように	-6659
よりも更に	-6660
られるのは	-6661
自分たちを	-6662
ことではない	-6663
エンヴィーの	-6664
”」	-6665
▁ガ	-6666
▁外	-6667
▁神	-6668
。「	-6669
でな	-6670
を下	-6671
デカ	-6672
ルは	-6673
七首	-6674
交換	-6675
側で	-6676
妖精	-6677
実績	-6678
専門	-6679
弱点	-6680
強制	-6681
放題	-6682
朝の	-6683
本格	-6684
消滅	-6685
混ざ	-6686
溶け	-6687
理想	-6688
甘く	-6689
空気	-6690
糸を	-6691
絞り	-6692
胸の	-6693
費用	-6694
車輪	-6695
迫り	-6696
退治	-6697
運動	-6698
金が	-6699
▁今日	-6700
▁男は	-6701
に目を	-6702
ませた	-6703
ルイに	-6704
光景は	-6705
冷静に	-6706
増した	-6707
嬌声が	-6708
察した	-6709
尽きる	-6710
崩れた	-6711
殺して	-6712
生きて	-6713
異常な	-6714
痛みが	-6715
答えは	-6716
背後で	-6717
自分も	-6718
術式の	-6719
話し合	-6720
通りに	-6721
飲んだ	-6722
いろいろ	-6723
こんなに	-6724
とは別の	-6725
の上から	-6726
を放った	-6727
を見つめ	-6728
何よりも	-6729
立ち上が	-6730
自分から	-6731
▁ディズが	-6732
だったのか	-6733
にしている	-6734
エシェルを	-6735
与えられる	-6736
慣れている	-6737
手によって	-6738
振り返ると	-6739
父ちゃんの	-6740
突き刺さる	-6741
込んでくる	-6742
▁『――――	-6743
冒険者として	-6744
になってしまう	-6745
笑みを浮かべる	-6746
▁四	-6747
うー	-6748
だわ	-6749
づく	-6750
バチ	-6751
マイ	-6752
修羅	-6753
再開	-6754
単に	-6755
博士	-6756
商売	-6757
外れ	-6758
家を	-6759
悪魔	-6760
来客	-6761
止ま	-6762
殺到	-6763
溜め	-6764
熱の	-6765
状の	-6766
独り	-6767
略奪	-6768
竜と	-6769
育て	-6770
腰の	-6771
襲う	-6772
錯覚	-6773
風呂	-6774
鳴る	-6775
▁長い	-6776
おいた	-6777
がどう	-6778
ご婦人	-6779
っきり	-6780
まずい	-6781
ままで	-6782
を取る	-6783
マギカ	-6784
他人の	-6785
仲間が	-6786
勝った	-6787
同じく	-6788
増える	-6789
感想を	-6790
渡した	-6791
生存圏	-6792
組んで	-6793
背後の	-6794
送った	-6795
集まる	-6796
静かな	-6797
▁二人の	-6798
するには	-6799
だけなら	-6800
なくなり	-6801
ひとまず	-6802
られれば	-6803
れてきた	-6804
をもって	-6805
を与える	-6806
ヘイルダ	-6807
作られた	-6808
出さない	-6809
口を開く	-6810
破壊する	-6811
聞きたい	-6812
▁あるいは	-6813
けるような	-6814
こともない	-6815
そんな風に	-6816
と言われて	-6817
どうすれば	-6818
を見つめる	-6819
ダヴィネが	-6820
何かしらの	-6821
始めている	-6822
▁ジャインは	-6823
れてしまった	-6824
ビクトールは	-6825
悲鳴を上げる	-6826
立ち上がった	-6827
わけではないが	-6828
に焼	-6829
に等	-6830
ねた	-6831
ねる	-6832
めば	-6833
ァッ	-6834
イキ	-6835
ココ	-6836
人員	-6837
健康	-6838
基準	-6839
技能	-6840
星石	-6841
歓迎	-6842
毛を	-6843
渦巻	-6844
物だ	-6845
稼ぐ	-6846
自慢	-6847
西風	-6848
規格	-6849
諦め	-6850
限度	-6851
際の	-6852
難い	-6853
露骨	-6854
魂を	-6855
ごとに	-6856
と言い	-6857
に顔を	-6858
のいい	-6859
ルール	-6860
不安定	-6861
二人を	-6862
仕事だ	-6863
吐息が	-6864
場合は	-6865
幼馴染	-6866
彼には	-6867
感覚が	-6868
抜けて	-6869
明確に	-6870
満たす	-6871
砕けて	-6872
空間が	-6873
立てて	-6874
美味い	-6875
肉体が	-6876
舌打ち	-6877
起こり	-6878
逸らす	-6879
開いて	-6880
魔眼を	-6881
▁流石に	-6882
いくつか	-6883
が見えた	-6884
こうなる	-6885
し続けた	-6886
せられる	-6887
その身を	-6888
だったな	-6889
になると	-6890
はすぐに	-6891
を起こす	-6892
ットリと	-6893
不死鳥は	-6894
化け物の	-6895
大罪竜の	-6896
差し出す	-6897
思わせる	-6898
歯を食い	-6899
気付いた	-6900
逃げ出す	-6901
かなければ	-6902
なんとなく	-6903
ようになる	-6904
エシェルも	-6905
待っていた	-6906
落ち着いた	-6907
覚えている	-6908
!!!!!』	-6909
ということだ	-6910
歯を食いしば	-6911
突き刺さった	-6912
込まれていた	-6913
EEEEEEEE	-6914
■■■■■■■■	-6915
申し訳ありません	-6916
~~~~~~~~~~~~~~~~	-6917
▁後	-6918
えど	-6919
ぐれ	-6920
しを	-6921
びり	-6922
を奪	-6923
ニー	-6924
三人	-6925
上層	-6926
儀式	-6927
削岩	-6928
女に	-6929
平気	-6930
強固	-6931
文化	-6932
沈み	-6933
理性	-6934
眠る	-6935
祈る	-6936
私に	-6937
程に	-6938
纏う	-6939
薄く	-6940
足の	-6941
蹂躙	-6942
重く	-6943
野菜	-6944
鏡を	-6945
闇が	-6946
高価	-6947
▁はっ	-6948
▁ンっ	-6949
▁今は	-6950
▁何故	-6951
▁更に	-6952
するに	-6953
その間	-6954
アルト	-6955
ジグへ	-6956
メイド	-6957
与える	-6958
何かの	-6959
力強く	-6960
助けた	-6961
助ける	-6962
司令室	-6963
呼んで	-6964
威力を	-6965
得体の	-6966
応じる	-6967
悪いが	-6968
挙げ句	-6969
眺める	-6970
示した	-6971
社交場	-6972
精霊に	-6973
術式が	-6974
頃から	-6975
魔女と	-6976
魔物達	-6977
鼻を鳴	-6978
▁ただし	-6979
いったい	-6980
いっぱい	-6981
けられた	-6982
ことです	-6983
これほど	-6984
せられた	-6985
それらが	-6986
の全てを	-6987
ッタリと	-6988
事だった	-6989
持たない	-6990
持ち上げ	-6991
柔らかく	-6992
確認した	-6993
行かない	-6994
降り注ぐ	-6995
してもらう	-6996
たどり着く	-6997
はずだった	-6998
を見つけた	-6999
ソフィアは	-7000
振り返った	-7001
言うとおり	-7002
誰であろう	-7003
込んでいく	-7004
顔を上げる	-7005
▁父ちゃんが	-7006
こととなった	-7007
グルフィンは	-7008
かもしれないが	-7009
▁口	-7010
▁赤	-7011
♥」	-7012
ぶら	-7013
を剥	-7014
イイ	-7015
オウ	-7016
ギャ	-7017
ピラ	-7018
ラス	-7019
ンド	-7020
一匹	-7021
一点	-7022
下手	-7023
二十	-7024
促す	-7025
傷は	-7026
働く	-7027
勘弁	-7028
同情	-7029
大半	-7030
奴が	-7031
必須	-7032
救い	-7033
月神	-7034
有り	-7035
決断	-7036
焚き	-7037
狂う	-7038
癒や	-7039
白樺	-7040
硬直	-7041
糸が	-7042
級の	-7043
結晶	-7044
苦い	-7045
補給	-7046
要請	-7047
鏡が	-7048
額に	-7049
食の	-7050
騒が	-7051
▁幸い	-7052
▁魔王	-7053
いいえ	-7054
しさに	-7055
ないし	-7056
に対応	-7057
は一切	-7058
ばない	-7059
を抱き	-7060
上がら	-7061
中々に	-7062
全員の	-7063
周りに	-7064
回復薬	-7065
大事に	-7066
屋敷の	-7067
感謝を	-7068
朝から	-7069
置いた	-7070
肉体の	-7071
逃げた	-7072
▁まさか	-7073
おおよそ	-7074
くなって	-7075
こちらが	-7076
しません	-7077
その上で	-7078
たりとも	-7079
とにかく	-7080
と化した	-7081
の中では	-7082
へ向かう	-7083
らしいが	-7084
カタカタ	-7085
ギークを	-7086
チンピラ	-7087
一つ一つ	-7088
利用する	-7089
受け止め	-7090
決まった	-7091
言わない	-7092
魔物達が	-7093
っているが	-7094
に存在する	-7095
れるような	-7096
上げていた	-7097
冒険者たち	-7098
とてつもなく	-7099
なのだろうか	-7100
もしなかった	-7101
彼女にとって	-7102
そうとしている	-7103
イスラリア大陸	-7104
▁女	-7105
▁生	-7106
ずい	-7107
ふん	-7108
キツ	-7109
休憩	-7110
凍り	-7111
加速	-7112
基礎	-7113
寸前	-7114
後を	-7115
扉を	-7116
機関	-7117
炎を	-7118
燃料	-7119
狙う	-7120
甲斐	-7121
男だ	-7122
破綻	-7123
端を	-7124
良し	-7125
術が	-7126
説得	-7127
迎撃	-7128
逸ら	-7129
遊撃	-7130
魂の	-7131
▁ちゅ	-7132
そこを	-7133
の内部	-7134
は必要	-7135
ませて	-7136
やると	-7137
を示す	-7138
グラン	-7139
ペース	-7140
何時も	-7141
動いて	-7142
怒りに	-7143
戦いが	-7144
戦士達	-7145
方へと	-7146
此処の	-7147
結構な	-7148
興味深	-7149
説明を	-7150
込めて	-7151
途端に	-7152
集めて	-7153
魔道核	-7154
▁大きな	-7155
が一気に	-7156
きれない	-7157
それから	-7158
では無く	-7159
という事	-7160
とはまた	-7161
をかけた	-7162
をかける	-7163
ウル達に	-7164
ギルドに	-7165
クレアを	-7166
シュオウ	-7167
ナイフを	-7168
付かない	-7169
徹底的に	-7170
振るった	-7171
物だった	-7172
言えない	-7173
迷宮から	-7174
▁アイリス	-7175
ことはある	-7176
それ以外の	-7177
のだろうが	-7178
やって来た	-7179
を見上げる	-7180
事実だった	-7181
動いていた	-7182
同じように	-7183
変わりない	-7184
大きかった	-7185
帰ってきた	-7186
灰都ラース	-7187
▁その言葉に	-7188
というものを	-7189
と思っている	-7190
してしまっていた	-7191
ずる	-7192
とど	-7193
の面	-7194
べた	-7195
ガタ	-7196
ヒマ	-7197
ボク	-7198
不幸	-7199
中断	-7200
使命	-7201
同胞	-7202
器用	-7203
度な	-7204
応援	-7205
息が	-7206
振動	-7207
授業	-7208
掘り	-7209
操り	-7210
方だ	-7211
景観	-7212
暗殺	-7213
本質	-7214
王に	-7215
生の	-7216
私を	-7217
細く	-7218
脈動	-7219
術は	-7220
触腕	-7221
質な	-7222
足下	-7223
返し	-7224
▁では	-7225
あえて	-7226
ここの	-7227
ごとく	-7228
たれた	-7229
ってか	-7230
ともと	-7231
はなく	-7232
ままの	-7233
分ける	-7234
呪いが	-7235
咎める	-7236
土竜蛇	-7237
大規模	-7238
懐から	-7239
戻って	-7240
扉を開	-7241
指先は	-7242
求める	-7243
混じり	-7244
生き残	-7245
眼前に	-7246
訪れた	-7247
飛び交	-7248
魔獣に	-7249
▁かつて	-7250
えられる	-7251
ができる	-7252
この場所	-7253
れるのは	-7254
ニシンの	-7255
引っ張り	-7256
恐らくは	-7257
戦士達の	-7258
積極的に	-7259
繰り返す	-7260
面倒くさ	-7261
響き渡る	-7262
頼もしい	-7263
騎士団長	-7264
があります	-7265
があるのか	-7266
させられた	-7267
なんていう	-7268
になるのは	-7269
依然として	-7270
可能な限り	-7271
当たらない	-7272
戻ってきた	-7273
されてしまう	-7274
となっている	-7275
んじゃないか	-7276
ってしまっていた	-7277
わけではなかった	-7278
▁目	-7279
▁魔	-7280
。(	-7281
かん	-7282
きを	-7283
に包	-7284
世間	-7285
丸太	-7286
作品	-7287
使え	-7288
依存	-7289
修繕	-7290
傷を	-7291
共通	-7292
凝縮	-7293
大勢	-7294
実の	-7295
実感	-7296
将来	-7297
小鬼	-7298
尽き	-7299
幾度	-7300
形が	-7301
形状	-7302
彷徨	-7303
復活	-7304
性器	-7305
感嘆	-7306
成し	-7307
成立	-7308
改善	-7309
整え	-7310
整理	-7311
方も	-7312
族長	-7313
日々	-7314
材料	-7315
無限	-7316
留め	-7317
確定	-7318
筈の	-7319
肉欲	-7320
腰に	-7321
蔓延	-7322
装飾	-7323
赤く	-7324
長期	-7325
頭は	-7326
頼り	-7327
▁いつ	-7328
おうと	-7329
おらず	-7330
じゃろ	-7331
たまた	-7332
どこに	-7333
の大半	-7334
を守り	-7335
グッと	-7336
人形は	-7337
叩いて	-7338
天魔の	-7339
好きに	-7340
意味が	-7341
戦いは	-7342
注意を	-7343
獲物を	-7344
種付け	-7345
逸物が	-7346
遠距離	-7347
顔には	-7348
▁不意に	-7349
▁女性の	-7350
いでいた	-7351
おかしな	-7352
ごめんな	-7353
しくなる	-7354
ですよね	-7355
わからん	-7356
リーネも	-7357
北方社会	-7358
反射的に	-7359
圧倒的に	-7360
天陽結界	-7361
成功した	-7362
生産都市	-7363
置かれた	-7364
見ている	-7365
▁ユーリは	-7366
ことができ	-7367
であろうと	-7368
回っている	-7369
恥ずかしい	-7370
父ちゃんに	-7371
ことが出来た	-7372
彼らにとって	-7373
知らなかった	-7374
表情を浮かべ	-7375
ものではなかった	-7376
わけにはいかなかった	-7377
おろ	-7378
が生	-7379
もも	-7380
を生	-7381
を除	-7382
ゾク	-7383
ヒャ	-7384
ルナ	-7385
乱暴	-7386
先日	-7387
判明	-7388
反響	-7389
名誉	-7390
困り	-7391
地域	-7392
家庭	-7393
年月	-7394
廃墟	-7395
折り	-7396
折角	-7397
故郷	-7398
普人	-7399
更新	-7400
本部	-7401
村は	-7402
椅子	-7403
権力	-7404
歪な	-7405
注文	-7406
海水	-7407
焦げ	-7408
異様	-7409
絶え	-7410
緊急	-7411
衝突	-7412
補充	-7413
買う	-7414
路を	-7415
返り	-7416
追放	-7417
運用	-7418
顎を	-7419
▁男の	-7420
が起き	-7421
こなす	-7422
だいぶ	-7423
だらけ	-7424
に飛び	-7425
の内容	-7426
の竜が	-7427
カハハ	-7428
バルト	-7429
メージ	-7430
リスト	-7431
乗った	-7432
向いた	-7433
呪いを	-7434
喜んで	-7435
地面が	-7436
執務室	-7437
大人の	-7438
如何に	-7439
微塵も	-7440
慌ただ	-7441
所から	-7442
捉えた	-7443
繋がる	-7444
者達を	-7445
諦めて	-7446
面倒な	-7447
香りが	-7448
魔力で	-7449
▁ルイは	-7450
こっちの	-7451
するのも	-7452
なのだと	-7453
についた	-7454
のものだ	-7455
ませんよ	-7456
らないと	-7457
を見るに	-7458
不思議な	-7459
冒険者に	-7460
動けない	-7461
声と共に	-7462
彼らには	-7463
振り回す	-7464
来ている	-7465
開かれた	-7466
頭を下げ	-7467
その言葉に	-7468
ちゃくちゃ	-7469
でしかない	-7470
のだという	-7471
出しながら	-7472
戦っている	-7473
村長婦人の	-7474
気になった	-7475
許されない	-7476
たどり着いた	-7477
場合によっては	-7478
どうにもならない	-7479
❤)	-7480
あう	-7481
かあ	-7482
かえ	-7483
さる	-7484
の色	-7485
れず	-7486
アド	-7487
アホ	-7488
ゴロ	-7489
ロッ	-7490
互い	-7491
人数	-7492
供給	-7493
分を	-7494
前線	-7495
収束	-7496
味が	-7497
団長	-7498
大切	-7499
宿舎	-7500
尚も	-7501
怯え	-7502
愚か	-7503
所有	-7504
探し	-7505
攻め	-7506
最下	-7507
槍の	-7508
歓喜	-7509
火を	-7510
物狂	-7511
神薬	-7512
良さ	-7513
苦手	-7514
討つ	-7515
謎の	-7516
貫き	-7517
酒が	-7518
霧散	-7519
静か	-7520
馬の	-7521
いため	-7522
お前も	-7523
しくて	-7524
すんな	-7525
でその	-7526
の言葉	-7527
ますが	-7528
を振り	-7529
ジグ君	-7530
今後の	-7531
入って	-7532
勝てる	-7533
吐息を	-7534
回って	-7535
小人の	-7536
心から	-7537
思って	-7538
意味で	-7539
手段は	-7540
方舟の	-7541
村では	-7542
気味に	-7543
無理だ	-7544
笑みが	-7545
跳んだ	-7546
近くに	-7547
速度は	-7548
集める	-7549
震えた	-7550
...?	-7551
▁小さな	-7552
▁自身の	-7553
この場に	-7554
そうだが	-7555
の言葉を	-7556
ゆっくり	-7557
わけでも	-7558
んだがな	-7559
イメージ	-7560
クロコス	-7561
ディズを	-7562
リーネに	-7563
俺たちは	-7564
勢いよく	-7565
呼びかけ	-7566
文字通り	-7567
死に物狂	-7568
白の魔女	-7569
目撃した	-7570
▁シグリズ	-7571
▁ロックは	-7572
▁目の前の	-7573
して欲しい	-7574
そのままに	-7575
においては	-7576
んだけどね	-7577
んでしょう	-7578
今のところ	-7579
動き出した	-7580
真っ赤に染	-7581
顔を上げた	-7582
ことが出来る	-7583
どうでもいい	-7584
はずなのだが	-7585
必要があった	-7586
▁そんなことを	-7587
そしてそのまま	-7588
RRRRRRRR	-7589
じみ	-7590
っぐ	-7591
と大	-7592
のん	-7593
の前	-7594
ぼん	-7595
キリ	-7596
レア	-7597
万全	-7598
二の	-7599
体験	-7600
個人	-7601
元は	-7602
先輩	-7603
切っ	-7604
剣で	-7605
及び	-7606
威力	-7607
安く	-7608
師匠	-7609
恩恵	-7610
悶え	-7611
感と	-7612
戦況	-7613
構成	-7614
民の	-7615
炎は	-7616
熟練	-7617
用件	-7618
目も	-7619
神を	-7620
絶句	-7621
蒸し	-7622
装着	-7623
言動	-7624
評判	-7625
誤解	-7626
警備	-7627
超克	-7628
道は	-7629
遙か	-7630
雑に	-7631
▁んっ	-7632
おこう	-7633
がたい	-7634
が一瞬	-7635
したか	-7636
になん	-7637
の方は	-7638
ものね	-7639
んでは	-7640
人達が	-7641
体力を	-7642
創造主	-7643
動きに	-7644
口を開	-7645
合って	-7646
大きさ	-7647
戻った	-7648
持ちの	-7649
書いて	-7650
漏れた	-7651
無茶を	-7652
無駄な	-7653
職人の	-7654
部分が	-7655
重なり	-7656
頃には	-7657
頭を掻	-7658
▁どこか	-7659
▁ギルド	-7660
かくして	-7661
してない	-7662
そう思う	-7663
だろうし	-7664
てしまう	-7665
不明だが	-7666
入り交じ	-7667
出ていた	-7668
取れない	-7669
声が響く	-7670
尽くした	-7671
感を覚え	-7672
穏やかな	-7673
▁しばらく	-7674
▁そこには	-7675
それでも尚	-7676
れてしまう	-7677
わけが無い	-7678
フェンリル	-7679
マフィアの	-7680
母ちゃんが	-7681
であるという	-7682
とてつもない	-7683
になりながら	-7684
何一つとして	-7685
可能性もある	-7686
本来であれば	-7687
見えなかった	-7688
アナスタシアの	-7689
どうしようもなく	-7690
UU	-7691
▁身	-7692
うつ	-7693
おじ	-7694
お腹	-7695
きが	-7696
ざわ	-7697
どろ	-7698
に反	-7699
の悪	-7700
ばり	-7701
ふざ	-7702
ぶる	-7703
みろ	-7704
を終	-7705
ケラ	-7706
コン	-7707
スプ	-7708
上下	-7709
上半	-7710
不能	-7711
刻印	-7712
単位	-7713
合流	-7714
天の	-7715
弾け	-7716
怠惰	-7717
拠点	-7718
拡張	-7719
数秒	-7720
敵は	-7721
未熟	-7722
模倣	-7723
権限	-7724
欲望	-7725
発想	-7726
発揮	-7727
砂塵	-7728
砕き	-7729
祈り	-7730
神に	-7731
禁止	-7732
秩序	-7733
行を	-7734
表面	-7735
覚醒	-7736
設計	-7737
通る	-7738
過剰	-7739
金銭	-7740
雌の	-7741
ありと	-7742
おっと	-7743
が発生	-7744
どこの	-7745
なしに	-7746
に集中	-7747
ねない	-7748
の方角	-7749
もんだ	-7750
んだぞ	-7751
会議室	-7752
出入り	-7753
分けて	-7754
場所だ	-7755
大連盟	-7756
少しは	-7757
平然と	-7758
意図を	-7759
村から	-7760
死体を	-7761
準備は	-7762
生き物	-7763
皆さん	-7764
確認し	-7765
背筋が	-7766
衝撃で	-7767
貴重な	-7768
込めた	-7769
遅れた	-7770
雄叫び	-7771
頭から	-7772
頭部を	-7773
魔導書	-7774
▁その後	-7775
▁それも	-7776
▁思わず	-7777
が大きく	-7778
ところだ	-7779
とは全く	-7780
やるべき	-7781
れてくる	-7782
グレンが	-7783
不思議と	-7784
二人とも	-7785
時間稼ぎ	-7786
漏らした	-7787
無視した	-7788
落下した	-7789
行われた	-7790
関係ない	-7791
▁それまで	-7792
▁だがその	-7793
あり得ない	-7794
きっていた	-7795
その場から	-7796
なさそうだ	-7797
なのである	-7798
になっても	-7799
テーブルに	-7800
出してきた	-7801
合っている	-7802
▁ボルドーは	-7803
ように見えた	-7804
考えていると	-7805
込まれている	-7806
かもしれません	-7807
ハッキリ言って	-7808
ああああああああああああああああ	-7809
▁土	-7810
▁空	-7811
▁血	-7812
▁黒	-7813
ぁぁ	-7814
くっ	-7815
しげ	-7816
へえ	-7817
ゅう	-7818
よお	-7819
ゲイ	-7820
ヌル	-7821
ポー	-7822
一発	-7823
不審	-7824
侵食	-7825
候補	-7826
内を	-7827
動物	-7828
化し	-7829
増え	-7830
子種	-7831
巡り	-7832
店を	-7833
悪霊	-7834
惑星	-7835
散々	-7836
木工	-7837
根が	-7838
根を	-7839
死を	-7840
物語	-7841
直感	-7842
積も	-7843
縦に	-7844
胸に	-7845
装甲	-7846
逃す	-7847
酷な	-7848
鳴き	-7849
▁何か	-7850
▁初め	-7851
▁村長	-7852
あがる	-7853
あふれ	-7854
お前に	-7855
がこの	-7856
としか	-7857
の余地	-7858
の悪い	-7859
まけに	-7860
みんな	-7861
を使用	-7862
を口に	-7863
ヒトを	-7864
上手い	-7865
二つに	-7866
人には	-7867
他人事	-7868
任せて	-7869
伝わる	-7870
余計な	-7871
半端な	-7872
合いの	-7873
寄せた	-7874
暖かい	-7875
本当の	-7876
無意識	-7877
焼き払	-7878
眼前の	-7879
穴が空	-7880
装備の	-7881
話した	-7882
警戒を	-7883
速度を	-7884
集めた	-7885
顔つき	-7886
黙った	-7887
▁アラン	-7888
その場で	-7889
その場に	-7890
だなんて	-7891
ちゃった	-7892
に関わる	-7893
はずっと	-7894
は確かに	-7895
ばかりで	-7896
シアンが	-7897
伸ばした	-7898
出会った	-7899
失敗した	-7900
子供達は	-7901
戦士達が	-7902
締め付け	-7903
落下する	-7904
通信魔具	-7905
▁ウーガの	-7906
くらいなら	-7907
ことはなく	-7908
と言われる	-7909
のようにも	-7910
を見ながら	-7911
気持ち良さ	-7912
者はいない	-7913
込められた	-7914
▁少なくとも	-7915
ごめんなさい	-7916
してください	-7917
先ほどまでの	-7918
ではないだろう	-7919
間違いなかった	-7920
......❤』	-7921
▁(......	-7922
▁他	-7923
おや	-7924
がい	-7925
が解	-7926
くい	-7927
さぁ	-7928
つな	-7929
づけ	-7930
の足	-7931
を犯	-7932
を返	-7933
キラ	-7934
セブ	-7935
ルタ	-7936
ンカ	-7937
一流	-7938
交代	-7939
分は	-7940
刺突	-7941
勝手	-7942
反省	-7943
古い	-7944
喜ば	-7945
喜ぶ	-7946
在り	-7947
地図	-7948
息子	-7949
掌握	-7950
援護	-7951
時も	-7952
決ま	-7953
沙汰	-7954
済み	-7955
激闘	-7956
爪を	-7957
王よ	-7958
看守	-7959
砂鮫	-7960
罪悪	-7961
脱出	-7962
舐め	-7963
跳ぶ	-7964
軌跡	-7965
追撃	-7966
運命	-7967
預け	-7968
顕現	-7969
骨を	-7970
鼻を	-7971
あれが	-7972
かかり	-7973
き散ら	-7974
する事	-7975
その一	-7976
でなく	-7977
によく	-7978
ぶん殴	-7979
を得る	-7980
を狙う	-7981
交わり	-7982
人間を	-7983
以前に	-7984
伸ばす	-7985
倒れる	-7986
子供を	-7987
左右に	-7988
幾度も	-7989
思考が	-7990
情報の	-7991
捕らえ	-7992
揺らぎ	-7993
揺らす	-7994
果てた	-7995
決める	-7996
漏れる	-7997
焼いた	-7998
現れる	-7999
理由を	-8000
砕いた	-8001
端から	-8002
自分と	-8003
良いか	-8004
蜥蜴の	-8005
衝撃が	-8006
言える	-8007
許され	-8008
込もう	-8009
迷宮は	-8010
鍛冶師	-8011
▁ディズ	-8012
▁相手の	-8013
あるのは	-8014
いちいち	-8015
が少ない	-8016
という訳	-8017
とは別に	-8018
と思うと	-8019
なんじゃ	-8020
はあるが	-8021
をつける	-8022
んでくる	-8023
ギュっと	-8024
ディズ様	-8025
ベーグル	-8026
ロックン	-8027
下ろした	-8028
仲間達の	-8029
切り裂く	-8030
動かして	-8031
動き出す	-8032
否定する	-8033
引きずり	-8034
理解して	-8035
鏡の精霊	-8036
飛び出す	-8037
▁ウルバス	-8038
かけている	-8039
こともあり	-8040
そう言うと	-8041
てしまった	-8042
というには	-8043
どうするか	-8044
のが見えた	-8045
へと向かう	-8046
ようとして	-8047
助けられた	-8048
天陽騎士の	-8049
差し出した	-8050
想像以上に	-8051
気持ち良さに	-8052
間もなくして	-8053
ロックンロール	-8054
とは思わなかった	-8055
)。	-8056
▁バ	-8057
▁白	-8058
」」	-8059
おめ	-8060
かぬ	-8061
こん	-8062
ごう	-8063
さり	-8064
たん	-8065
に備	-8066
に及	-8067
ほか	-8068
イヤ	-8069
ロと	-8070
一直	-8071
不要	-8072
仮に	-8073
何者	-8074
作成	-8075
刻む	-8076
同時	-8077
名の	-8078
唇は	-8079
嘲笑	-8080
声も	-8081
官能	-8082
帯び	-8083
戻り	-8084
改良	-8085
本番	-8086
柄を	-8087
樽の	-8088
歪み	-8089
気付	-8090
無謀	-8091
特権	-8092
白尻	-8093
神は	-8094
突進	-8095
脱ぎ	-8096
航路	-8097
蜘蛛	-8098
見習	-8099
詰ま	-8100
責務	-8101
跡形	-8102
避妊	-8103
重視	-8104
開催	-8105
関わ	-8106
頃は	-8107
風邪	-8108
▁一見	-8109
ええと	-8110
この上	-8111
こんだ	-8112
じゃん	-8113
すげえ	-8114
すごく	-8115
たしか	-8116
だがな	-8117
ちこち	-8118
とって	-8119
に力を	-8120
に突き	-8121
もはや	-8122
チュっ	-8123
パンっ	-8124
人類が	-8125
依頼の	-8126
取ると	-8127
囁いた	-8128
地上に	-8129
座った	-8130
意識は	-8131
感覚を	-8132
懸命に	-8133
整った	-8134
新しく	-8135
本当は	-8136
状態の	-8137
生物の	-8138
目立つ	-8139
真剣な	-8140
肉体は	-8141
苛立ち	-8142
苦笑い	-8143
表情が	-8144
視界が	-8145
言葉で	-8146
輝きが	-8147
近くの	-8148
近づき	-8149
返事を	-8150
頭を抱	-8151
魔導機	-8152
▁シズク	-8153
いてくる	-8154
からして	-8155
しまって	-8156
だろうに	-8157
つけられ	-8158
とは言い	-8159
などない	-8160
の向こう	-8161
ますます	-8162
を始める	-8163
んだって	-8164
カークの	-8165
ベイツが	-8166
付き合い	-8167
初めての	-8168
受け入れ	-8169
混じった	-8170
直撃した	-8171
私たちは	-8172
違いない	-8173
魔術師の	-8174
▁エルシア	-8175
いつも通り	-8176
させている	-8177
その身体を	-8178
それなりの	-8179
なっていく	-8180
を確認する	-8181
ボルドーの	-8182
仕方が無い	-8183
受け入れる	-8184
彼女自身の	-8185
気持ち良い	-8186
理解できる	-8187
身に纏った	-8188
だったからだ	-8189
ではあったが	-8190
動きを止めた	-8191
▁冒険者ギルド	-8192
プラウディアに	-8193
▁初	-8194
▁自	-8195
』『	-8196
あが	-8197
が悪	-8198
ぎん	-8199
こら	-8200
すれ	-8201
だぜ	-8202
なっ	-8203
に浸	-8204
の巣	-8205
の穴	-8206
らで	-8207
を隠	-8208
キレ	-8209
チョ	-8210
ハロ	-8211
ピク	-8212
ルル	-8213
ヴェ	-8214
主義	-8215
価格	-8216
信徒	-8217
倒し	-8218
切断	-8219
刺し	-8220
台詞	-8221
名が	-8222
堪能	-8223
妨害	-8224
季節	-8225
安易	-8226
対価	-8227
弟子	-8228
思惑	-8229
思想	-8230
挑む	-8231
撃つ	-8232
数字	-8233
望み	-8234
村が	-8235
漬け	-8236
現場	-8237
用途	-8238
盗み	-8239
神と	-8240
第三	-8241
継ぎ	-8242
色に	-8243
街に	-8244
負傷	-8245
跳び	-8246
辛い	-8247
鉱山	-8248
音の	-8249
頬に	-8250
鱈の	-8251
▁ああ	-8252
▁なぜ	-8253
▁映像	-8254
そうは	-8255
その内	-8256
どのみ	-8257
はーい	-8258
を持た	-8259
を見据	-8260
んだか	-8261
ナナは	-8262
一族の	-8263
与えた	-8264
与えて	-8265
世界に	-8266
乾いた	-8267
仲良く	-8268
伸びて	-8269
位置を	-8270
全体が	-8271
全力を	-8272
全身が	-8273
勇者の	-8274
合いに	-8275
呼吸を	-8276
大剣を	-8277
大幅に	-8278
守護者	-8279
店員が	-8280
彼等が	-8281
微妙な	-8282
応じた	-8283
機神の	-8284
止まり	-8285
死体が	-8286
溢れた	-8287
知らん	-8288
私たち	-8289
純粋に	-8290
見ても	-8291
視線で	-8292
込むと	-8293
関係を	-8294
魔女が	-8295
鳴らす	-8296
▁ベッド	-8297
▁問題は	-8298
この大陸	-8299
されてる	-8300
するのか	-8301
たっぷり	-8302
つつある	-8303
ていれば	-8304
というと	-8305
とっくに	-8306
どのみち	-8307
は決して	-8308
もいない	-8309
ものだと	-8310
を狙った	-8311
ウルにも	-8312
場所から	-8313
大人しく	-8314
思わない	-8315
握りしめ	-8316
最後には	-8317
最終的に	-8318
焼き払う	-8319
筈だった	-8320
身構える	-8321
遊撃部隊	-8322
集まった	-8323
響かせる	-8324
▁それから	-8325
おぞましい	-8326
が始まった	-8327
こうなった	-8328
したらしい	-8329
全くもって	-8330
思っている	-8331
無くなった	-8332
申し訳なさ	-8333
落とされた	-8334
しているのだ	-8335
のではないか	-8336
エイスーラは	-8337
周囲を見渡す	-8338
であったとしても	-8339
ことはできなかった	-8340
co	-8341
no	-8342
oo	-8343
▁だ	-8344
いざ	-8345
お陰	-8346
こい	-8347
すみ	-8348
つん	-8349
ふわ	-8350
まわ	-8351
ズボ	-8352
一息	-8353
二度	-8354
傾向	-8355
十二	-8356
厚な	-8357
口は	-8358
喰ら	-8359
増す	-8360
寝る	-8361
察知	-8362
年間	-8363
広間	-8364
戦の	-8365
拮抗	-8366
撃退	-8367
救済	-8368
正義	-8369
水の	-8370
渡る	-8371
睡眠	-8372
突入	-8373
突破	-8374
窮地	-8375
融通	-8376
衣服	-8377
貫通	-8378
近接	-8379
運搬	-8380
道に	-8381
遺骸	-8382
闇の	-8383
風を	-8384
あんッ	-8385
お疲れ	-8386
しなく	-8387
にはな	-8388
ようか	-8389
を聞き	-8390
んだね	-8391
ゲーム	-8392
不愉快	-8393
何度か	-8394
俺たち	-8395
割って	-8396
取られ	-8397
回して	-8398
報酬は	-8399
子供に	-8400
巨神の	-8401
戦力を	-8402
発する	-8403
目に遭	-8404
負ける	-8405
迷宮で	-8406
避けた	-8407
関わり	-8408
食べて	-8409
魔導核	-8410
魔眼は	-8411
▁ノート	-8412
が欲しい	-8413
げげげげ	-8414
に等しい	-8415
の中へと	-8416
らされる	-8417
カークは	-8418
シズルナ	-8419
スーアを	-8420
堪らない	-8421
定期的に	-8422
生まれて	-8423
痛い痛い	-8424
程度には	-8425
立たない	-8426
致命的な	-8427
見ていた	-8428
踏み込み	-8429
集まって	-8430
音がした	-8431
▁その瞬間	-8432
ありえない	-8433
これまでの	-8434
というやつ	-8435
光景だった	-8436
居なかった	-8437
思い出して	-8438
手に入れた	-8439
持ち合わせ	-8440
消えていく	-8441
満ちていた	-8442
聞こえない	-8443
言葉を交わ	-8444
都合の良い	-8445
▁エシェルが	-8446
▁エシェルの	-8447
▁竜吞ウーガ	-8448
それにしても	-8449
めちゃくちゃ	-8450
を続けていた	-8451
決まっている	-8452
眉をひそめた	-8453
だったのだろう	-8454
ろうとしている	-8455
ギークによって	-8456
▁アナスタシアは	-8457
クレアとアイリス	-8458
▁ド	-8459
おず	-8460
でる	-8461
なき	-8462
なと	-8463
イト	-8464
カウ	-8465
クズ	-8466
サボ	-8467
サラ	-8468
パク	-8469
並み	-8470
乱れ	-8471
体力	-8472
出せ	-8473
剥が	-8474
劣化	-8475
収集	-8476
叶う	-8477
品の	-8478
回答	-8479
失う	-8480
学生	-8481
家が	-8482
恰好	-8483
折れ	-8484
支部	-8485
暗く	-8486
母親	-8487
泣く	-8488
滑り	-8489
火炎	-8490
焦烏	-8491
熱に	-8492
皺を	-8493
目論	-8494
盾の	-8495
研ぎ	-8496
耳が	-8497
膨張	-8498
訝し	-8499
速に	-8500
銅級	-8501
集ま	-8502
鳥の	-8503
▁とり	-8504
▁聖女	-8505
▁言葉	-8506
▁都市	-8507
ありゃ	-8508
がなく	-8509
ぐしゃ	-8510
とった	-8511
と呼ぶ	-8512
のかを	-8513
の一種	-8514
ふぎん	-8515
もあり	-8516
も必要	-8517
を得た	-8518
を撫で	-8519
ケット	-8520
ソース	-8521
ハハハ	-8522
ベンチ	-8523
人達の	-8524
以外に	-8525
何かに	-8526
保存食	-8527
危険を	-8528
周辺の	-8529
女性を	-8530
子供達	-8531
少年の	-8532
引いて	-8533
張って	-8534
感情は	-8535
教える	-8536
料理を	-8537
時間も	-8538
更なる	-8539
構えて	-8540
機能を	-8541
決めて	-8542
浩介は	-8543
理由も	-8544
目当て	-8545
眷属竜	-8546
空間に	-8547
続いて	-8548
蜂蜜酒	-8549
行動を	-8550
視界に	-8551
銀色の	-8552
険しい	-8553
震わせ	-8554
顔面に	-8555
▁やがて	-8556
▁地下牢	-8557
これだけ	-8558
されれば	-8559
したこと	-8560
するのだ	-8561
だからだ	-8562
ましてや	-8563
ウーガで	-8564
リスクを	-8565
呆気なく	-8566
声をあげ	-8567
変わらぬ	-8568
広がった	-8569
必然的に	-8570
殺された	-8571
沈黙した	-8572
深くまで	-8573
自分達の	-8574
舌を絡め	-8575
観察する	-8576
許される	-8577
――――』	-8578
▁このまま	-8579
が起こった	-8580
そのものの	-8581
でなければ	-8582
なんだから	-8583
にとっての	-8584
のみならず	-8585
を繰り返す	-8586
ウットリと	-8587
バベルの塔	-8588
分かってる	-8589
去っていく	-8590
当たり前の	-8591
指示を出す	-8592
止まらない	-8593
しましょうか	-8594
であることは	-8595
ままならない	-8596
エイスーラの	-8597
フライタンは	-8598
冒険者たちの	-8599
可能性がある	-8600
▁プラウディア	-8601
なってしまった	-8602
▁エクスタインは	-8603
”、	-8604
▁右	-8605
▁金	-8606
の塊	-8607
の無	-8608
まぁ	-8609
るな	-8610
をし	-8611
を越	-8612
アタ	-8613
ゴー	-8614
テン	-8615
ボコ	-8616
リリ	-8617
体位	-8618
僕に	-8619
去り	-8620
含め	-8621
囁く	-8622
土の	-8623
定め	-8624
密着	-8625
弾く	-8626
情を	-8627
意気	-8628
持た	-8629
救援	-8630
栄養	-8631
極限	-8632
次元	-8633
激痛	-8634
煙を	-8635
目覚	-8636
石板	-8637
肌に	-8638
脳裏	-8639
血と	-8640
象徴	-8641
造り	-8642
配慮	-8643
釣り	-8644
阻害	-8645
雄の	-8646
零れ	-8647
願う	-8648
鯨の	-8649
▁まず	-8650
▁一度	-8651
▁部屋	-8652
うごめ	-8653
が見え	-8654
すべく	-8655
その為	-8656
つけば	-8657
に使う	-8658
に来る	-8659
の一切	-8660
はした	-8661
まとめ	-8662
やけに	-8663
やめろ	-8664
るとき	-8665
ザスプ	-8666
ロッズ	-8667
下へと	-8668
価値観	-8669
凶悪な	-8670
出現し	-8671
増やす	-8672
彼らも	-8673
惜しい	-8674
戦士の	-8675
戦士団	-8676
投げた	-8677
掴んで	-8678
新谷は	-8679
明かり	-8680
様子は	-8681
模した	-8682
準備が	-8683
留める	-8684
疑問が	-8685
的確に	-8686
目つき	-8687
続きを	-8688
耐える	-8689
西風炉	-8690
部分は	-8691
間にも	-8692
関係は	-8693
食らい	-8694
▁これで	-8695
あちこち	-8696
えながら	-8697
ぐらいの	-8698
こっちは	-8699
しがたい	-8700
それより	-8701
っちゃう	-8702
の中心に	-8703
ぶつかる	-8704
ものだが	-8705
を始めた	-8706
サーベル	-8707
デザイン	-8708
ピタリと	-8709
下がった	-8710
不気味な	-8711
奪われる	-8712
押しつぶ	-8713
灰の英雄	-8714
目を丸く	-8715
突っ込む	-8716
視線の先	-8717
顔をする	-8718
首を傾げ	-8719
▁あまりに	-8720
▁そういう	-8721
▁ギークに	-8722
ことに気が	-8723
しきれない	-8724
ではないか	-8725
と言うこと	-8726
を思い出す	-8727
を無視して	-8728
ファミリア	-8729
ミクリナは	-8730
冒険者達が	-8731
合っていた	-8732
役割を果た	-8733
持っていた	-8734
精霊の加護	-8735
迫っていた	-8736
か分からない	-8737
であるらしい	-8738
アルノルド王	-8739
グロンゾンの	-8740
フィヨルドの	-8741
思っていると	-8742
言うまでも無く	-8743
▁『――――――	-8744
ロックンロール号	-8745
▁す	-8746
▁で	-8747
▁足	-8748
こむ	-8749
ごい	-8750
の実	-8751
ぼや	-8752
ズレ	-8753
ヤツ	-8754
ラグ	-8755
ルガ	-8756
上空	-8757
下を	-8758
乱立	-8759
代行	-8760
任務	-8761
住処	-8762
体制	-8763
侵攻	-8764
剣に	-8765
勃起	-8766
勉強	-8767
反動	-8768
唸る	-8769
執念	-8770
奇妙	-8771
宙に	-8772
宣告	-8773
将軍	-8774
幾重	-8775
形に	-8776
影に	-8777
悪辣	-8778
手札	-8779
旋回	-8780
本気	-8781
本題	-8782
毒爪	-8783
決意	-8784
海に	-8785
渡り	-8786
火が	-8787
灰色	-8788
無残	-8789
熱狂	-8790
男と	-8791
真に	-8792
眼が	-8793
終局	-8794
統一	-8795
継承	-8796
線が	-8797
腹部	-8798
虫が	-8799
虫の	-8800
見の	-8801
角笛	-8802
議論	-8803
迷い	-8804
遅れ	-8805
鬱陶	-8806
▁よく	-8807
▁別に	-8808
からと	-8809
なにせ	-8810
に対処	-8811
の一角	-8812
ぶりに	-8813
まいと	-8814
やたら	-8815
られず	-8816
ろくに	-8817
を使い	-8818
を失い	-8819
を狙い	-8820
を獲得	-8821
スッと	-8822
ダメだ	-8823
ベルト	-8824
以前の	-8825
以外は	-8826
依頼は	-8827
元へと	-8828
入れ替	-8829
全てに	-8830
動きで	-8831
危うい	-8832
取り戻	-8833
含めた	-8834
回した	-8835
壊れた	-8836
始まり	-8837
容易い	-8838
封じる	-8839
小型の	-8840
心臓を	-8841
捉える	-8842
暮らす	-8843
気配を	-8844
理解し	-8845
生石灰	-8846
相当な	-8847
破壊し	-8848
者たち	-8849
能力の	-8850
行くぞ	-8851
通った	-8852
過ぎて	-8853
過ごす	-8854
重なる	-8855
限りの	-8856
頷くと	-8857
馬鹿な	-8858
魔法薬	-8859
▁その時	-8860
お互いの	-8861
ぐらいは	-8862
したまま	-8863
した瞬間	-8864
すぐさま	-8865
その先に	-8866
たまたま	-8867
ってやる	-8868
っとした	-8869
の魔術が	-8870
は大きく	-8871
もあるが	-8872
もしくは	-8873
を終えた	-8874
を聞いた	-8875
アカネに	-8876
ギルド員	-8877
トンネル	-8878
レアヴェ	-8879
前に出る	-8880
失われた	-8881
崩壊する	-8882
死ぬほど	-8883
気持ちは	-8884
済ませる	-8885
的なもの	-8886
言ってた	-8887
詰まった	-8888
説明した	-8889
誰も彼も	-8890
転がった	-8891
通じない	-8892
▁それだけ	-8893
▁カティア	-8894
くらいには	-8895
こうとする	-8896
と比べると	-8897
についても	-8898
ものだから	-8899
ダヴィネに	-8900
ヨラン司祭	-8901
向けていた	-8902
宝石人形を	-8903
待っている	-8904
振るわれた	-8905
生き残った	-8906
続いていた	-8907
肩を竦める	-8908
落ちていく	-8909
飛んでくる	-8910
から放たれる	-8911
ため息をつく	-8912
ってはいない	-8913
なんでもない	-8914
イスラリアに	-8915
ウーガという	-8916
悲鳴のような	-8917
近づいてくる	-8918
▁『......	-8919
微笑みを浮かべた	-8920
ハハハハハハハハハハハハハハハハ	-8921
?!	-8922
▁竜	-8923
ぅぅ	-8924
えぇ	-8925
えっ	-8926
せに	-8927
ぞき	-8928
ちに	-8929
でね	-8930
ばた	-8931
ふら	-8932
ぽつ	-8933
を崩	-8934
を被	-8935
ァっ	-8936
アー	-8937
ッツ	-8938
ビュ	-8939
ル卿	-8940
ロク	-8941
ワー	-8942
事務	-8943
人達	-8944
前を	-8945
力だ	-8946
呑み	-8947
夜は	-8948
奪う	-8949
妹の	-8950
娯楽	-8951
学習	-8952
己が	-8953
幼少	-8954
当の	-8955
抱く	-8956
教官	-8957
早速	-8958
死骸	-8959
涙を	-8960
滑稽	-8961
特製	-8962
白亜	-8963
石材	-8964
羊毛	-8965
翼が	-8966
親友	-8967
言え	-8968
身も	-8969
過程	-8970
錫杖	-8971
飛来	-8972
髪に	-8973
黒く	-8974
▁魔物	-8975
▁黒い	-8976
いかん	-8977
からぬ	-8978
から一	-8979
がねえ	-8980
が故に	-8981
さった	-8982
しそう	-8983
って事	-8984
でいい	-8985
なんら	-8986
に来て	-8987
の一瞬	-8988
の声が	-8989
わざと	-8990
を描く	-8991
アドバ	-8992
アルゼ	-8993
ギュゥ	-8994
ザルタ	-8995
トーレ	-8996
ヤバい	-8997
事実だ	-8998
仲間に	-8999
仲間達	-9000
使い手	-9001
勇者は	-9002
多様な	-9003
大事な	-9004
大変に	-9005
引き抜	-9006
想像が	-9007
投げる	-9008
指さす	-9009
最悪だ	-9010
最高の	-9011
本物の	-9012
来ない	-9013
流石の	-9014
無事な	-9015
目には	-9016
程度に	-9017
立派な	-9018
結果は	-9019
結界が	-9020
結界の	-9021
訪れる	-9022
誰一人	-9023
離れて	-9024
頑張り	-9025
願いを	-9026
▁対して	-9027
。...	-9028
するなら	-9029
ためには	-9030
なのかは	-9031
なのです	-9032
にもなる	-9033
のだけど	-9034
は完全に	-9035
められて	-9036
もう一つ	-9037
ものなら	-9038
をつけた	-9039
を引き裂	-9040
ウウウウ	-9041
ガントが	-9042
レベルの	-9043
俺たちの	-9044
力を持つ	-9045
可能性も	-9046
子供達が	-9047
子供達の	-9048
展開する	-9049
支配する	-9050
村長婦人	-9051
確信した	-9052
竜呑都市	-9053
管理する	-9054
者がいる	-9055
背中から	-9056
落として	-9057
遠からず	-9058
遭遇した	-9059
飛ばした	-9060
▁どれだけ	-9061
▁リーネの	-9062
いくらでも	-9063
おうとする	-9064
が良かった	-9065
しかいない	-9066
しかねない	-9067
そうだろう	-9068
そのような	-9069
その全てが	-9070
りはしない	-9071
を前にして	-9072
ギークへと	-9073
トーレル卿	-9074
使っていた	-9075
冒険者達の	-9076
出したのは	-9077
少なかった	-9078
心の底から	-9079
言っておく	-9080
▁カルカラは	-9081
▁ブラックは	-9082
▁父ちゃんは	-9083
うようにして	-9084
られていない	-9085
を続けている	-9086
出されていた	-9087
死に物狂いで	-9088
理解できない	-9089
顔をしている	-9090
じゃないですか	-9091
シグヴァルド様	-9092
されてしまっていた	-9093
大罪都市プラウディア	-9094
▁次	-9095
がっ	-9096
なー	-9097
の光	-9098
めん	-9099
やあ	-9100
を書	-9101
を積	-9102
ガチ	-9103
ハー	-9104
パチ	-9105
出立	-9106
助言	-9107
名簿	-9108
味を	-9109
喉を	-9110
圧迫	-9111
在庫	-9112
多の	-9113
女だ	-9114
安い	-9115
屈辱	-9116
幾人	-9117
所持	-9118
控え	-9119
昇格	-9120
是非	-9121
本人	-9122
杯を	-9123
槍は	-9124
機構	-9125
欲求	-9126
歩み	-9127
淀み	-9128
滅多	-9129
濡れ	-9130
無用	-9131
牙猪	-9132
特性	-9133
狩り	-9134
発売	-9135
真ん	-9136
真核	-9137
着弾	-9138
硬貨	-9139
神聖	-9140
空が	-9141
等の	-9142
結婚	-9143
職業	-9144
脚が	-9145
脳天	-9146
菜園	-9147
表す	-9148
覗く	-9149
請け	-9150
賞賛	-9151
足は	-9152
透明	-9153
道の	-9154
酒に	-9155
金で	-9156
鎧の	-9157
静寂	-9158
頑強	-9159
高級	-9160
▁〈【	-9161
▁はぁ	-9162
▁女性	-9163
▁昨日	-9164
▁黒炎	-9165
えてる	-9166
おうか	-9167
お前ら	-9168
お尻を	-9169
が高い	-9170
この世	-9171
にとど	-9172
のかい	-9173
のかよ	-9174
の方に	-9175
ひしゃ	-9176
ひどい	-9177
もせず	-9178
ケンカ	-9179
ニッコ	-9180
下がり	-9181
仕掛け	-9182
仕組み	-9183
付けば	-9184
冷静な	-9185
口には	-9186
合いが	-9187
唯一の	-9188
問うと	-9189
問題を	-9190
堂々と	-9191
多少は	-9192
奪った	-9193
成った	-9194
戦った	-9195
捨てて	-9196
最強の	-9197
歩みを	-9198
気づき	-9199
滅ぼす	-9200
獣人の	-9201
答えを	-9202
精一杯	-9203
結界に	-9204
自然に	-9205
落ちて	-9206
詳しく	-9207
誰しも	-9208
警部隊	-9209
貴方に	-9210
起こし	-9211
跳ねる	-9212
身体で	-9213
身動き	-9214
邪霊の	-9215
魔法具	-9216
▁それで	-9217
▁一方で	-9218
いいいい	-9219
かされた	-9220
が出来る	-9221
けれども	-9222
されると	-9223
その為に	-9224
に見える	-9225
はいくら	-9226
は彼女の	-9227
ましたか	-9228
わずかな	-9229
を求めて	-9230
を超える	-9231
を迎える	-9232
ギルドが	-9233
ジグには	-9234
ミミココ	-9235
ヨーグは	-9236
噴き出す	-9237
差がある	-9238
懐かしい	-9239
終焉災害	-9240
襲われた	-9241
言っても	-9242
銅の指輪	-9243
▁かくして	-9244
▁アカネは	-9245
かというと	-9246
こともなく	-9247
こんなにも	-9248
との戦いで	-9249
と比べても	-9250
はずがない	-9251
ようのない	-9252
エルシアが	-9253
ドローナは	-9254
声をあげた	-9255
声をあげる	-9256
感じられる	-9257
生きてきた	-9258
申し訳ない	-9259
良いだろう	-9260
覚えがある	-9261
返ってきた	-9262
おかしくない	-9263
したところで	-9264
しないように	-9265
しようとして	-9266
だったらしい	-9267
でもなかった	-9268
というべきか	-9269
グラージャは	-9270
シアーシャと	-9271
ありとあらゆる	-9272
ことはできない	-9273
のかも知れない	-9274
のようなものが	-9275
いじ	-9276
おっ	-9277
おる	-9278
きっ	-9279
ぐっ	-9280
そー	-9281
にこ	-9282
ねて	-9283
ばら	-9284
を打	-9285
ん坊	-9286
パス	-9287
フウ	-9288
ラゲ	-9289
休む	-9290
内側	-9291
前へ	-9292
右腕	-9293
嗅ぎ	-9294
壊れ	-9295
岩石	-9296
平穏	-9297
愛想	-9298
所詮	-9299
捧げ	-9300
教師	-9301
敵が	-9302
木霊	-9303
根拠	-9304
治安	-9305
淫靡	-9306
漂う	-9307
燃や	-9308
爆弾	-9309
甲殻	-9310
疑念	-9311
眼で	-9312
瞳で	-9313
砲撃	-9314
称賛	-9315
笑顔	-9316
素人	-9317
罵倒	-9318
耐久	-9319
航海	-9320
荷台	-9321
菓子	-9322
蕩け	-9323
袈裟	-9324
裏で	-9325
証言	-9326
豊か	-9327
開け	-9328
需要	-9329
食材	-9330
高位	-9331
魔族	-9332
▁ある	-9333
▁ガザ	-9334
が悪く	-9335
さんと	-9336
すらと	-9337
ちゅっ	-9338
ないで	-9339
に従い	-9340
のよう	-9341
の手を	-9342
やがる	-9343
れても	-9344
を踏み	-9345
ニック	-9346
ヒトは	-9347
一人が	-9348
下手に	-9349
両腕を	-9350
今にも	-9351
仰向け	-9352
任せた	-9353
伏せる	-9354
努力を	-9355
口調で	-9356
名前は	-9357
地響き	-9358
堕ちた	-9359
外れた	-9360
対して	-9361
崩れる	-9362
張った	-9363
当てる	-9364
従者の	-9365
心臓が	-9366
悪霊樹	-9367
悲しい	-9368
意外と	-9369
意思を	-9370
様子に	-9371
歪んだ	-9372
注いだ	-9373
物言い	-9374
窓から	-9375
経験が	-9376
者には	-9377
聞かせ	-9378
背筋を	-9379
買った	-9380
足下に	-9381
距離が	-9382
身に着	-9383
輝きを	-9384
▁まずは	-9385
▁決して	-9386
いつでも	-9387
うるせえ	-9388
こと無く	-9389
したって	-9390
してある	-9391
すまない	-9392
するのに	-9393
その場の	-9394
どうこう	-9395
に応じて	-9396
に至った	-9397
もうすぐ	-9398
クレアも	-9399
グローブ	-9400
ッチリと	-9401
ラストは	-9402
ラーウラ	-9403
何も無い	-9404
全くない	-9405
分からん	-9406
命の危機	-9407
大聖教の	-9408
晒される	-9409
柔らかい	-9410
身体強化	-9411
雰囲気を	-9412
▁エシェル	-9413
させられる	-9414
されたのは	-9415
するだろう	-9416
その全てを	-9417
それ自体は	-9418
だったので	-9419
というのだ	-9420
なんてのは	-9421
を開始する	-9422
アイリスを	-9423
マフィアが	-9424
手を伸ばす	-9425
突っ込んだ	-9426
落ち着いて	-9427
!!!!!」	-9428
▁そういって	-9429
そんな彼女の	-9430
でございます	-9431
ものではなく	-9432
ものでは無い	-9433
ベッドの上で	-9434
レイラインの	-9435
▁いつの間にか	-9436
▁それどころか	-9437
いつものように	-9438
ろうとしていた	-9439
込むようにして	-9440
ええええええええ	-9441
エンヴィー騎士団	-9442
**	-9443
jp	-9444
▁”	-9445
▁コ	-9446
▁左	-9447
▁数	-9448
▁朝	-9449
▁横	-9450
くり	-9451
ぐら	-9452
の跡	-9453
ぼう	-9454
めり	-9455
エエ	-9456
ザザ	-9457
ッタ	-9458
ネイ	-9459
乾燥	-9460
争い	-9461
人工	-9462
伴う	-9463
体格	-9464
凌ぐ	-9465
処置	-9466
別れ	-9467
包む	-9468
友達	-9469
場が	-9470
夢中	-9471
尋問	-9472
悩み	-9473
悲し	-9474
愚星	-9475
捕ま	-9476
明け	-9477
棒を	-9478
森人	-9479
正気	-9480
死亡	-9481
残火	-9482
殲滅	-9483
氷の	-9484
汚い	-9485
炸裂	-9486
無礼	-9487
独立	-9488
狼の	-9489
疑う	-9490
痙攣	-9491
神が	-9492
縛り	-9493
膝を	-9494
至近	-9495
袋を	-9496
財産	-9497
跳躍	-9498
輸送	-9499
通す	-9500
降ろ	-9501
▁先程	-9502
▁魔力	-9503
いただ	-9504
お前を	-9505
お茶を	-9506
この時	-9507
しくも	-9508
ずとも	-9509
できて	-9510
と比較	-9511
どもが	-9512
の中は	-9513
の音が	-9514
ダンガ	-9515
ドレス	-9516
ノック	-9517
プラン	-9518
一度も	-9519
並んで	-9520
丸ごと	-9521
亜人が	-9522
全員を	-9523
判断は	-9524
取れた	-9525
口を閉	-9526
可愛い	-9527
右手を	-9528
困難な	-9529
外から	-9530
奴らは	-9531
子供は	-9532
忘れる	-9533
悲惨な	-9534
普人族	-9535
暮らし	-9536
本能が	-9537
殺せる	-9538
汗を拭	-9539
照らす	-9540
片付け	-9541
片手に	-9542
立たず	-9543
笑顔で	-9544
簡単な	-9545
者達も	-9546
自らを	-9547
自身に	-9548
見事な	-9549
覚悟を	-9550
負けた	-9551
起きて	-9552
避けて	-9553
▁こちら	-9554
▁今まで	-9555
▁大罪竜	-9556
▁理由は	-9557
が始まる	-9558
したとき	-9559
してみる	-9560
すぎない	-9561
せていた	-9562
それを見	-9563
なところ	-9564
にかけて	-9565
に視線を	-9566
の方へと	-9567
ましたよ	-9568
まとわり	-9569
をついた	-9570
をウルは	-9571
を狙って	-9572
ゴーファ	-9573
ザインの	-9574
ニコニコ	-9575
ニシンを	-9576
バランス	-9577
何時もの	-9578
僅かでも	-9579
内側から	-9580
利用して	-9581
化け物が	-9582
叶わない	-9583
大丈夫だ	-9584
崩壊した	-9585
必ずしも	-9586
手伝って	-9587
掛かった	-9588
確かめる	-9589
精霊との	-9590
納得した	-9591
言葉には	-9592
追い詰め	-9593
連続して	-9594
邪悪なる	-9595
重なった	-9596
飛び降り	-9597
いつまでも	-9598
いらっしゃ	-9599
から見ても	-9600
その言葉を	-9601
できるだけ	-9602
と思われる	-9603
ような感覚	-9604
らしかった	-9605
シズクへと	-9606
スロウスの	-9607
ピッタリと	-9608
ラース解放	-9609
受け止めた	-9610
声をかけた	-9611
少なからず	-9612
握りしめる	-9613
様子を見て	-9614
死んでいた	-9615
気がつけば	-9616
眺めていた	-9617
続いている	-9618
返ってくる	-9619
響いていた	-9620
...!!」	-9621
そういうこと	-9622
それはそれで	-9623
そんなことは	-9624
のでしょうか	-9625
れないように	-9626
ギークの逸物	-9627
去っていった	-9628
可能性が高い	-9629
時間がかかる	-9630
▁「――――」	-9631
かもわからない	-9632
ことに気がついた	-9633
イスラリアという	-9634
▁う	-9635
▁翌	-9636
いま	-9637
お金	-9638
かみ	-9639
ずり	-9640
の末	-9641
ビビ	-9642
一同	-9643
三十	-9644
不利	-9645
五十	-9646
件で	-9647
全方	-9648
分解	-9649
前は	-9650
前衛	-9651
功績	-9652
勧誘	-9653
厚い	-9654
命じ	-9655
奇襲	-9656
寄越	-9657
尻尾	-9658
山脈	-9659
征服	-9660
心得	-9661
怒る	-9662
成す	-9663
捕縛	-9664
新鮮	-9665
枝を	-9666
権を	-9667
毛が	-9668
汚れ	-9669
涙が	-9670
渡し	-9671
熱は	-9672
物で	-9673
疲弊	-9674
私達	-9675
突貫	-9676
第二	-9677
誰に	-9678
財布	-9679
質の	-9680
返事	-9681
追求	-9682
酒は	-9683
魅力	-9684
いいの	-9685
から発	-9686
が出た	-9687
さんに	-9688
その他	-9689
とある	-9690
に入り	-9691
のにも	-9692
のみだ	-9693
のもと	-9694
の人間	-9695
の先に	-9696
は全て	-9697
ぶった	-9698
へばり	-9699
を与え	-9700
んなら	-9701
アレが	-9702
キスは	-9703
ケラと	-9704
ストレ	-9705
セット	-9706
ソレが	-9707
マシな	-9708
一回り	-9709
人形が	-9710
仮都市	-9711
伝えた	-9712
余計に	-9713
光景が	-9714
内側に	-9715
出せば	-9716
動きの	-9717
匂いを	-9718
同様に	-9719
問わず	-9720
守りを	-9721
察して	-9722
尻尾を	-9723
広げる	-9724
手応え	-9725
振るい	-9726
整えて	-9727
暴れる	-9728
毒爪鳥	-9729
混乱を	-9730
温かい	-9731
皆様の	-9732
砕ける	-9733
考えを	-9734
耳元で	-9735
行こう	-9736
襲った	-9737
触れて	-9738
誰かに	-9739
質問を	-9740
蹴りを	-9741
転がる	-9742
通路を	-9743
遂げた	-9744
鍛冶屋	-9745
階段を	-9746
魔物と	-9747
魔獣と	-9748
▁あまり	-9749
▁彼女を	-9750
あんたの	-9751
くらいで	-9752
その場を	-9753
たくない	-9754
つもりだ	-9755
ていても	-9756
とうとう	-9757
とされる	-9758
との戦闘	-9759
ともあれ	-9760
なにより	-9761
なんても	-9762
にはなる	-9763
の魔術の	-9764
へと続く	-9765
られると	-9766
イサナは	-9767
グレンに	-9768
ズタズタ	-9769
チラリと	-9770
不可視の	-9771
似ていた	-9772
判断した	-9773
取られた	-9774
姿をした	-9775
展開した	-9776
引き続き	-9777
早かった	-9778
最後の一	-9779
柔らかな	-9780
相まって	-9781
相対する	-9782
相応しい	-9783
落ち着け	-9784
近付いて	-9785
逸らした	-9786
限られる	-9787
顔をした	-9788
あっさりと	-9789
かけてきた	-9790
ここまでの	-9791
すればいい	-9792
できている	-9793
と呼ばれた	-9794
なんですか	-9795
に対しては	-9796
に至るまで	-9797
のを感じる	-9798
わかってる	-9799
カタカタと	-9800
ギリギリの	-9801
ケラケラと	-9802
ハルバード	-9803
他ならない	-9804
剣を振るう	-9805
呼びかける	-9806
感じ取った	-9807
理由がある	-9808
確認すると	-9809
竜呑ウーガ	-9810
笑っていた	-9811
話を聞いた	-9812
距離を取る	-9813
面倒くさい	-9814
▁そんな風に	-9815
▁ゆっくりと	-9816
それどころか	-9817
というものだ	-9818
とは思わない	-9819
を見せていた	-9820
グロンゾンが	-9821
冒険者の指輪	-9822
彼女の身体を	-9823
思ったよりも	-9824
眉をひそめる	-9825
▁本来であれば	-9826
ことに気づいた	-9827
ただひたすらに	-9828
にはいられない	-9829
エクスタインの	-9830
ギークの指先が	-9831
ことはしなかった	-9832
カーラーレイ一族	-9833
▁中	-9834
▁店	-9835
いっ	-9836
お客	-9837
かだ	-9838
ぎゃ	-9839
くん	-9840
こも	-9841
しぶ	-9842
たれ	-9843
だれ	-9844
でた	-9845
のた	-9846
わす	-9847
わな	-9848
を破	-9849
ノー	-9850
マト	-9851
マン	-9852
三つ	-9853
不正	-9854
何ら	-9855
修正	-9856
俺を	-9857
再会	-9858
剥ぎ	-9859
吐く	-9860
嗤う	-9861
声と	-9862
変動	-9863
天秤	-9864
子も	-9865
悦び	-9866
想い	-9867
愛し	-9868
才覚	-9869
挑戦	-9870
救出	-9871
昔に	-9872
期の	-9873
本意	-9874
業務	-9875
気だ	-9876
決戦	-9877
法話	-9878
消す	-9879
滅び	-9880
灰炎	-9881
特攻	-9882
獣人	-9883
用心	-9884
異変	-9885
穿孔	-9886
細な	-9887
背丈	-9888
船員	-9889
蠢き	-9890
見回	-9891
視察	-9892
通用	-9893
重力	-9894
髪は	-9895
魂が	-9896
▁部下	-9897
あっけ	-9898
あんっ	-9899
いえる	-9900
いやあ	-9901
お待ち	-9902
しがみ	-9903
といい	-9904
とうに	-9905
に所属	-9906
の依頼	-9907
の前で	-9908
の如く	-9909
はどこ	-9910
もとい	-9911
よいよ	-9912
らなく	-9913
わねえ	-9914
を行い	-9915
んだと	-9916
アタシ	-9917
タラメ	-9918
ルイと	-9919
一定の	-9920
三等級	-9921
下ろし	-9922
二度と	-9923
伏せた	-9924
信じて	-9925
信じる	-9926
傭兵団	-9927
全方位	-9928
同意見	-9929
呆然と	-9930
命を賭	-9931
哀れな	-9932
太もも	-9933
子ども	-9934
小柄な	-9935
少年が	-9936
愛液が	-9937
憤怒の	-9938
成した	-9939
戦いで	-9940
戦える	-9941
技術の	-9942
指先を	-9943
明るい	-9944
映った	-9945
正直に	-9946
歴代の	-9947
活性化	-9948
流した	-9949
渡して	-9950
火炎魔	-9951
無数に	-9952
状況に	-9953
率いる	-9954
目から	-9955
直後に	-9956
瞬時に	-9957
答えに	-9958
荷物を	-9959
視界を	-9960
質問に	-9961
運んで	-9962
過去の	-9963
▁完全に	-9964
▁巨大な	-9965
あなたの	-9966
いたのは	-9967
くはない	-9968
そのうち	-9969
とっても	-9970
どんどん	-9971
はあまり	-9972
は非常に	-9973
やられた	-9974
カララク	-9975
カルター	-9976
デタラメ	-9977
ラクシャ	-9978
ラースを	-9979
ラース領	-9980
不意打ち	-9981
使い魔の	-9982
冒険者達	-9983
双刃剣の	-9984
囁かれた	-9985
声がした	-9986
宣言した	-9987
断言した	-9988
最低限の	-9989
浮かべた	-9990
澄人教の	-9991
物理的な	-9992
特徴的な	-9993
直接的な	-9994
穴が空く	-9995
竜殺しを	-9996
竜竜竜竜	-9997
絶頂する	-9998
近づくと	-9999
速やかに	-10000
遅かった	-10001
限らない	-10002
いくつかの	-10003
していたら	-10004
しておいて	-10005
それくらい	-10006
っていれば	-10007
ではないと	-10008
とはとても	-10009
もしかして	-10010
よりも速く	-10011
を見つめた	-10012
ラビィンは	-10013
レナミリア	-10014
叩きつける	-10015
姿があった	-10016
座っていた	-10017
息を吐いた	-10018
村長婦人が	-10019
気をつけて	-10020
求められる	-10021
紛れもなく	-10022
肩を竦めた	-10023
話を聞いて	-10024
進んでいる	-10025
顔を引きつ	-10026
▁とりあえず	-10027
ってください	-10028
はあまりにも	-10029
シアーシャを	-10030
明らかだった	-10031
▁「――――――	-10032
なのかもしれない	-10033
わなければならない	-10034
―」	-10035
▁冬	-10036
▁夜	-10037
▁我	-10038
ぁッ	-10039
あい	-10040
お礼	-10041
ちく	-10042
なぞ	-10043
ぱち	-10044
よ唄	-10045
を刺	-10046
を着	-10047
んッ	-10048
ウン	-10049
ドロ	-10050
不良	-10051
介入	-10052
件は	-10053
側も	-10054
全力	-10055
刃の	-10056
判別	-10057
勝つ	-10058
原理	-10059
収入	-10060
場は	-10061
売る	-10062
学び	-10063
宗教	-10064
実戦	-10065
小僧	-10066
小型	-10067
尾が	-10068
式の	-10069
懇願	-10070
抗う	-10071
拡大	-10072
放ち	-10073
断末	-10074
最小	-10075
最適	-10076
検討	-10077
概念	-10078
決着	-10079
海を	-10080
混成	-10081
添え	-10082
滑ら	-10083
特異	-10084
狂乱	-10085
王と	-10086
眼鏡	-10087
祭り	-10088
秘所	-10089
肌が	-10090
草を	-10091
虫を	-10092
解体	-10093
解消	-10094
許容	-10095
資産	-10096
逃れ	-10097
配置	-10098
鎧が	-10099
鎮座	-10100
零す	-10101
頼み	-10102
▁武器	-10103
いたら	-10104
ここが	-10105
したの	-10106
しりと	-10107
その姿	-10108
たりと	-10109
とは別	-10110
なんぞ	-10111
ねぇか	-10112
の外に	-10113
ばせる	-10114
を出す	-10115
を失う	-10116
を放置	-10117
クウが	-10118
コッチ	-10119
ショウ	-10120
シーツ	-10121
ネイテ	-10122
ボルト	-10123
一切を	-10124
下げる	-10125
仕事で	-10126
切り札	-10127
動作で	-10128
困難だ	-10129
大麦を	-10130
定めた	-10131
帰った	-10132
引っか	-10133
影から	-10134
後ろで	-10135
応じて	-10136
怒りが	-10137
感じで	-10138
手つき	-10139
手には	-10140
攻撃に	-10141
文句は	-10142
書き換	-10143
様子の	-10144
気付く	-10145
無尽蔵	-10146
理由で	-10147
理解が	-10148
神殿に	-10149
組んだ	-10150
老いた	-10151
聞こえ	-10152
肉体に	-10153
胸当て	-10154
自らが	-10155
見ると	-10156
調べる	-10157
距離で	-10158
転移の	-10159
進めた	-10160
食べた	-10161
食事は	-10162
魔女は	-10163
黒炎に	-10164
▁いつも	-10165
▁たぶん	-10166
▁どちら	-10167
▁初めて	-10168
▁見れば	-10169
▁魔獣の	-10170
あれほど	-10171
あんなに	-10172
いません	-10173
うるさい	-10174
こちらで	-10175
こっちに	-10176
その通り	-10177
たしかに	-10178
たらした	-10179
にはない	-10180
のことを	-10181
の内側に	-10182
はずです	-10183
やっても	-10184
アカネも	-10185
シアンは	-10186
マスター	-10187
一見して	-10188
具体的に	-10189
周囲には	-10190
奪われた	-10191
情けない	-10192
捕らえた	-10193
時間が経	-10194
無くなる	-10195
無ければ	-10196
男だった	-10197
真核魔石	-10198
私たちの	-10199
経験した	-10200
考えない	-10201
話を聞く	-10202
首を振る	-10203
▁ここまで	-10204
▁先ほどの	-10205
があるから	-10206
ことだけは	-10207
こととなる	-10208
さなければ	-10209
そうでない	-10210
そうな顔で	-10211
っちゃった	-10212
つけていた	-10213
である以上	-10214
というより	-10215
なんだよね	-10216
になったら	-10217
のは難しい	-10218
ほうがいい	-10219
ボルドーが	-10220
上げている	-10221
取っていた	-10222
受け取った	-10223
大丈夫です	-10224
構えていた	-10225
此処に居る	-10226
歩いている	-10227
流しながら	-10228
眠っている	-10229
知らないが	-10230
考えながら	-10231
連れてきた	-10232
響き渡った	-10233
飛ばされた	-10234
飲み込んだ	-10235
こともあった	-10236
させていただ	-10237
ざるを得ない	-10238
と言うことだ	-10239
と言うべきか	-10240
になりました	-10241
を受けていた	-10242
を持っていた	-10243
を見ていると	-10244
イスラリアを	-10245
呆れたように	-10246
情け容赦なく	-10247
言葉を続ける	-10248
首をかしげる	-10249
ことは出来なかった	-10250
クナトルレイクの試合	-10251
SS	-10252
uu	-10253
▁ぷ	-10254
▁強	-10255
あて	-10256
きの	-10257
ご飯	-10258
まて	-10259
ゆえ	-10260
を施	-10261
イコ	-10262
タン	-10263
ヌウ	-10264
ンン	-10265
修道	-10266
側が	-10267
双兜	-10268
四肢	-10269
小突	-10270
屋台	-10271
岩蟲	-10272
影を	-10273
急げ	-10274
披露	-10275
携帯	-10276
救世	-10277
木を	-10278
様だ	-10279
権威	-10280
正解	-10281
水着	-10282
求め	-10283
清潔	-10284
渋い	-10285
温存	-10286
滅ぶ	-10287
無力	-10288
熱心	-10289
盾は	-10290
破片	-10291
翻弄	-10292
翼の	-10293
肉襞	-10294
薄っ	-10295
血に	-10296
血肉	-10297
衣装	-10298
越し	-10299
長は	-10300
間も	-10301
防ぎ	-10302
面は	-10303
飾り	-10304
鼓動	-10305
▁何せ	-10306
から出	-10307
ごちゃ	-10308
たちと	-10309
っすよ	-10310
にすら	-10311
には至	-10312
の下に	-10313
も多い	-10314
も良い	-10315
を放り	-10316
を経て	-10317
んだけ	-10318
ダール	-10319
世界で	-10320
予感が	-10321
事態は	-10322
亜人の	-10323
人々の	-10324
人達は	-10325
何人か	-10326
余所に	-10327
依頼主	-10328
倒して	-10329
只人の	-10330
大声で	-10331
太陽が	-10332
始まる	-10333
尽きた	-10334
引き締	-10335
強欲の	-10336
弾ける	-10337
彼等を	-10338
恐怖を	-10339
慣れて	-10340
我が家	-10341
手段を	-10342
揃って	-10343
星天の	-10344
民会の	-10345
気ない	-10346
気配は	-10347
満ちた	-10348
無理に	-10349
片手を	-10350
狙いは	-10351
生活を	-10352
眷族竜	-10353
窮地に	-10354
笑顔を	-10355
粘魔の	-10356
致命傷	-10357
航路図	-10358
蒼双兜	-10359
衝撃波	-10360
裏切り	-10361
認めた	-10362
語った	-10363
逃げて	-10364
逸物の	-10365
雰囲気	-10366
順調に	-10367
▁リーネ	-10368
▁今回の	-10369
▁全ての	-10370
いいから	-10371
えてくる	-10372
この場で	-10373
したから	-10374
しないで	-10375
しに来た	-10376
するほど	-10377
ですけど	-10378
とは比べ	-10379
とは違い	-10380
に加えて	-10381
ひょっと	-10382
もともと	-10383
やむを得	-10384
をついて	-10385
を変える	-10386
を行った	-10387
アオイが	-10388
トールは	-10389
ナイフで	-10390
リスティ	-10391
不死鳥が	-10392
切れない	-10393
叩きのめ	-10394
強制的に	-10395
思い切り	-10396
慣れない	-10397
明らかな	-10398
自警部隊	-10399
顔を出す	-10400
AAAAA	-10401
▁ちなみに	-10402
▁もっとも	-10403
が生まれた	-10404
するほどの	-10405
そうすれば	-10406
ただでさえ	-10407
ちょうだい	-10408
ったような	-10409
と言われた	-10410
どうなるか	-10411
なりません	-10412
ものがある	-10413
らなければ	-10414
を考えれば	-10415
ウルという	-10416
グラドルに	-10417
ハインツが	-10418
使っている	-10419
父ちゃんと	-10420
生きていく	-10421
言葉だった	-10422
込むように	-10423
飲み込んで	-10424
さないように	-10425
世話になった	-10426
目を見開いた	-10427
得体の知れない	-10428
息を吐き出した	-10429
というわけではない	-10430
クレアとアイリスの	-10431
▁大罪都市プラウディア	-10432
?〉	-10433
▁昼	-10434
▁肩	-10435
▁膣	-10436
▁頭	-10437
おけ	-10438
お父	-10439
があ	-10440
じん	-10441
と名	-10442
どー	-10443
に回	-10444
の旅	-10445
を踏	-10446
イレ	-10447
クセ	-10448
セン	-10449
フラ	-10450
一目	-10451
下着	-10452
以来	-10453
借金	-10454
傲慢	-10455
傷跡	-10456
化身	-10457
呼応	-10458
土産	-10459
変更	-10460
寝台	-10461
尊敬	-10462
幽霊	-10463
形は	-10464
後衛	-10465
復讐	-10466
急所	-10467
悪徳	-10468
惜し	-10469
戦術	-10470
探す	-10471
斧を	-10472
断る	-10473
本塔	-10474
様も	-10475
死闘	-10476
泥炭	-10477
洗い	-10478
焦が	-10479
異物	-10480
膨れ	-10481
舌は	-10482
若く	-10483
要望	-10484
誇る	-10485
誰の	-10486
負荷	-10487
近付	-10488
追う	-10489
道中	-10490
選び	-10491
関節	-10492
隙に	-10493
雑な	-10494
類い	-10495
▁どう	-10496
▁一応	-10497
▁竜が	-10498
▁雫は	-10499
あの女	-10500
あの子	-10501
いては	-10502
からに	-10503
が良く	-10504
この辺	-10505
しゃべ	-10506
などで	-10507
に取り	-10508
のぞき	-10509
の大鷲	-10510
の最中	-10511
へと移	-10512
べきだ	-10513
よ唄え	-10514
を交わ	-10515
を抱く	-10516
を楽し	-10517
んだい	-10518
んでる	-10519
ガルド	-10520
フェネ	-10521
マトモ	-10522
不安を	-10523
人間に	-10524
今なお	-10525
刀身を	-10526
判断が	-10527
割れた	-10528
十分だ	-10529
反応が	-10530
口元を	-10531
可能だ	-10532
咆吼が	-10533
問題だ	-10534
地獄の	-10535
場所の	-10536
大変な	-10537
学園の	-10538
定める	-10539
実力は	-10540
実力を	-10541
建造物	-10542
悶える	-10543
我々は	-10544
扱える	-10545
放たれ	-10546
有した	-10547
柔らか	-10548
様子が	-10549
横から	-10550
派手に	-10551
眉間に	-10552
神官達	-10553
空気は	-10554
笑いか	-10555
答えが	-10556
能力が	-10557
能力に	-10558
言うな	-10559
逃がす	-10560
連中に	-10561
部屋で	-10562
間に合	-10563
際には	-10564
預ける	-10565
魔術に	-10566
黒炎が	-10567
いつまで	-10568
これでは	-10569
したもの	-10570
しやすい	-10571
って言う	-10572
っとして	-10573
と違って	-10574
なってる	-10575
のは当然	-10576
まるごと	-10577
わけない	-10578
わないと	-10579
を大きく	-10580
を相手に	-10581
を聞いて	-10582
ミクリナ	-10583
似ている	-10584
使われる	-10585
入らない	-10586
出せない	-10587
動かした	-10588
即答した	-10589
取り巻き	-10590
問題なく	-10591
囚人達の	-10592
抱かれる	-10593
持ってい	-10594
敵対する	-10595
暁の大鷲	-10596
本格的に	-10597
殴られた	-10598
浮かんだ	-10599
生き残る	-10600
致します	-10601
苦笑した	-10602
襲いかか	-10603
賞金首を	-10604
身体を休	-10605
重なって	-10606
▁こちらの	-10607
ありますが	-10608
くれていた	-10609
ここにいる	-10610
ことが多い	-10611
しまっては	-10612
すぐにでも	-10613
することで	-10614
するだけの	-10615
ともなれば	-10616
と思ったら	-10617
なにもかも	-10618
られていく	-10619
んですけど	-10620
ギルドから	-10621
人類生存圏	-10622
形を変える	-10623
感じさせる	-10624
感じられた	-10625
持ってきた	-10626
捨てられた	-10627
死んでいる	-10628
母ちゃんに	-10629
現れたのは	-10630
自分たちは	-10631
話している	-10632
いたしました	-10633
かかっている	-10634
だけではなく	-10635
なんでしょう	-10636
の中でも最も	-10637
ように思える	-10638
られるように	-10639
ギークという	-10640
▁ジースターは	-10641
だからといって	-10642
とはしなかった	-10643
笑みを浮かべて	-10644
!)	-10645
▁ズ	-10646
♥♥	-10647
【【	-10648
】】	-10649
しわ	-10650
すま	-10651
せぬ	-10652
つづ	-10653
とく	-10654
なぎ	-10655
にふ	-10656
に加	-10657
の名	-10658
の女	-10659
らも	-10660
を手	-10661
シロ	-10662
ジト	-10663
スム	-10664
ボウ	-10665
メモ	-10666
ーッ	-10667
下半	-10668
主導	-10669
乗客	-10670
予備	-10671
予期	-10672
事項	-10673
二本	-10674
人々	-10675
人格	-10676
付近	-10677
何と	-10678
作に	-10679
侵略	-10680
共同	-10681
化粧	-10682
単独	-10683
去年	-10684
参考	-10685
収容	-10686
味の	-10687
唐突	-10688
四極	-10689
大型	-10690
実質	-10691
宿屋	-10692
巡る	-10693
床に	-10694
床を	-10695
弱な	-10696
応じ	-10697
態勢	-10698
手も	-10699
数え	-10700
方式	-10701
来訪	-10702
染め	-10703
機螺	-10704
正式	-10705
汚染	-10706
現地	-10707
相克	-10708
眩い	-10709
眺め	-10710
紅の	-10711
継ぐ	-10712
繁殖	-10713
老人	-10714
自動	-10715
血で	-10716
行使	-10717
視野	-10718
試み	-10719
誘う	-10720
貰う	-10721
資金	-10722
退く	-10723
隊が	-10724
食欲	-10725
魚の	-10726
▁何が	-10727
▁地下	-10728
▁実に	-10729
えなく	-10730
ちまう	-10731
ですし	-10732
どこで	-10733
どもの	-10734
なあに	-10735
などが	-10736
にあた	-10737
につく	-10738
の危機	-10739
ままだ	-10740
みせる	-10741
やり方	-10742
よなあ	-10743
らいい	-10744
を切り	-10745
ソファ	-10746
七等級	-10747
互いを	-10748
今でも	-10749
会った	-10750
作業員	-10751
信仰の	-10752
倒せる	-10753
全身に	-10754
前まで	-10755
勝手な	-10756
双方の	-10757
威力は	-10758
張り巡	-10759
強さを	-10760
強引な	-10761
怪鳥の	-10762
意思で	-10763
手を貸	-10764
指摘に	-10765
撫でる	-10766
整える	-10767
昔から	-10768
服を着	-10769
村長が	-10770
染める	-10771
次第に	-10772
正面に	-10773
此処が	-10774
汗をか	-10775
溶けて	-10776
焼かれ	-10777
理解は	-10778
生き延	-10779
神官が	-10780
絶えず	-10781
聞けば	-10782
肉棒を	-10783
自体を	-10784
蜂蜜を	-10785
行動は	-10786
装備は	-10787
誰かの	-10788
諦める	-10789
負けて	-10790
超える	-10791
近付く	-10792
運命を	-10793
銀竜の	-10794
難しく	-10795
露骨に	-10796
頑張る	-10797
頼んだ	-10798
首へと	-10799
高度な	-10800
魔石の	-10801
NNNN	-10802
▁ここに	-10803
▁今度は	-10804
▁初めは	-10805
▁北方の	-10806
❤❤❤」	-10807
えるのは	-10808
がないと	-10809
のままに	-10810
はいはい	-10811
みたいだ	-10812
を作った	-10813
カルメの	-10814
サイズの	-10815
スムーズ	-10816
出来ずに	-10817
力がある	-10818
勝てない	-10819
姿だった	-10820
存在した	-10821
役立たず	-10822
彼女から	-10823
彼方此方	-10824
情報収集	-10825
気をつけ	-10826
物理的に	-10827
男たちが	-10828
社交場の	-10829
禁忌生物	-10830
者たちが	-10831
聞かせる	-10832
警戒する	-10833
雄叫びを	-10834
魔物達は	-10835
▁あまりの	-10836
▁ロックの	-10837
いやらしい	-10838
かと言えば	-10839
この世界に	-10840
されてきた	-10841
すみません	-10842
することに	-10843
することを	-10844
そうですか	-10845
それを見て	-10846
に向かった	-10847
の中にある	-10848
ほとんどが	-10849
ほんの一瞬	-10850
ような真似	-10851
エリン姉が	-10852
ギークから	-10853
ニッコリと	-10854
バランスを	-10855
戦っていた	-10856
握りしめた	-10857
進めていた	-10858
進んでいく	-10859
限度がある	-10860
飲み込まれ	-10861
▁アルノルド	-10862
▁先ほどまで	-10863
しようという	-10864
じゃなかった	-10865
そしてそれを	-10866
なってしまう	-10867
変わっていた	-10868
思えなかった	-10869
そこにはあった	-10870
さなければならない	-10871
......!!!」	-10872
ii	-10873
▁指	-10874
▁胸	-10875
▁遠	-10876
。”	-10877
】〉	-10878
いわ	-10879
こぶ	-10880
さし	-10881
しめ	-10882
ちん	-10883
と化	-10884
よさ	-10885
を結	-10886
セイ	-10887
ハラ	-10888
パイ	-10889
ブラ	-10890
ルダ	-10891
一の	-10892
一刻	-10893
一旦	-10894
上り	-10895
下り	-10896
不敬	-10897
何だ	-10898
剣と	-10899
半年	-10900
命運	-10901
多数	-10902
姿で	-10903
子弟	-10904
実な	-10905
導く	-10906
巫女	-10907
差別	-10908
忌々	-10909
恥じ	-10910
挙動	-10911
捉え	-10912
撃て	-10913
明白	-10914
森林	-10915
極め	-10916
殺気	-10917
温も	-10918
濃く	-10919
熱く	-10920
爪が	-10921
生態	-10922
硬く	-10923
祝福	-10924
系譜	-10925
義理	-10926
習得	-10927
老い	-10928
肉と	-10929
腹の	-10930
葡萄	-10931
虚飾	-10932
行け	-10933
解除	-10934
許す	-10935
詫び	-10936
貯蔵	-10937
足掻	-10938
適当	-10939
部品	-10940
金剛	-10941
闇を	-10942
離す	-10943
青く	-10944
頭で	-10945
飛躍	-10946
魔本	-10947
魔灯	-10948
▁強い	-10949
▁王の	-10950
あそこ	-10951
あの男	-10952
いつか	-10953
が多く	-10954
こりゃ	-10955
しめる	-10956
すっと	-10957
その分	-10958
なども	-10959
なにを	-10960
に入れ	-10961
の状態	-10962
はいる	-10963
ぶつけ	-10964
へと戻	-10965
ものと	-10966
りした	-10967
ります	-10968
を担う	-10969
を殺す	-10970
を発揮	-10971
ウル坊	-10972
カラン	-10973
グチュ	-10974
シンタ	-10975
ジッと	-10976
ミルガ	-10977
一つで	-10978
中庭園	-10979
交易品	-10980
他にも	-10981
何故に	-10982
全体の	-10983
全員に	-10984
冷たく	-10985
刺激臭	-10986
反応に	-10987
唯一神	-10988
奴らが	-10989
宿泊所	-10990
当てて	-10991
怒りの	-10992
怒鳴り	-10993
怪我は	-10994
意味を	-10995
懐かし	-10996
我が物	-10997
折れた	-10998
揺らし	-10999
時から	-11000
書類を	-11001
最前線	-11002
最後は	-11003
正確な	-11004
減った	-11005
焚き火	-11006
無事で	-11007
片手で	-11008
状況だ	-11009
目に見	-11010
知識を	-11011
研ぎ澄	-11012
祈りの	-11013
衝撃に	-11014
説明に	-11015
誰でも	-11016
請け負	-11017
豊富な	-11018
起きる	-11019
迂闊に	-11020
魔物に	-11021
魔術も	-11022
▁ウーガ	-11023
▁パンっ	-11024
▁彼らが	-11025
からなあ	-11026
こちらへ	-11027
しければ	-11028
だけどね	-11029
ときには	-11030
ところの	-11031
とともに	-11032
になれる	-11033
の一部が	-11034
はまるで	-11035
ほど遠い	-11036
やろうか	-11037
わかって	-11038
を作って	-11039
アランが	-11040
アランサ	-11041
アンタは	-11042
ウルから	-11043
ギルドで	-11044
コチラの	-11045
ザインが	-11046
ショウ爺	-11047
シンタニ	-11048
ジーロウ	-11049
ハルズは	-11050
バザルタ	-11051
ポケット	-11052
ロックに	-11053
今までの	-11054
出ている	-11055
取られる	-11056
口にして	-11057
寝ている	-11058
此処まで	-11059
真面目な	-11060
真面目に	-11061
知りたい	-11062
納得する	-11063
表情には	-11064
見えるが	-11065
追いかけ	-11066
邪教徒の	-11067
開かれる	-11068
隙間から	-11069
騎士達が	-11070
騎士達の	-11071
魔術師が	-11072
▁そんな中	-11073
▁ようやく	-11074
▁グレンは	-11075
じっくりと	-11076
するだけで	-11077
そうとして	-11078
それでいて	-11079
ですからね	-11080
という存在	-11081
なるほどな	-11082
ものであり	-11083
ようがない	-11084
らなそうに	-11085
ギルド職員	-11086
シンプルな	-11087
ラクシャナ	-11088
何も言わず	-11089
先ほどから	-11090
意味が無い	-11091
感じるのは	-11092
目を見開く	-11093
落とされる	-11094
詰められた	-11095
▁そう言うと	-11096
しまいそうな	-11097
その場にいる	-11098
できていない	-11099
どうしたって	-11100
わかりました	-11101
を受けている	-11102
ウルの身体を	-11103
ラックバード	-11104
上がっていた	-11105
上がっている	-11106
何をしている	-11107
吐き出される	-11108
気づいていた	-11109
顔を上げると	-11110
にはあまりにも	-11111
ウルとシズクは	-11112
冒険者としての	-11113
▁そう言いながら	-11114
オオオオオオオオ	-11115
AAAAAAAAAAAAA	-11116
▁な	-11117
▁昨	-11118
▁木	-11119
▁近	-11120
●●	-11121
おら	-11122
っぴ	-11123
ふう	-11124
ゆく	-11125
よぎ	-11126
をく	-11127
を任	-11128
クジ	-11129
スケ	-11130
タダ	-11131
ブツ	-11132
ルが	-11133
交流	-11134
今後	-11135
代未	-11136
体で	-11137
体と	-11138
体温	-11139
余所	-11140
偉大	-11141
先ず	-11142
刀身	-11143
問答	-11144
嘆息	-11145
塗れ	-11146
塩を	-11147
外部	-11148
対抗	-11149
悩む	-11150
手際	-11151
探求	-11152
改造	-11153
故の	-11154
早に	-11155
昇級	-11156
服装	-11157
本拠	-11158
様相	-11159
水路	-11160
瀬戸	-11161
無き	-11162
牛の	-11163
独占	-11164
猛攻	-11165
猫は	-11166
盾が	-11167
着地	-11168
秘匿	-11169
等に	-11170
素っ	-11171
繁栄	-11172
胸が	-11173
色は	-11174
苦悩	-11175
英知	-11176
蓄積	-11177
薬は	-11178
裏切	-11179
親父	-11180
譲渡	-11181
路地	-11182
逃走	-11183
配せ	-11184
重傷	-11185
開拓	-11186
間は	-11187
集い	-11188
雇い	-11189
高速	-11190
▁』『	-11191
▁最早	-11192
▁途端	-11193
いいや	-11194
いける	-11195
が更に	-11196
が見つ	-11197
こうも	-11198
さっぱ	-11199
しさが	-11200
するの	-11201
その力	-11202
その日	-11203
その辺	-11204
だと思	-11205
ちゃう	-11206
っての	-11207
とは対	-11208
に打ち	-11209
の瞳が	-11210
の高い	-11211
みせた	-11212
もする	-11213
やかで	-11214
を巻き	-11215
ウチの	-11216
クウの	-11217
パンを	-11218
ラーク	-11219
リーダ	-11220
事態を	-11221
今すぐ	-11222
代未聞	-11223
作れる	-11224
俺達は	-11225
全体に	-11226
力強い	-11227
危険だ	-11228
収まる	-11229
同士が	-11230
周りを	-11231
四つん	-11232
大牙猪	-11233
姿を消	-11234
実力者	-11235
寸前で	-11236
忙しく	-11237
感覚は	-11238
態度は	-11239
我々の	-11240
我らの	-11241
手入れ	-11242
扱いを	-11243
掲げた	-11244
最下層	-11245
最中に	-11246
最小限	-11247
横目で	-11248
機械の	-11249
殺意が	-11250
片っ端	-11251
独り言	-11252
男の子	-11253
目的を	-11254
瞳には	-11255
穴から	-11256
空中で	-11257
細かな	-11258
聞くと	-11259
脅威は	-11260
脅威を	-11261
行動に	-11262
言わず	-11263
記憶に	-11264
足取り	-11265
足止め	-11266
込みを	-11267
辿り着	-11268
迫った	-11269
述べた	-11270
速度が	-11271
邪神の	-11272
間近で	-11273
隙を突	-11274
頑丈な	-11275
顔色は	-11276
食料を	-11277
魔機螺	-11278
魔王が	-11279
▁...	-11280
▁そこは	-11281
▁今日は	-11282
▁問われ	-11283
あれだけ	-11284
かされる	-11285
が大きい	-11286
ことから	-11287
ことない	-11288
ことにも	-11289
この都市	-11290
さすがに	-11291
されては	-11292
じゃのう	-11293
するもの	-11294
そうだし	-11295
そう思い	-11296
そちらに	-11297
そっちの	-11298
その時は	-11299
ってきて	-11300
との戦い	-11301
とは言え	-11302
の一つだ	-11303
ばかりは	-11304
めっちゃ	-11305
もとより	-11306
ものへと	-11307
もらった	-11308
やがって	-11309
を与えて	-11310
を抱えて	-11311
を見せて	-11312
アルゼン	-11313
アンタの	-11314
シアンの	-11315
スーアに	-11316
バルジが	-11317
ベッドで	-11318
ユーリも	-11319
両断した	-11320
以外にも	-11321
使わない	-11322
剥き出し	-11323
完了した	-11324
完成した	-11325
彼女へと	-11326
彼女達の	-11327
意味では	-11328
感謝する	-11329
時だった	-11330
根本的に	-11331
死霊兵の	-11332
苦笑する	-11333
貴族子弟	-11334
近づいた	-11335
▁これまで	-11336
▁そこまで	-11337
▁リーネが	-11338
あっけなく	-11339
かけ離れた	-11340
があるなら	-11341
こうとした	-11342
この場所は	-11343
これだけの	-11344
ごもっとも	-11345
しばらくは	-11346
しようとも	-11347
ところまで	-11348
らせていた	-11349
られてきた	-11350
ウルバスが	-11351
グリードが	-11352
ストリゴの	-11353
ノートンが	-11354
フライタン	-11355
一瞬にして	-11356
他の冒険者	-11357
受けている	-11358
声を掛ける	-11359
始めてから	-11360
必要はない	-11361
振り下ろす	-11362
止めていた	-11363
決めていた	-11364
目の前には	-11365
破壊された	-11366
話ではない	-11367
顔を顰めた	-11368
▁だがそれは	-11369
から放たれた	-11370
が必要だった	-11371
しかしそれは	-11372
っているのだ	-11373
というものが	-11374
と言っていい	-11375
と言っていた	-11376
と言われても	-11377
どうでも良い	-11378
なのだけれど	-11379
もしかしたら	-11380
ろくでもない	-11381
ヘイルダーは	-11382
上手くいった	-11383
吐き出された	-11384
考えられない	-11385
覚えがあった	-11386
言葉を続けた	-11387
距離を詰める	-11388
間に合わない	-11389
?......	-11390
込められていた	-11391
......!!	-11392
?)	-11393
ee	-11394
▁地	-11395
きは	-11396
げぇ	-11397
しは	-11398
だめ	-11399
とび	-11400
に足	-11401
の日	-11402
の端	-11403
まつ	-11404
わあ	-11405
を強	-11406
んぞ	-11407
ウィ	-11408
サポ	-11409
チリ	-11410
ビリ	-11411
モン	-11412
三日	-11413
上を	-11414
上位	-11415
不穏	-11416
両手	-11417
串刺	-11418
乗馬	-11419
二階	-11420
以下	-11421
修行	-11422
健在	-11423
優位	-11424
兄弟	-11425
分離	-11426
刈り	-11427
制約	-11428
勇敢	-11429
単語	-11430
名も	-11431
命は	-11432
嘘偽	-11433
天空	-11434
好み	-11435
威嚇	-11436
寵愛	-11437
対面	-11438
山戯	-11439
希少	-11440
店で	-11441
度で	-11442
急激	-11443
懐に	-11444
我に	-11445
指す	-11446
挟み	-11447
星の	-11448
暴食	-11449
歳の	-11450
残す	-11451
毒を	-11452
法を	-11453
温い	-11454
滅亡	-11455
炎に	-11456
猶予	-11457
生成	-11458
産み	-11459
申請	-11460
痺れ	-11461
発情	-11462
破邪	-11463
終了	-11464
統治	-11465
罪を	-11466
街で	-11467
要因	-11468
解説	-11469
試行	-11470
謁見	-11471
返済	-11472
過言	-11473
隻の	-11474
頭蓋	-11475
類の	-11476
飛行	-11477
!」」	-11478
▁やや	-11479
▁冬の	-11480
あげて	-11481
お前等	-11482
かずに	-11483
かわい	-11484
がって	-11485
が終わ	-11486
くせに	-11487
この先	-11488
っぽく	-11489
とはな	-11490
なりに	-11491
につき	-11492
になら	-11493
ねえな	-11494
の影響	-11495
の感触	-11496
の技術	-11497
の様な	-11498
の男が	-11499
は同じ	-11500
ほっと	-11501
もどき	-11502
わかん	-11503
んだぜ	-11504
ジョン	-11505
パンツ	-11506
ライト	-11507
ルイを	-11508
ンタレ	-11509
一つは	-11510
一人に	-11511
不明だ	-11512
乗って	-11513
仮にも	-11514
先には	-11515
先端を	-11516
回復術	-11517
垂れる	-11518
埋める	-11519
変化は	-11520
大麦の	-11521
家から	-11522
巫山戯	-11523
待たせ	-11524
従者達	-11525
心地の	-11526
必要と	-11527
怒りは	-11528
思いを	-11529
怪我を	-11530
態度に	-11531
所為で	-11532
掛かり	-11533
方舟を	-11534
村には	-11535
権能を	-11536
正体を	-11537
殺され	-11538
気まず	-11539
沈黙し	-11540
燃えさ	-11541
生えた	-11542
目を瞑	-11543
直前に	-11544
真っ当	-11545
砕いて	-11546
端的に	-11547
笑うと	-11548
絡まり	-11549
蕩けた	-11550
行ける	-11551
計画を	-11552
貴方を	-11553
軌道を	-11554
重ねて	-11555
隠れる	-11556
高位の	-11557
魔具の	-11558
▁なので	-11559
▁もっと	-11560
▁ルイの	-11561
▁咄嗟に	-11562
▁女性は	-11563
あなたは	-11564
おきたい	-11565
が一斉に	-11566
きっかけ	-11567
ことだが	-11568
しつつも	-11569
しようか	-11570
ずいぶん	-11571
その声に	-11572
その声は	-11573
その身に	-11574
ちまった	-11575
のかしら	-11576
のである	-11577
の魔術で	-11578
の魔術は	-11579
は一気に	-11580
もあって	-11581
ものです	-11582
を与えた	-11583
を眺める	-11584
んでしょ	-11585
ウル達も	-11586
カルメが	-11587
ギークも	-11588
ニヤリと	-11589
ノートン	-11590
ベッドの	-11591
メダルの	-11592
出すのは	-11593
反応する	-11594
外に出る	-11595
姿を現す	-11596
授かった	-11597
更にその	-11598
激しさを	-11599
白王陣を	-11600
筈なのに	-11601
者たちは	-11602
自分には	-11603
覆い尽く	-11604
見てきた	-11605
身体には	-11606
▁ジャイン	-11607
かと思えば	-11608
こんなこと	-11609
していても	-11610
していれば	-11611
すら感じる	-11612
そうなれば	-11613
ついてくる	-11614
ともいえる	-11615
どれだけの	-11616
なんてない	-11617
ぼんやりと	-11618
れていない	-11619
を思わせる	-11620
カティアが	-11621
クロコスが	-11622
グラドルは	-11623
付けられる	-11624
受け止めて	-11625
吐き出した	-11626
強くなった	-11627
必要になる	-11628
思いついた	-11629
振るわれる	-11630
掛けられた	-11631
楽しかった	-11632
止められた	-11633
正しかった	-11634
父ちゃんも	-11635
目を細めた	-11636
視線を向け	-11637
進んでいた	-11638
邪魔をする	-11639
魔術の詠唱	-11640
このままでは	-11641
つもりは無い	-11642
できるだろう	-11643
ところだった	-11644
にもならない	-11645
ものであった	-11646
わかりやすい	-11647
を思い出して	-11648
シズルナリカ	-11649
叩き込まれた	-11650
気に入らない	-11651
相手ではない	-11652
肩をすくめた	-11653
見覚えのある	-11654
顔をしていた	-11655
かも分からない	-11656
ことができない	-11657
つもりだったが	-11658
叩きつけられた	-11659
しないといけない	-11660
▁『............	-11661
ta	-11662
▁こ	-11663
▁ス	-11664
▁ハ	-11665
▁心	-11666
かで	-11667
じい	-11668
そば	-11669
にい	-11670
もや	-11671
キョ	-11672
クと	-11673
クッ	-11674
ケチ	-11675
ニタ	-11676
ハイ	-11677
ホー	-11678
ボス	-11679
ポン	-11680
ーと	-11681
ーに	-11682
一蹴	-11683
中は	-11684
保つ	-11685
信奉	-11686
僕を	-11687
儲け	-11688
内臓	-11689
出発	-11690
右手	-11691
呆然	-11692
咥え	-11693
品だ	-11694
回の	-11695
固く	-11696
土を	-11697
堅い	-11698
夕食	-11699
外周	-11700
奥に	-11701
嫌う	-11702
寒い	-11703
巻く	-11704
底に	-11705
従う	-11706
恨み	-11707
悩ま	-11708
意地	-11709
感で	-11710
斬る	-11711
方へ	-11712
時々	-11713
暮ら	-11714
曲刀	-11715
書籍	-11716
果実	-11717
楽観	-11718
歯が	-11719
殺戮	-11720
海岸	-11721
淫乱	-11722
火花	-11723
熱と	-11724
物騒	-11725
石が	-11726
研鑽	-11727
粉を	-11728
紋章	-11729
結集	-11730
編み	-11731
聞け	-11732
肉は	-11733
腰は	-11734
課題	-11735
負の	-11736
足に	-11737
軋む	-11738
近寄	-11739
遣い	-11740
隊を	-11741
黙る	-11742
!!?	-11743
▁一歩	-11744
▁戦闘	-11745
▁直接	-11746
うなず	-11747
が全く	-11748
けどな	-11749
この国	-11750
ったい	-11751
どこぞ	-11752
に立ち	-11753
のみで	-11754
の一端	-11755
の大陸	-11756
の手伝	-11757
の昔に	-11758
の連中	-11759
めたい	-11760
も早く	-11761
よほど	-11762
をかけ	-11763
を読み	-11764
イント	-11765
サーガ	-11766
リザが	-11767
一つだ	-11768
一言で	-11769
下げて	-11770
不用意	-11771
不細工	-11772
体から	-11773
体力の	-11774
作戦は	-11775
傷一つ	-11776
判断を	-11777
力を籠	-11778
効果は	-11779
単身で	-11780
反対の	-11781
喉から	-11782
器用に	-11783
増して	-11784
大地を	-11785
失われ	-11786
女性に	-11787
対策を	-11788
尻目に	-11789
帯びた	-11790
幾らか	-11791
役割は	-11792
戦車の	-11793
方向に	-11794
死体は	-11795
残した	-11796
滅んだ	-11797
灼熱の	-11798
片方の	-11799
犯罪者	-11800
異様に	-11801
目にも	-11802
目配せ	-11803
立ち塞	-11804
精霊が	-11805
組織の	-11806
絶え間	-11807
色に染	-11808
触腕を	-11809
調子を	-11810
貰った	-11811
造りの	-11812
選んで	-11813
銀級の	-11814
長くは	-11815
頭部に	-11816
食事に	-11817
魔具を	-11818
▁うーん	-11819
▁とても	-11820
▁クチュ	-11821
あがった	-11822
いのです	-11823
からさま	-11824
けてくる	-11825
さぬまま	-11826
する事は	-11827
そっちは	-11828
その間に	-11829
できずに	-11830
でも無く	-11831
で出来た	-11832
という点	-11833
といえど	-11834
と言わん	-11835
なりたい	-11836
のを感じ	-11837
もないが	-11838
ものかと	-11839
やがった	-11840
わけだが	-11841
を続けた	-11842
グルグル	-11843
ゾクゾク	-11844
トーマス	-11845
フォルス	-11846
ンタレラ	-11847
一直線に	-11848
付き合う	-11849
再生する	-11850
凄まじく	-11851
創り出す	-11852
及ばない	-11853
可能性を	-11854
向こうは	-11855
呪われた	-11856
回避した	-11857
声をかけ	-11858
大規模な	-11859
天賢王は	-11860
奈落へと	-11861
引きちぎ	-11862
怪しげな	-11863
捕まった	-11864
方だった	-11865
気がして	-11866
気のせい	-11867
突き出す	-11868
精霊の力	-11869
終わりだ	-11870
覆われた	-11871
見つめる	-11872
言うべき	-11873
言う通り	-11874
限られた	-11875
飛び交う	-11876
魔術を使	-11877
いいだろう	-11878
かどうかは	-11879
が見えない	-11880
くださいね	-11881
ことが出来	-11882
したかった	-11883
そのものだ	-11884
それほどの	-11885
だがそれは	-11886
だと思った	-11887
であるなら	-11888
というわけ	-11889
のであろう	-11890
はどうする	-11891
ほんの少し	-11892
を起こした	-11893
ニコニコと	-11894
ファイブは	-11895
入れている	-11896
向き直った	-11897
声が響いた	-11898
天陽騎士団	-11899
嬉しかった	-11900
彼にとって	-11901
息をついた	-11902
感があった	-11903
掛けてきた	-11904
気分だった	-11905
片っ端から	-11906
目を細める	-11907
真っ二つに	-11908
砕け散った	-11909
祈りを捧げ	-11910
続けられる	-11911
美しかった	-11912
言うように	-11913
起きている	-11914
起こらない	-11915
足を止める	-11916
ございました	-11917
されるように	-11918
していたのは	-11919
そしてそれは	-11920
ということを	-11921
と言っている	-11922
なんてものは	-11923
ぶつかり合う	-11924
よりもずっと	-11925
グルフィンの	-11926
入り交じった	-11927
出そうとした	-11928
分かりやすい	-11929
去って行った	-11930
興味深そうに	-11931
転がっていた	-11932
転がっている	-11933
▁シグヴァルド	-11934
、......	-11935
かのようだった	-11936
しているらしい	-11937
それほどまでに	-11938
エクスタインが	-11939
......♥」	-11940
クナトルレイクで	-11941
▁『――――――――	-11942
▁ッ	-11943
▁フ	-11944
▁元	-11945
▁月	-11946
▁耳	-11947
』』	-11948
おき	-11949
がと	-11950
が効	-11951
すこ	-11952
そそ	-11953
ちは	-11954
とス	-11955
の剣	-11956
の根	-11957
やっ	-11958
ら辺	-11959
んじ	-11960
イベ	-11961
ゴリ	-11962
ハメ	-11963
ヤの	-11964
ーを	-11965
ーキ	-11966
一生	-11967
乗せ	-11968
今や	-11969
出世	-11970
分配	-11971
剣呑	-11972
及ぶ	-11973
合理	-11974
吊る	-11975
嘘を	-11976
器を	-11977
塞ぐ	-11978
壁の	-11979
売買	-11980
如き	-11981
妹を	-11982
嬌声	-11983
室に	-11984
小娘	-11985
律儀	-11986
性も	-11987
悪寒	-11988
手順	-11989
技量	-11990
抉り	-11991
招き	-11992
拾い	-11993
捻り	-11994
搾り	-11995
教授	-11996
旦那	-11997
有能	-11998
来い	-11999
案件	-12000
業自	-12001
正体	-12002
正規	-12003
没収	-12004
法に	-12005
注視	-12006
洗練	-12007
熱で	-12008
状に	-12009
狩る	-12010
獲物	-12011
瓶を	-12012
畏れ	-12013
疑い	-12014
盾に	-12015
私と	-12016
空は	-12017
穿つ	-12018
絶叫	-12019
絶好	-12020
縋り	-12021
習慣	-12022
色を	-12023
角を	-12024
赤鬼	-12025
躱す	-12026
酔っ	-12027
野営	-12028
鏡に	-12029
隊は	-12030
集会	-12031
露わ	-12032
頂点	-12033
顔も	-12034
首の	-12035
香り	-12036
高さ	-12037
▁一方	-12038
▁身を	-12039
あとで	-12040
あれど	-12041
うんざ	-12042
が再び	-12043
が経過	-12044
と大差	-12045
なれる	-12046
な真似	-12047
にもよ	-12048
のただ	-12049
の変化	-12050
ぶつか	-12051
ものも	-12052
をもた	-12053
を向く	-12054
を探す	-12055
アップ	-12056
ゲット	-12057
プレゼ	-12058
メニュ	-12059
二本の	-12060
作業は	-12061
加える	-12062
原因は	-12063
呼んだ	-12064
喧しい	-12065
固める	-12066
大乱立	-12067
存分に	-12068
安全に	-12069
完璧な	-12070
完璧に	-12071
対象を	-12072
少女に	-12073
崩した	-12074
崩れて	-12075
彼との	-12076
思わぬ	-12077
急速に	-12078
意外な	-12079
戦場に	-12080
指先に	-12081
散らば	-12082
敬意を	-12083
数える	-12084
敵意を	-12085
料理が	-12086
新人の	-12087
新鮮な	-12088
晒した	-12089
普段と	-12090
暴力を	-12091
業自得	-12092
機嫌を	-12093
此処を	-12094
残らず	-12095
無事に	-12096
燃える	-12097
異形の	-12098
相手も	-12099
管理者	-12100
精霊と	-12101
結果に	-12102
者から	-12103
者など	-12104
苦しみ	-12105
衝撃は	-12106
観客席	-12107
触腕が	-12108
認めて	-12109
護衛の	-12110
赤ん坊	-12111
走って	-12112
躊躇い	-12113
輝きは	-12114
通じる	-12115
逸物に	-12116
達した	-12117
零れた	-12118
零れる	-12119
魔力に	-12120
!!?』	-12121
rrrr	-12122
▁なのに	-12123
▁最初は	-12124
あなたが	-12125
あるまい	-12126
うっかり	-12127
から少し	-12128
が終わり	-12129
ぐらりと	-12130
こいつは	-12131
こちらは	-12132
せずとも	-12133
そうとも	-12134
ったのか	-12135
っちゅう	-12136
ですので	-12137
といえる	-12138
と言いた	-12139
に向けて	-12140
の中心で	-12141
の準備を	-12142
は少ない	-12143
ひび割れ	-12144
よくある	-12145
れば良い	-12146
を中心に	-12147
を確認し	-12148
を覚える	-12149
を迎えた	-12150
イベント	-12151
ガントは	-12152
ゲイラー	-12153
ショック	-12154
リーネと	-12155
ロックも	-12156
上がって	-12157
事だろう	-12158
人がいる	-12159
何の意味	-12160
先程まで	-12161
利用した	-12162
双刃剣が	-12163
収まった	-12164
口を挟む	-12165
吐き出す	-12166
向き直る	-12167
周囲から	-12168
地下牢で	-12169
地下空間	-12170
大きさを	-12171
尚のこと	-12172
得られた	-12173
息を吐く	-12174
意外にも	-12175
手にした	-12176
様子を見	-12177
気にした	-12178
混乱した	-12179
異常事態	-12180
相手には	-12181
穿孔王国	-12182
聞かない	-12183
見た目の	-12184
見た目は	-12185
訓練所の	-12186
飲み込み	-12187
!!!?」	-12188
▁なんとか	-12189
これほどの	-12190
これ以上の	-12191
そのたびに	-12192
そんな彼の	-12193
だったから	-12194
であるのは	-12195
をしながら	-12196
を取り戻す	-12197
んだろうか	-12198
アドバイス	-12199
グリードを	-12200
両断された	-12201
付いていた	-12202
入っている	-12203
出なかった	-12204
吹っ飛んだ	-12205
大罪迷宮の	-12206
押し寄せて	-12207
様子もなく	-12208
決まってる	-12209
無事だった	-12210
盗賊たちの	-12211
睨みつける	-12212
睨んでいた	-12213
言われても	-12214
飲み干した	-12215
首を振った	-12216
黄金不死鳥	-12217
▁グレーレは	-12218
しているので	-12219
してもらえる	-12220
それに対して	-12221
できるような	-12222
なんとしても	-12223
られるような	-12224
わからないが	-12225
を守るために	-12226
クラウランは	-12227
信じられない	-12228
冒険者たちは	-12229
大丈夫なのか	-12230
教えてくれた	-12231
村長の長屋敷	-12232
言っておくが	-12233
違いなかった	-12234
▁そんな彼女の	-12235
いていなかった	-12236
のようになった	-12237
よく分からない	-12238
アナスタシアが	-12239
フォルスティア	-12240
ラクレツィアは	-12241
声をかけてきた	-12242
KAKAKAKA	-12243
▁そしてそのまま	-12244
ことしかできない	-12245
はははははははは	-12246
声が聞こえてきた	-12247
ずにはいられなかった	-12248
トールステイン大王の	-12249
cm	-12250
▁[	-12251
▁否	-12252
▁昔	-12253
▁片	-12254
、『	-12255
々も	-12256
おも	-12257
が行	-12258
こみ	-12259
ぞろ	-12260
てば	-12261
でえ	-12262
どく	-12263
に至	-12264
へぇ	-12265
ぼろ	-12266
やば	-12267
れぬ	-12268
わき	-12269
を食	-12270
んー	-12271
ギョ	-12272
ジン	-12273
ツキ	-12274
一月	-12275
上る	-12276
世に	-12277
予算	-12278
人気	-12279
光と	-12280
光る	-12281
前進	-12282
副頭	-12283
北の	-12284
区別	-12285
原始	-12286
喪失	-12287
囁き	-12288
埋も	-12289
変異	-12290
大げ	-12291
太刀	-12292
失い	-12293
安寧	-12294
巨人	-12295
常時	-12296
平伏	-12297
平原	-12298
幹部	-12299
御免	-12300
悠長	-12301
戦で	-12302
拳は	-12303
拷問	-12304
提示	-12305
攻防	-12306
明か	-12307
有用	-12308
本棚	-12309
棒で	-12310
樽に	-12311
殺せ	-12312
母の	-12313
民族	-12314
火傷	-12315
物も	-12316
狼狽	-12317
猫の	-12318
王様	-12319
男女	-12320
皆の	-12321
矢先	-12322
練り	-12323
繰蟲	-12324
肉塊	-12325
育成	-12326
艶め	-12327
苛烈	-12328
荒く	-12329
血は	-12330
血管	-12331
補強	-12332
視覚	-12333
親戚	-12334
覿面	-12335
訪問	-12336
護り	-12337
部位	-12338
酒で	-12339
醜い	-12340
量も	-12341
集う	-12342
頻繁	-12343
騒ぐ	-12344
鳴く	-12345
OOO	-12346
aaa	-12347
▁仲間	-12348
▁先に	-12349
▁北方	-12350
▁要は	-12351
▁途中	-12352
❤❤』	-12353
いいが	-12354
えても	-12355
お陰で	-12356
か何か	-12357
この男	-12358
しての	-12359
しねえ	-12360
しゃが	-12361
だねえ	-12362
だらし	-12363
っすか	-12364
でしか	-12365
とは裏	-12366
なのよ	-12367
に出る	-12368
に対抗	-12369
の内に	-12370
の内側	-12371
の流れ	-12372
の魔眼	-12373
はする	-12374
はっは	-12375
ぶりの	-12376
ぼしき	-12377
わずか	-12378
を始め	-12379
を護る	-12380
イコフ	-12381
コップ	-12382
ゴール	-12383
シャツ	-12384
セツが	-12385
ナンの	-12386
ポーチ	-12387
下げた	-12388
事前の	-12389
交わる	-12390
人から	-12391
今なら	-12392
他人に	-12393
何事も	-12394
内容は	-12395
別れた	-12396
副頭取	-12397
助かり	-12398
勝利を	-12399
協力を	-12400
収める	-12401
右腕を	-12402
合図を	-12403
咆吼を	-12404
唾液を	-12405
好んで	-12406
尋ねて	-12407
廃棄孔	-12408
思いで	-12409
怪鳥は	-12410
揺らぐ	-12411
揺れた	-12412
日から	-12413
星剣を	-12414
曲がり	-12415
楽しく	-12416
武器が	-12417
汚れを	-12418
沢山の	-12419
潰した	-12420
無茶な	-12421
状態だ	-12422
理想郷	-12423
発した	-12424
白樺の	-12425
瞬間に	-12426
神殿が	-12427
空けて	-12428
笑いを	-12429
笑みに	-12430
範囲で	-12431
精霊は	-12432
結果を	-12433
結界は	-12434
者達に	-12435
腹立た	-12436
色んな	-12437
蒼金剛	-12438
被害は	-12439
覆い被	-12440
見せて	-12441
話して	-12442
調べて	-12443
豊かな	-12444
載せて	-12445
輝ける	-12446
込めば	-12447
逃げろ	-12448
連絡が	-12449
過程で	-12450
部分に	-12451
重ねる	-12452
錫杖を	-12453
長船が	-12454
防御術	-12455
頭を悩	-12456
頼りに	-12457
馬に乗	-12458
高価な	-12459
黒炎を	-12460
???」	-12461
▁もしも	-12462
▁ウルも	-12463
▁ベイツ	-12464
▁例えば	-12465
▁最後に	-12466
▁魔王は	-12467
あいつら	-12468
いくらか	-12469
いただけ	-12470
いていて	-12471
いろんな	-12472
おじさん	-12473
から降り	-12474
だけです	-12475
っこりと	-12476
つもりで	-12477
と思うが	-12478
と考える	-12479
なかろう	-12480
なるべく	-12481
になるか	-12482
になるが	-12483
にはもう	-12484
へと向か	-12485
もせずに	-12486
られては	-12487
を向いた	-12488
を見下ろ	-12489
イサナの	-12490
ギュッと	-12491
ゴロツキ	-12492
サポート	-12493
ジェナは	-12494
ッとした	-12495
リスクは	-12496
一つだけ	-12497
事がある	-12498
何もない	-12499
冷や汗を	-12500
前に出た	-12501
前代未聞	-12502
剣を振る	-12503
同意する	-12504
向き合う	-12505
声を張り	-12506
大罪の竜	-12507
安全領域	-12508
安心して	-12509
強かった	-12510
恐る恐る	-12511
抵抗する	-12512
押し当て	-12513
木霊する	-12514
未来視の	-12515
殺し合い	-12516
決まって	-12517
焼き払い	-12518
疲れ果て	-12519
直撃する	-12520
知る者は	-12521
神官達は	-12522
空中庭園	-12523
精霊達の	-12524
繋がった	-12525
誰しもが	-12526
都市建設	-12527
頭の中で	-12528
黒炎蜥蜴	-12529
▁◇◇◇◇	-12530
▁おまけに	-12531
▁ところが	-12532
▁アカネの	-12533
▁ヴァンノ	-12534
いていった	-12535
くだらない	-12536
この上なく	-12537
これからの	-12538
しておいた	-12539
すれば良い	-12540
その事実を	-12541
だったんだ	-12542
であるから	-12543
に包まれた	-12544
のは初めて	-12545
らしながら	-12546
を見つけて	-12547
ジャイコフ	-12548
セックスに	-12549
ミリーナが	-12550
ラビィンが	-12551
付いている	-12552
具体的には	-12553
出してくる	-12554
出来ている	-12555
少女だった	-12556
彼女たちの	-12557
彼女の姿は	-12558
持ち込んだ	-12559
村長婦人は	-12560
様子だった	-12561
様子もない	-12562
欲しかった	-12563
止められる	-12564
母ちゃんの	-12565
消え去った	-12566
用意された	-12567
聞きながら	-12568
難しかった	-12569
頭を下げて	-12570
◇◇◇◇◇◇	-12571
こともあって	-12572
し続けていた	-12573
ということで	-12574
はないだろう	-12575
もしていない	-12576
ギルドからの	-12577
ジースターの	-12578
分かりました	-12579
動きを止める	-12580
彼女の身体は	-12581
把握している	-12582
気にならない	-12583
する必要がある	-12584
そうとしていた	-12585
大罪都市ラスト	-12586
聞き覚えのある	-12587
......!?	-12588
......❤)	-12589
してしまっている	-12590
申し訳なさそうに	-12591
おはようございます	-12592
かなければならない	-12593
太陽神ゼウラディア	-12594
▁◇◇◇◇◇◇◇◇◇◇	-12595
KY	-12596
▁の	-12597
▁奥	-12598
▁実	-12599
▁死	-12600
▁水	-12601
▁船	-12602
▁街	-12603
かわ	-12604
さぞ	-12605
ぜん	-12606
たが	-12607
たわ	-12608
だぁ	-12609
だの	-12610
なす	-12611
に分	-12612
に潜	-12613
に難	-12614
の元	-12615
の水	-12616
の顔	-12617
ほれ	-12618
まき	-12619
むろ	-12620
ゥゥ	-12621
コネ	-12622
サの	-12623
スマ	-12624
ノコ	-12625
ハウ	-12626
ヘタ	-12627
一段	-12628
侮蔑	-12629
保険	-12630
傍に	-12631
利き	-12632
匹の	-12633
十字	-12634
収ま	-12635
囲む	-12636
地形	-12637
堕と	-12638
塩が	-12639
外見	-12640
夜に	-12641
大量	-12642
定規	-12643
室で	-12644
家臣	-12645
容疑	-12646
形成	-12647
復帰	-12648
応対	-12649
捜索	-12650
揶揄	-12651
敬意	-12652
有無	-12653
本物	-12654
枯れ	-12655
楽園	-12656
殴る	-12657
気と	-12658
流行	-12659
液を	-12660
済ま	-12661
濃密	-12662
球体	-12663
痛な	-12664
皆で	-12665
盾で	-12666
真摯	-12667
破裂	-12668
竜化	-12669
臆病	-12670
観光	-12671
豪快	-12672
豪華	-12673
貪欲	-12674
躱し	-12675
連係	-12676
遠ざ	-12677
遠心	-12678
酔い	-12679
陣を	-12680
雑魚	-12681
雷が	-12682
雷の	-12683
頭痛	-12684
額の	-12685
骨芯	-12686
com	-12687
▁先の	-12688
▁先日	-12689
▁最初	-12690
▁絶頂	-12691
▁逃げ	-12692
▁通信	-12693
▁魔獣	-12694
が全て	-12695
が少し	-12696
こった	-12697
そうよ	-12698
っから	-12699
ついに	-12700
ないか	-12701
ないよ	-12702
にせよ	-12703
に乗り	-12704
のを見	-12705
の力が	-12706
の果て	-12707
の様に	-12708
の群れ	-12709
ふっと	-12710
を突破	-12711
を追い	-12712
を通り	-12713
ゲラゲ	-12714
ゴメン	-12715
不本意	-12716
事実が	-12717
事実は	-12718
人生を	-12719
人類は	-12720
会話が	-12721
伸ばし	-12722
作戦を	-12723
個人の	-12724
僕達の	-12725
出さず	-12726
切れて	-12727
勇者が	-12728
勢いの	-12729
口出し	-12730
嘲笑う	-12731
塩漬け	-12732
壊した	-12733
多数の	-12734
嬌声を	-12735
存在に	-12736
宝石獣	-12737
専用の	-12738
展開し	-12739
年前の	-12740
幽霊鮫	-12741
広げた	-12742
広げて	-12743
強さに	-12744
彼から	-12745
後ろの	-12746
快感が	-12747
悔しい	-12748
成果を	-12749
戻した	-12750
手足を	-12751
押し返	-12752
持ちで	-12753
揺らい	-12754
撫でた	-12755
撫でて	-12756
教えを	-12757
料理の	-12758
普通は	-12759
本人が	-12760
横へと	-12761
歪める	-12762
液体が	-12763
混じる	-12764
濃厚な	-12765
無意味	-12766
無限に	-12767
特性を	-12768
独特の	-12769
相当に	-12770
知れぬ	-12771
確信が	-12772
私には	-12773
継いだ	-12774
考えが	-12775
背中が	-12776
蜂蜜の	-12777
試しに	-12778
誓った	-12779
説明が	-12780
貴族の	-12781
逸物は	-12782
過去に	-12783
遠見の	-12784
邪魔を	-12785
願いは	-12786
黒炎払	-12787
▁いずれ	-12788
▁元より	-12789
▁周囲の	-12790
▁徐々に	-12791
▁改めて	-12792
▁魔力を	-12793
いくつも	-12794
いやいや	-12795
おっしゃ	-12796
こうした	-12797
この場の	-12798
この男は	-12799
こぼした	-12800
されるが	-12801
しかしま	-12802
しすぎる	-12803
すぎると	-12804
せている	-12805
そりゃあ	-12806
そんなの	-12807
できたら	-12808
とは思い	-12809
と言えた	-12810
どこにも	-12811
どの程度	-12812
ならざる	-12813
のを見て	-12814
の一部を	-12815
の方から	-12816
までの間	-12817
めてきた	-12818
ものなあ	-12819
も少ない	-12820
らされた	-12821
られてる	-12822
れていく	-12823
を目指す	-12824
んですが	-12825
んですね	-12826
ギルドは	-12827
ギルドを	-12828
ジョンは	-12829
ニヤニヤ	-12830
バルジの	-12831
ファリー	-12832
ロックと	-12833
一時的に	-12834
串刺しに	-12835
俺たちが	-12836
刺さった	-12837
叩き込む	-12838
大きさの	-12839
大丈夫か	-12840
姿を見て	-12841
子供達を	-12842
形を変え	-12843
忘れない	-12844
想像した	-12845
抜かれた	-12846
揺らして	-12847
散らした	-12848
武器防具	-12849
気を取り	-12850
消費する	-12851
眷属竜は	-12852
砕け散る	-12853
確認して	-12854
突き入れ	-12855
繋がりを	-12856
羨ましい	-12857
自業自得	-12858
転移石板	-12859
違和感を	-12860
飛翔する	-12861
飲み干す	-12862
ある程度の	-12863
いくつもの	-12864
かと思った	-12865
があるのは	-12866
そうだなあ	-12867
そこまでの	-12868
っておいて	-12869
でもないが	-12870
とは裏腹に	-12871
においても	-12872
にしていた	-12873
にはいない	-12874
までもなく	-12875
ものだろう	-12876
られながら	-12877
ウルはその	-12878
ウルは少し	-12879
ウル達には	-12880
エシェルと	-12881
ズタズタに	-12882
ターゲット	-12883
ベッドの上	-12884
ワダツミの	-12885
何があった	-12886
働いている	-12887
切り裂いた	-12888
可愛らしい	-12889
問いかける	-12890
大変だった	-12891
存在である	-12892
宝石人形は	-12893
実のところ	-12894
必要なのは	-12895
思ったより	-12896
悩んでいる	-12897
掛けてくる	-12898
毒花怪鳥の	-12899
気が付いた	-12900
生みだした	-12901
目を向ける	-12902
目を覚ます	-12903
秘めている	-12904
話していた	-12905
身につけた	-12906
隠している	-12907
食べられる	-12908
魔女と傭兵	-12909
AAAAAA	-12910
▁そういえば	-12911
している間に	-12912
してもらった	-12913
しょっちゅう	-12914
とも言えない	-12915
のようなもの	-12916
へと向かった	-12917
もうちょっと	-12918
を行っていた	-12919
ウルにとって	-12920
ウルはそれを	-12921
ギークの肉棒	-12922
場合ではない	-12923
小さく呟いた	-12924
残っていない	-12925
自分の身体を	-12926
すぐに分かった	-12927
なくなっている	-12928
イスラリア博士	-12929
他人事のように	-12930
天魔のグレーレ	-12931
込んでしまった	-12932
ahahahah	-12933
AAAAAAAAA	-12934
ことができなかった	-12935
de	-12936
ww	-12937
▁く	-12938
▁や	-12939
▁性	-12940
▁日	-12941
、"	-12942
ぅっ	-12943
が強	-12944
くも	-12945
しだ	-12946
じょ	-12947
だに	-12948
づら	-12949
にじ	-12950
にら	-12951
に来	-12952
の所	-12953
ほほ	-12954
まち	-12955
も尚	-12956
わー	-12957
ガラ	-12958
ギラ	-12959
コミ	-12960
コラ	-12961
ジイ	-12962
ドン	-12963
ハァ	-12964
ヒク	-12965
ベテ	-12966
一定	-12967
上等	-12968
両脚	-12969
予測	-12970
俺達	-12971
利な	-12972
勢力	-12973
反り	-12974
只人	-12975
可哀	-12976
君に	-12977
否や	-12978
品質	-12979
唇が	-12980
善意	-12981
国が	-12982
報復	-12983
塩作	-12984
境遇	-12985
変質	-12986
大悪	-12987
奔流	-12988
学ぶ	-12989
導き	-12990
差が	-12991
巻尺	-12992
布を	-12993
年で	-12994
強靭	-12995
当主	-12996
後退	-12997
怖じ	-12998
怖ろ	-12999
性と	-13000
悪な	-13001
悪戯	-13002
愛お	-13003
打撃	-13004
教義	-13005
文官	-13006
書を	-13007
柔軟	-13008
沈む	-13009
減る	-13010
滲み	-13011
潰し	-13012
点が	-13013
煙の	-13014
煙突	-13015
特定	-13016
玉座	-13017
異端	-13018
白炎	-13019
目と	-13020
相で	-13021
種を	-13022
窺う	-13023
籠る	-13024
経営	-13025
肥大	-13026
脇に	-13027
臓器	-13028
自滅	-13029
荒い	-13030
藻掻	-13031
褒め	-13032
計り	-13033
試す	-13034
読め	-13035
費や	-13036
踵を	-13037
迷う	-13038
選手	-13039
酒と	-13040
鍋に	-13041
隔離	-13042
際限	-13043
隠蔽	-13044
集結	-13045
雑談	-13046
▁あと	-13047
▁世界	-13048
▁何を	-13049
▁傭兵	-13050
▁冗談	-13051
▁己の	-13052
▁彼ら	-13053
▁思い	-13054
▁直後	-13055
▁瞬間	-13056
いいな	-13057
うって	-13058
かねえ	-13059
が好き	-13060
きりと	-13061
くれよ	-13062
ちんと	-13063
でいる	-13064
といけ	-13065
とすら	-13066
と同時	-13067
どもに	-13068
どんと	-13069
のんび	-13070
の一言	-13071
の加護	-13072
の問題	-13073
の手段	-13074
の方へ	-13075
の方向	-13076
ぶりを	-13077
らって	-13078
られぬ	-13079
を建て	-13080
を抑え	-13081
を抱え	-13082
を求め	-13083
を続け	-13084
を纏い	-13085
アグリ	-13086
ウィン	-13087
キャン	-13088
ギャン	-13089
ジジイ	-13090
セティ	-13091
テスト	-13092
パンッ	-13093
メイン	-13094
リーチ	-13095
ヴァル	-13096
下手な	-13097
人々を	-13098
人類を	-13099
余裕が	-13100
作って	-13101
借りて	-13102
全身の	-13103
出来ず	-13104
刀身に	-13105
力なく	-13106
右手に	-13107
合いは	-13108
向けの	-13109
売れる	-13110
嫌がら	-13111
室にて	-13112
家畜の	-13113
怒りと	-13114
恥ずか	-13115
想いを	-13116
手伝う	-13117
授かる	-13118
揉み解	-13119
握り締	-13120
機能が	-13121
次いで	-13122
残りの	-13123
気遣い	-13124
泣いた	-13125
火力を	-13126
焼ける	-13127
状態を	-13128
生きた	-13129
用いて	-13130
目指す	-13131
相応に	-13132
祈った	-13133
神々の	-13134
競技場	-13135
聞きた	-13136
背負う	-13137
自然な	-13138
自身は	-13139
行為に	-13140
行為は	-13141
見事に	-13142
誇らし	-13143
読んだ	-13144
距離は	-13145
跳ね返	-13146
追いや	-13147
逸れた	-13148
金属の	-13149
長船の	-13150
閃光が	-13151
関係が	-13152
防いだ	-13153
首筋に	-13154
魔王を	-13155
魔石は	-13156
黒板に	-13157
▁ただの	-13158
▁アオイ	-13159
▁二人が	-13160
▁名無し	-13161
▁身体を	-13162
あの時は	-13163
いい加減	-13164
いがたい	-13165
ぎょっと	-13166
こっちも	-13167
こと自体	-13168
したので	-13169
しても尚	-13170
し始める	-13171
するまで	-13172
する前に	-13173
そういや	-13174
そう言い	-13175
その力は	-13176
っちまう	-13177
でしたか	-13178
とまでは	-13179
どこかで	-13180
になろう	-13181
に関する	-13182
の中央に	-13183
はそれを	-13184
へと向け	-13185
へと飛び	-13186
ますから	-13187
めてくる	-13188
を完全に	-13189
んでいく	-13190
アンタが	-13191
スカート	-13192
タイロン	-13193
ナンの砦	-13194
ブルスト	-13195
ベテラン	-13196
メダルは	-13197
事なんて	-13198
位置する	-13199
住民達の	-13200
傷ついた	-13201
分からず	-13202
分かるが	-13203
叩きつけ	-13204
同意した	-13205
呼ばれた	-13206
喜ばしい	-13207
安堵した	-13208
安心した	-13209
宿泊所の	-13210
尋ねると	-13211
度の高い	-13212
強欲の竜	-13213
必要ない	-13214
手のひら	-13215
手を出す	-13216
捕らえる	-13217
枢ドーム	-13218
気づくと	-13219
気にせず	-13220
消し去る	-13221
済ませた	-13222
満足げに	-13223
潜り込む	-13224
焼き尽く	-13225
発生する	-13226
知り合い	-13227
突き上げ	-13228
腰掛ける	-13229
見つけた	-13230
起こして	-13231
身につけ	-13232
間抜けな	-13233
関しては	-13234
音も無く	-13235
顔を上げ	-13236
▁そして今	-13237
▁カスカベ	-13238
あからさま	-13239
かっていた	-13240
かもしれん	-13241
からだろう	-13242
から逃れる	-13243
きてくれた	-13244
したことで	-13245
しなくても	-13246
そうだから	-13247
そうだけど	-13248
そこにいた	-13249
それじゃあ	-13250
それだけだ	-13251
それを見た	-13252
だけあって	-13253
っちまった	-13254
できるのは	-13255
という立場	-13256
になりたい	-13257
はそれほど	-13258
ませていた	-13259
もう一人の	-13260
やっていた	-13261
を果たした	-13262
アイリスと	-13263
エリン姉は	-13264
カンタレラ	-13265
付けている	-13266
初めまして	-13267
取り出した	-13268
受け入れて	-13269
宝石人形が	-13270
座っている	-13271
当然ながら	-13272
彼女はその	-13273
彼方此方に	-13274
笑っている	-13275
筈なのだが	-13276
組み合わせ	-13277
聞いた瞬間	-13278
跳ね上がる	-13279
鍛えられた	-13280
顔を出した	-13281
顔を顰める	-13282
▁それだけで	-13283
▁ジグはその	-13284
▁村長婦人は	-13285
▁母ちゃんが	-13286
この場にいる	-13287
させてもらう	-13288
し続けている	-13289
そこにあった	-13290
になるだろう	-13291
られてしまう	-13292
ウーガの管理	-13293
シグリズ様が	-13294
フォルセティ	-13295
ヘイルダーの	-13296
出来ていない	-13297
大丈夫ですか	-13298
子供のように	-13299
方がよっぽど	-13300
時間をかけて	-13301
物にならない	-13302
近づいてきた	-13303
鼻を鳴らした	-13304
かと言われれば	-13305
ため息をついて	-13306
と言えるだろう	-13307
と言っても良い	-13308
ひょっとしたら	-13309
ウルはそのまま	-13310
存在していない	-13311
存在しなかった	-13312
比較にならない	-13313
穴が空く穴が空く	-13314
クレアとアイリスは	-13315
AAAAAAAAAA	-13316
▁ヌ	-13317
▁戦	-13318
▁王	-13319
▁石	-13320
▁重	-13321
おば	-13322
きな	-13323
きょ	-13324
こじ	-13325
しっ	-13326
の子	-13327
ほぐ	-13328
まけ	-13329
まに	-13330
わと	-13331
を務	-13332
を示	-13333
スピ	-13334
ダラ	-13335
チェ	-13336
ッパ	-13337
上は	-13338
上昇	-13339
不吉	-13340
乗っ	-13341
五轟	-13342
仕業	-13343
代理	-13344
伝説	-13345
住居	-13346
作用	-13347
保た	-13348
俺と	-13349
充満	-13350
共有	-13351
刃で	-13352
切な	-13353
加入	-13354
反面	-13355
司る	-13356
各々	-13357
味は	-13358
呼べ	-13359
圧し	-13360
天を	-13361
奥を	-13362
妥協	-13363
媚び	-13364
対竜	-13365
小人	-13366
少数	-13367
己を	-13368
延長	-13369
心で	-13370
投稿	-13371
抗争	-13372
拡散	-13373
拭い	-13374
指の	-13375
旅の	-13376
明滅	-13377
最善	-13378
村へ	-13379
村人	-13380
森の	-13381
模擬	-13382
横で	-13383
滑る	-13384
激情	-13385
生業	-13386
畏怖	-13387
登録	-13388
盾と	-13389
瞬き	-13390
碌な	-13391
穿ち	-13392
等々	-13393
筋の	-13394
筋肉	-13395
紅蓮	-13396
終断	-13397
結合	-13398
総則	-13399
緑の	-13400
線の	-13401
縦横	-13402
翼は	-13403
荷物	-13404
葉巻	-13405
虹色	-13406
行い	-13407
行軍	-13408
術師	-13409
詐欺	-13410
賢い	-13411
踏ん	-13412
逸脱	-13413
道が	-13414
達だ	-13415
部門	-13416
醸造	-13417
重に	-13418
銃を	-13419
錯誤	-13420
鏡は	-13421
隊の	-13422
電流	-13423
頃に	-13424
順に	-13425
順番	-13426
騎乗	-13427
高揚	-13428
黒ず	-13429
▁家族	-13430
▁尤も	-13431
▁王は	-13432
▁白い	-13433
▁腕を	-13434
▁身体	-13435
うめき	-13436
えらい	-13437
おおお	-13438
かしこ	-13439
くのは	-13440
くまで	-13441
くると	-13442
ことと	-13443
この女	-13444
さねば	-13445
しきり	-13446
すりゃ	-13447
そっか	-13448
っとる	-13449
でかい	-13450
と笑う	-13451
どもを	-13452
なりの	-13453
に興味	-13454
のその	-13455
のウル	-13456
の外で	-13457
の瞳を	-13458
ははは	-13459
ばれる	-13460
ろくな	-13461
を全て	-13462
ガザが	-13463
ガザの	-13464
グロウ	-13465
ケース	-13466
タラの	-13467
パンに	-13468
ーっと	-13469
一部の	-13470
不安が	-13471
不機嫌	-13472
事情は	-13473
人々が	-13474
人物が	-13475
今現在	-13476
傷つく	-13477
兄さん	-13478
内部の	-13479
冒険業	-13480
出来て	-13481
前では	-13482
勇者に	-13483
合いで	-13484
向いて	-13485
命じた	-13486
場所も	-13487
外套を	-13488
奴らの	-13489
巻いて	-13490
幾多の	-13491
幾度か	-13492
店員は	-13493
強固な	-13494
当人の	-13495
役立つ	-13496
息を吸	-13497
悲しみ	-13498
情報も	-13499
意見を	-13500
慌てた	-13501
手早く	-13502
払って	-13503
技術が	-13504
抜かす	-13505
掘り返	-13506
掠める	-13507
攻撃で	-13508
暖かな	-13509
本日は	-13510
横目に	-13511
死体の	-13512
気には	-13513
流石は	-13514
消耗品	-13515
淫靡な	-13516
瀬戸際	-13517
無慈悲	-13518
焦げた	-13519
焼けた	-13520
生命体	-13521
甲高い	-13522
男女の	-13523
的にも	-13524
真似を	-13525
真顔で	-13526
知る由	-13527
稼いで	-13528
罪悪感	-13529
羽ばた	-13530
職人が	-13531
脅威が	-13532
腕から	-13533
苦しむ	-13534
蜂蜜が	-13535
衝撃を	-13536
覚悟は	-13537
詳細は	-13538
責める	-13539
近くで	-13540
返して	-13541
途切れ	-13542
選択を	-13543
部から	-13544
闇の中	-13545
険しく	-13546
頃合い	-13547
魔繰蟲	-13548
▁ここで	-13549
▁これも	-13550
▁その日	-13551
▁たとえ	-13552
▁などと	-13553
▁イカザ	-13554
▁ジグと	-13555
▁ジグに	-13556
▁女性が	-13557
▁最後の	-13558
▁無数の	-13559
▁現在の	-13560
▁長屋敷	-13561
お疲れ様	-13562
かないと	-13563
かも知れ	-13564
こちらも	-13565
これなら	-13566
これまた	-13567
しかけた	-13568
しなさい	-13569
そうな顔	-13570
ためにも	-13571
だがその	-13572
っぱなし	-13573
とも違う	-13574
と思いつ	-13575
にかかる	-13576
に入れる	-13577
のだけは	-13578
のはその	-13579
の奥から	-13580
はとても	-13581
ぽつりと	-13582
やしない	-13583
やってい	-13584
やらない	-13585
を見ても	-13586
イサナに	-13587
ガントの	-13588
ケインが	-13589
パニック	-13590
ヒトガタ	-13591
ヒャヒャ	-13592
ビクンッ	-13593
ユーリを	-13594
ラースは	-13595
リーネを	-13596
ーーーー	-13597
一般的な	-13598
主張する	-13599
住民達は	-13600
十二分に	-13601
卓越した	-13602
口の端を	-13603
叩かれた	-13604
向こうの	-13605
吹っ飛ば	-13606
告げると	-13607
喰らった	-13608
囚人達は	-13609
回復薬を	-13610
地面から	-13611
好き放題	-13612
官位持ち	-13613
弾かれる	-13614
当たった	-13615
形をした	-13616
意識を失	-13617
戦士達を	-13618
持ってる	-13619
発動する	-13620
破壊した	-13621
経験から	-13622
絞り出す	-13623
聞いても	-13624
背負った	-13625
自分でも	-13626
苦々しく	-13627
賞金首の	-13628
起動する	-13629
遠くから	-13630
限界まで	-13631
頼まれた	-13632
高かった	-13633
鬱陶しい	-13634
▁「【【【	-13635
▁あらゆる	-13636
▁いつもの	-13637
▁スーアは	-13638
▁基本的に	-13639
▁残された	-13640
あああああ	-13641
かけられる	-13642
から聞いた	-13643
があるので	-13644
がなければ	-13645
が足りない	-13646
ぐったりと	-13647
ことにする	-13648
この状況で	-13649
これ以上は	-13650
そうなった	-13651
それだけは	-13652
だとすれば	-13653
とおぼしき	-13654
どれくらい	-13655
を繰り返し	-13656
を見下ろす	-13657
エリン姉も	-13658
ギャンブル	-13659
グリードに	-13660
シェスカが	-13661
ハリアンの	-13662
並んでいた	-13663
出てこない	-13664
力によって	-13665
化している	-13666
基本的には	-13667
場所だった	-13668
大きくなる	-13669
彼女たちは	-13670
愉快そうに	-13671
気にするな	-13672
満たされた	-13673
状態だった	-13674
砕けていく	-13675
空いている	-13676
肩を竦めて	-13677
言い出した	-13678
言うことを	-13679
誰もいない	-13680
▁結果として	-13681
くれなかった	-13682
していたのだ	-13683
そりゃそうだ	-13684
ったりとした	-13685
できるように	-13686
という言葉に	-13687
らしいですよ	-13688
を取り出した	-13689
冒険者になる	-13690
困ったように	-13691
声が聞こえた	-13692
悲鳴を上げた	-13693
突き込まれる	-13694
集まっている	-13695
▁そしてそれは	-13696
▁つまるところ	-13697
しているようだ	-13698
じゃありません	-13699
そのものだった	-13700
つまらなそうに	-13701
よくわからない	-13702
よろしくお願い	-13703
わかっていても	-13704
んじゃないかな	-13705
プラウディアは	-13706
分かっていても	-13707
言ってしまえば	-13708
......!)	-13709
声が聞こえてくる	-13710
大罪都市グラドル	-13711
理解できなかった	-13712
らなければならない	-13713
AAAAAAAAAAA	-13714
ありがとうございました	-13715
er	-13716
▁か	-13717
▁た	-13718
▁む	-13719
▁ト	-13720
▁背	-13721
▁高	-13722
、」	-13723
お湯	-13724
かま	-13725
けよ	-13726
しん	-13727
なで	-13728
なわ	-13729
の糸	-13730
の要	-13731
の隙	-13732
ひぃ	-13733
ひい	-13734
めが	-13735
もが	-13736
も言	-13737
を囲	-13738
んか	-13739
クン	-13740
ッシ	-13741
ナニ	-13742
ハマ	-13743
バタ	-13744
ババ	-13745
ムリ	-13746
リハ	-13747
ルク	-13748
ワン	-13749
ータ	-13750
ーフ	-13751
交差	-13752
休め	-13753
傷の	-13754
充実	-13755
光り	-13756
光輪	-13757
勤し	-13758
及ぼ	-13759
双丘	-13760
司教	-13761
君臨	-13762
咀嚼	-13763
固め	-13764
圧縮	-13765
増加	-13766
外だ	-13767
大国	-13768
天幕	-13769
奥へ	-13770
好む	-13771
学校	-13772
居住	-13773
屈服	-13774
崩落	-13775
差す	-13776
平静	-13777
年に	-13778
幼き	-13779
弱く	-13780
強盗	-13781
復興	-13782
忌み	-13783
念に	-13784
意向	-13785
投資	-13786
捕食	-13787
採取	-13788
採用	-13789
探り	-13790
揺蕩	-13791
数で	-13792
敵だ	-13793
斥候	-13794
断つ	-13795
暮れ	-13796
来年	-13797
枯渇	-13798
検査	-13799
楽な	-13800
正論	-13801
毛の	-13802
気軽	-13803
油を	-13804
災厄	-13805
牙が	-13806
牛頭	-13807
狂い	-13808
現れ	-13809
疾走	-13810
直し	-13811
秋の	-13812
穴は	-13813
策を	-13814
経済	-13815
罪人	-13816
羽織	-13817
脅迫	-13818
脳は	-13819
腕輪	-13820
至宝	-13821
若き	-13822
襲来	-13823
見事	-13824
見張	-13825
言語	-13826
誇り	-13827
資材	-13828
足跡	-13829
路は	-13830
身震	-13831
退避	-13832
逆の	-13833
道徳	-13834
鉄の	-13835
防げ	-13836
阿呆	-13837
音も	-13838
頬が	-13839
顎で	-13840
飢え	-13841
首は	-13842
魔を	-13843
魔封	-13844
魚を	-13845
▁つい	-13846
▁ァッ	-13847
▁レイ	-13848
▁予想	-13849
▁事実	-13850
▁例え	-13851
▁全く	-13852
▁時折	-13853
▁神官	-13854
▁神殿	-13855
▁見る	-13856
▁酷く	-13857
あっち	-13858
おけば	-13859
かんと	-13860
がつく	-13861
くぐり	-13862
この後	-13863
さまじ	-13864
じゃが	-13865
そこへ	-13866
その両	-13867
その声	-13868
その大	-13869
それだ	-13870
ちょい	-13871
って話	-13872
に従う	-13873
ねえか	-13874
ねえぞ	-13875
の上を	-13876
の手が	-13877
の為に	-13878
ふざけ	-13879
ぽんと	-13880
まぐれ	-13881
みじん	-13882
や否や	-13883
らかに	-13884
をなぞ	-13885
を指で	-13886
キスに	-13887
ッシュ	-13888
テント	-13889
ヒルド	-13890
ベリー	-13891
ランド	-13892
ンンッ	-13893
乳首を	-13894
以上は	-13895
体力が	-13896
使われ	-13897
修羅場	-13898
俺達の	-13899
先から	-13900
包んだ	-13901
化して	-13902
印象は	-13903
取り繕	-13904
唸った	-13905
土地を	-13906
垂れた	-13907
寄った	-13908
心中を	-13909
快感に	-13910
恐怖に	-13911
技術は	-13912
指示で	-13913
振り絞	-13914
数ヶ月	-13915
時間に	-13916
普段は	-13917
最優先	-13918
最奥を	-13919
最高に	-13920
有効な	-13921
本人は	-13922
森人の	-13923
構わん	-13924
武器も	-13925
歩いて	-13926
母さん	-13927
混ざり	-13928
火の番	-13929
照的に	-13930
現状の	-13931
現象を	-13932
生物が	-13933
男衆が	-13934
研究者	-13935
窓の外	-13936
竜達の	-13937
答えて	-13938
精霊を	-13939
繊細な	-13940
罰覿面	-13941
自信満	-13942
臭いが	-13943
被害を	-13944
言わん	-13945
記憶が	-13946
調子に	-13947
買って	-13948
追加で	-13949
避難所	-13950
邪悪な	-13951
部下が	-13952
長剣を	-13953
閉じた	-13954
開けた	-13955
隊長は	-13956
隠れて	-13957
首から	-13958
騎士が	-13959
髪を梳	-13960
▁いくら	-13961
▁さらに	-13962
▁彼女に	-13963
▁激しい	-13964
▁言葉を	-13965
あの時の	-13966
あの男は	-13967
あんたら	-13968
いいけど	-13969
いよいよ	-13970
かせない	-13971
かろうが	-13972
がかかる	-13973
が彼女の	-13974
が起きた	-13975
が過ぎる	-13976
ぐるりと	-13977
この世の	-13978
こぼれた	-13979
さっぱり	-13980
さらなる	-13981
さりとて	-13982
しなきゃ	-13983
しますよ	-13984
その事を	-13985
その姿を	-13986
っておく	-13987
ってこと	-13988
ていたが	-13989
なんだと	-13990
にはその	-13991
に向かい	-13992
のことだ	-13993
の果てに	-13994
びっくり	-13995
みたいで	-13996
もう一人	-13997
ものとは	-13998
ようなら	-13999
わされる	-14000
アカネと	-14001
ェーシャ	-14002
カウンタ	-14003
ガントに	-14004
クスクス	-14005
グリーム	-14006
ッサリと	-14007
ビーカン	-14008
フギンの	-14009
マトモに	-14010
一方的な	-14011
何かしら	-14012
何をした	-14013
光を放ち	-14014
口からは	-14015
合いから	-14016
吊り下げ	-14017
周りには	-14018
嗚呼嗚呼	-14019
固まった	-14020
声を上げ	-14021
女だった	-14022
孤児院の	-14023
安定した	-14024
押さえる	-14025
振り回し	-14026
振る舞い	-14027
描かれた	-14028
数が多い	-14029
時として	-14030
晒された	-14031
楽しみに	-14032
死なない	-14033
死んでる	-14034
浮かべて	-14035
潰された	-14036
生きてい	-14037
用意する	-14038
破損した	-14039
程度では	-14040
肩の力を	-14041
襲われる	-14042
訓練所に	-14043
試行錯誤	-14044
誰よりも	-14045
貫かれた	-14046
躊躇無く	-14047
都市民の	-14048
頑張った	-14049
駆け出し	-14050
▁そう言い	-14051
▁であれば	-14052
▁アカネが	-14053
▁冒険者の	-14054
が悪かった	-14055
この程度の	-14056
こんなもん	-14057
さえあれば	-14058
さえすれば	-14059
させてもら	-14060
させながら	-14061
されました	-14062
したジグが	-14063
してほしい	-14064
そのものは	-14065
その表情は	-14066
というほど	-14067
ともすれば	-14068
どんどんと	-14069
のであった	-14070
へと向ける	-14071
ものなのか	-14072
らしからぬ	-14073
を取り出す	-14074
を指さした	-14075
を確認した	-14076
を突かれた	-14077
カルカラに	-14078
トーマスは	-14079
フェネクス	-14080
レナードが	-14081
切っていた	-14082
前提として	-14083
取っている	-14084
告げられた	-14085
声をかけて	-14086
守っていた	-14087
巻き込んで	-14088
心配するな	-14089
感じている	-14090
慌ただしく	-14091
手に持った	-14092
打ち合わせ	-14093
抜けていく	-14094
暫くすると	-14095
有していた	-14096
村長婦人に	-14097
消えていた	-14098
照らされた	-14099
生きていた	-14100
目を細めて	-14101
眠っていた	-14102
置いておく	-14103
薄っすらと	-14104
触れられる	-14105
語っていた	-14106
部屋の中に	-14107
首を振って	-14108
▁そのことを	-14109
▁村長婦人の	-14110
からと言って	-14111
これでもかと	-14112
ではあるまい	-14113
というわけだ	-14114
とも思えない	-14115
わけでも無い	-14116
を抱えている	-14117
イスラリアは	-14118
ジースターが	-14119
上がってくる	-14120
出来ることは	-14121
創り出された	-14122
地面に倒れ伏	-14123
思った以上に	-14124
持っていない	-14125
死んでしまう	-14126
耐えられない	-14127
苦笑しながら	-14128
距離を取った	-14129
AAAAAAA	-14130
▁だというのに	-14131
▁シアーシャの	-14132
ことがなかった	-14133
といったところ	-14134
のようになって	-14135
を見つめていた	-14136
アルノルド王は	-14137
叩きつけられる	-14138
突っ込んできた	-14139
......!』	-14140
ありませんでした	-14141
映し出されていた	-14142
聞いたことがある	-14143
やらなければならない	-14144
AAAAAAAAAAAAAA	-14145
AAAAAAAAAAAAAAA	-14146
▁に	-14147
▁現	-14148
▁相	-14149
▁薄	-14150
▁風	-14151
おち	-14152
お主	-14153
かぁ	-14154
かー	-14155
くじ	-14156
くす	-14157
ざす	-14158
そら	-14159
たて	-14160
どき	-14161
なれ	-14162
にー	-14163
ぬる	-14164
の為	-14165
へー	-14166
みで	-14167
ろな	-14168
を引	-14169
を押	-14170
ガン	-14171
タチ	-14172
ノリ	-14173
リュ	-14174
上だ	-14175
上司	-14176
乳輪	-14177
乾杯	-14178
予感	-14179
伐採	-14180
余程	-14181
側面	-14182
優越	-14183
元へ	-14184
先代	-14185
具を	-14186
内は	-14187
凄く	-14188
凌ぎ	-14189
分割	-14190
制止	-14191
十全	-14192
反転	-14193
含む	-14194
喉が	-14195
喋る	-14196
営業	-14197
嘆き	-14198
固い	-14199
地表	-14200
増援	-14201
墜落	-14202
壊す	-14203
声だ	-14204
変形	-14205
奴の	-14206
崩し	-14207
引退	-14208
弱り	-14209
影は	-14210
思案	-14211
急ぐ	-14212
戦は	-14213
手足	-14214
打倒	-14215
拍子	-14216
招待	-14217
持参	-14218
掠め	-14219
採掘	-14220
接敵	-14221
掻い	-14222
散り	-14223
斜め	-14224
映り	-14225
朝食	-14226
歌を	-14227
正門	-14228
歪め	-14229
水で	-14230
永遠	-14231
汗で	-14232
活発	-14233
浅く	-14234
浴場	-14235
消失	-14236
液体	-14237
激昂	-14238
無言	-14239
王を	-14240
生息	-14241
百万	-14242
皆を	-14243
直に	-14244
直球	-14245
短刀	-14246
石臼	-14247
磨き	-14248
禁じ	-14249
第四	-14250
精力	-14251
精鋭	-14252
素敵	-14253
終え	-14254
結末	-14255
縄張	-14256
者や	-14257
聴覚	-14258
肩が	-14259
脱が	-14260
腐り	-14261
自嘲	-14262
自宅	-14263
船を	-14264
花の	-14265
見逃	-14266
訪ね	-14267
調達	-14268
販売	-14269
質量	-14270
野蛮	-14271
鈍く	-14272
闘争	-14273
降臨	-14274
音で	-14275
顔だ	-14276
驚異	-14277
魔名	-14278
鱈漁	-14279
GYA	-14280
―!」	-14281
▁キュ	-14282
▁チュ	-14283
▁レロ	-14284
▁一人	-14285
▁仕事	-14286
▁大麦	-14287
▁想像	-14288
▁挿入	-14289
▁男が	-14290
ぁあッ	-14291
あちら	-14292
いかず	-14293
うなり	-14294
が強く	-14295
その上	-14296
その手	-14297
だよね	-14298
っすね	-14299
ともう	-14300
と対峙	-14301
なくな	-14302
なわち	-14303
に到達	-14304
の住民	-14305
の数々	-14306
の機会	-14307
の魔獣	-14308
ほかの	-14309
みよう	-14310
もした	-14311
も同様	-14312
ややこ	-14313
やる気	-14314
を望む	-14315
を発見	-14316
キツイ	-14317
クジラ	-14318
ジグ様	-14319
スーサ	-14320
トンボ	-14321
ニーナ	-14322
ノベル	-14323
ハロル	-14324
ピンク	-14325
一杯に	-14326
一歩も	-14327
七天が	-14328
上機嫌	-14329
並べて	-14330
中央の	-14331
乗せた	-14332
仕込み	-14333
他ない	-14334
作業が	-14335
作業に	-14336
使えば	-14337
傍から	-14338
備えた	-14339
元に戻	-14340
先へと	-14341
内容を	-14342
出そう	-14343
判断に	-14344
割れる	-14345
効果が	-14346
危険に	-14347
名前が	-14348
呪いに	-14349
唱える	-14350
喉を鳴	-14351
増えて	-14352
多いが	-14353
天剣は	-14354
守りの	-14355
安易に	-14356
小規模	-14357
少女を	-14358
尖った	-14359
居心地	-14360
彼女だ	-14361
怪我の	-14362
態度を	-14363
戦って	-14364
指揮官	-14365
振りで	-14366
掴むと	-14367
支払い	-14368
教えた	-14369
整えた	-14370
斬った	-14371
断じて	-14372
明日は	-14373
映像が	-14374
映像に	-14375
望んだ	-14376
条件を	-14377
極める	-14378
汚れた	-14379
流れた	-14380
海水を	-14381
混乱は	-14382
濡らす	-14383
無事を	-14384
照らし	-14385
猿狗の	-14386
甘やか	-14387
男達が	-14388
男達の	-14389
疑問は	-14390
直撃し	-14391
真っ向	-14392
眼球が	-14393
矛先を	-14394
祖母の	-14395
私達の	-14396
私達は	-14397
立場に	-14398
精神を	-14399
紅色の	-14400
終えて	-14401
経験は	-14402
背中の	-14403
術式は	-14404
覆い隠	-14405
言うが	-14406
評価値	-14407
貴方も	-14408
足下の	-14409
足音が	-14410
過酷な	-14411
道具の	-14412
長時間	-14413
関わる	-14414
除けば	-14415
障壁を	-14416
騒動で	-14417
驚いて	-14418
鳴った	-14419
GAGA	-14420
▁たった	-14421
▁だって	-14422
▁なんだ	-14423
▁まして	-14424
▁今日の	-14425
▁全てを	-14426
▁小さく	-14427
▁自分は	-14428
▁自分を	-14429
▁誰かが	-14430
▁身体は	-14431
▁魔術師	-14432
あげよう	-14433
いるのは	-14434
ことへの	-14435
しますが	-14436
その事に	-14437
っそりと	-14438
と彼女は	-14439
どう思う	-14440
に仕える	-14441
に入って	-14442
のですよ	-14443
のは事実	-14444
の意味で	-14445
の目にも	-14446
の身体を	-14447
はどうだ	-14448
は難しい	-14449
を抱えた	-14450
を見上げ	-14451
を覚えた	-14452
んだよな	-14453
ウル様は	-14454
テギネの	-14455
ライエル	-14456
下がって	-14457
不用意に	-14458
両断する	-14459
冷や汗が	-14460
切り裂き	-14461
創造主の	-14462
危険性を	-14463
呪われて	-14464
回避する	-14465
外に出て	-14466
天賢王が	-14467
子供達に	-14468
安心しろ	-14469
少しの間	-14470
少し違う	-14471
巡らせる	-14472
幾重にも	-14473
彼女達は	-14474
怖かった	-14475
意味する	-14476
意図的に	-14477
感心した	-14478
手に入る	-14479
指さした	-14480
最低でも	-14481
村の女衆	-14482
極まった	-14483
次第では	-14484
死霊兵が	-14485
溢れ出た	-14486
焼かれる	-14487
爆発的に	-14488
特権階級	-14489
獲得した	-14490
理不尽な	-14491
生き延び	-14492
白の系譜	-14493
禍々しく	-14494
程度なら	-14495
突き立て	-14496
縦横無尽	-14497
選ばれた	-14498
間合いを	-14499
集中する	-14500
雰囲気が	-14501
顔をして	-14502
騎士達は	-14503
驚くべき	-14504
魔物退治	-14505
魔物達に	-14506
黒炎鬼は	-14507
!!!?』	-14508
▁そう言う	-14509
▁イサナは	-14510
▁グラドル	-14511
▁マカール	-14512
▁マフィア	-14513
▁間もなく	-14514
ことが無い	-14515
ことの無い	-14516
これからも	-14517
これ以上に	-14518
されており	-14519
してもらい	-14520
そうなのか	-14521
それはもう	-14522
それまでの	-14523
だったのは	-14524
だらしなく	-14525
ったように	-14526
としか言い	-14527
の冒険者が	-14528
やることは	-14529
ゆったりと	-14530
ようという	-14531
わけもない	-14532
を見つける	-14533
んだろうな	-14534
クレアには	-14535
シェスカは	-14536
ビーカンは	-14537
ベッドへと	-14538
上手くいく	-14539
何かあった	-14540
何のために	-14541
倒れている	-14542
切っている	-14543
向いている	-14544
姿を見せた	-14545
官位持ちの	-14546
察したのか	-14547
少しばかり	-14548
山ほどある	-14549
崩れていく	-14550
思い当たる	-14551
戻ってくる	-14552
最終的には	-14553
死にかけた	-14554
眉を顰める	-14555
眺めている	-14556
自分たちで	-14557
落ちていた	-14558
見えないが	-14559
言うならば	-14560
遠見の水晶	-14561
離れていく	-14562
離れている	-14563
魔術による	-14564
▁ダヴィネは	-14565
されるような	-14566
するしかない	-14567
そうしている	-14568
ってもらった	-14569
ということか	-14570
という事実を	-14571
とは限らない	-14572
のがわかった	-14573
はしていない	-14574
はそう言って	-14575
よろしければ	-14576
を受け止める	-14577
を行っている	-14578
エシェルへと	-14579
ギークの指先	-14580
ルーン文字を	-14581
事は無かった	-14582
伝わってくる	-14583
地獄のような	-14584
振り下ろした	-14585
立ち上がると	-14586
間違っている	-14587
黄金不死鳥の	-14588
▁ビクトールは	-14589
ことが出来ない	-14590
さねばならない	-14591
と思っていたが	-14592
と言っても過言	-14593
どのようにして	-14594
ならばともかく	-14595
になりかねない	-14596
になりながらも	-14597
押し付けられる	-14598
振り下ろされる	-14599
突っ込んでくる	-14600
足を踏み入れた	-14601
身につけている	-14602
ということになる	-14603
ミラルフィーネの	-14604
ことが出来なかった	-14605
せざるを得なかった	-14606
GGGGGGGGGGGGGGGG	-14607
――――――――――――――――	-14608
BU	-14609
KE	-14610
MO	-14611
▁"	-14612
▁イ	-14613
▁岩	-14614
▁軽	-14615
がち	-14616
が来	-14617
くく	-14618
さぬ	-14619
の字	-14620
の扉	-14621
の長	-14622
の際	-14623
は何	-14624
ぽん	-14625
みな	-14626
るぞ	-14627
シク	-14628
ズル	-14629
ツラ	-14630
ミネ	-14631
メシ	-14632
モリ	-14633
ヤジ	-14634
一際	-14635
事前	-14636
二日	-14637
伝播	-14638
体躯	-14639
何で	-14640
停滞	-14641
側は	-14642
僕と	-14643
入口	-14644
刃に	-14645
分が	-14646
削る	-14647
品が	-14648
唾を	-14649
地は	-14650
執着	-14651
変容	-14652
多様	-14653
奇居	-14654
奮闘	-14655
好意	-14656
娼婦	-14657
寝た	-14658
対人	-14659
属性	-14660
幻想	-14661
度胸	-14662
恋人	-14663
悉く	-14664
意に	-14665
態は	-14666
態を	-14667
所が	-14668
所作	-14669
手配	-14670
拳で	-14671
持て	-14672
持続	-14673
捌き	-14674
援助	-14675
揺さ	-14676
支持	-14677
放浪	-14678
敷き	-14679
文書	-14680
昏い	-14681
星海	-14682
期限	-14683
末端	-14684
枚の	-14685
柱が	-14686
標的	-14687
毒に	-14688
氾濫	-14689
浮く	-14690
浮浪	-14691
火球	-14692
燃焼	-14693
狂気	-14694
率が	-14695
痛め	-14696
直進	-14697
着く	-14698
空き	-14699
精密	-14700
絵図	-14701
縮こ	-14702
繁華	-14703
者で	-14704
肌は	-14705
胡散	-14706
胴を	-14707
融資	-14708
親和	-14709
触り	-14710
託児	-14711
誘い	-14712
読む	-14713
豊満	-14714
超人	-14715
越え	-14716
蹴る	-14717
身長	-14718
連の	-14719
遊ぶ	-14720
違法	-14721
邪教	-14722
鎧は	-14723
隔絶	-14724
願望	-14725
馬を	-14726
魔よ	-14727
鱈を	-14728
!!【	-14729
ook	-14730
▁こう	-14731
▁んッ	-14732
▁嫌な	-14733
▁戦争	-14734
▁次に	-14735
▁馬車	-14736
あろう	-14737
あんま	-14738
が無く	-14739
げんな	-14740
この前	-14741
した時	-14742
せいぜ	-14743
その点	-14744
ときも	-14745
に従事	-14746
の方を	-14747
の結果	-14748
ばっか	-14749
ばれた	-14750
みえる	-14751
やるよ	-14752
るから	-14753
るとか	-14754
れると	-14755
を広げ	-14756
を駆け	-14757
んじて	-14758
アレを	-14759
カード	-14760
サック	-14761
システ	-14762
セイラ	-14763
ドレア	-14764
ババア	-14765
プライ	-14766
モノが	-14767
モノを	-14768
ロクに	-14769
ワイン	-14770
一つも	-14771
一人は	-14772
一人も	-14773
七つの	-14774
不満を	-14775
中へと	-14776
交易で	-14777
他所に	-14778
会話は	-14779
便利な	-14780
傷つけ	-14781
元々の	-14782
入り口	-14783
内心を	-14784
出会い	-14785
刀身が	-14786
動作を	-14787
半端に	-14788
反して	-14789
収めた	-14790
可哀想	-14791
味わう	-14792
報酬を	-14793
変化に	-14794
外に出	-14795
外部の	-14796
多くが	-14797
多くを	-14798
大罪の	-14799
女の子	-14800
学園長	-14801
左手で	-14802
巨人の	-14803
巨体を	-14804
干した	-14805
広範囲	-14806
広間の	-14807
度目の	-14808
引き戻	-14809
当てた	-14810
役目を	-14811
忘れた	-14812
我々が	-14813
戸惑い	-14814
打ち破	-14815
扱いに	-14816
捧げる	-14817
散った	-14818
方法を	-14819
暖かく	-14820
有様だ	-14821
本拠地	-14822
極端な	-14823
横薙ぎ	-14824
機関部	-14825
殺意を	-14826
流して	-14827
深呼吸	-14828
無残な	-14829
焼いて	-14830
熱心に	-14831
状態は	-14832
珍妙な	-14833
知識は	-14834
神殿は	-14835
神経を	-14836
稼げる	-14837
空気に	-14838
突っ伏	-14839
立場が	-14840
竜達が	-14841
粘魔が	-14842
納得が	-14843
美しさ	-14844
老人は	-14845
育った	-14846
自体に	-14847
航海士	-14848
諸々の	-14849
護する	-14850
身震い	-14851
退ける	-14852
逞しい	-14853
造作に	-14854
都市が	-14855
酒造り	-14856
銀竜が	-14857
降りた	-14858
障壁が	-14859
響かせ	-14860
食いつ	-14861
飲み会	-14862
馬鹿に	-14863
魔力核	-14864
魔物食	-14865
魔石が	-14866
▁あとは	-14867
▁あんな	-14868
▁まさに	-14869
▁クウは	-14870
▁ジグも	-14871
▁多くの	-14872
▁子供の	-14873
あり得る	-14874
あるのか	-14875
いち早く	-14876
いてくれ	-14877
したんだ	-14878
してんだ	-14879
そうだよ	-14880
その中に	-14881
その方が	-14882
だいたい	-14883
だったり	-14884
とかいう	-14885
ないのは	-14886
ないほど	-14887
なんだい	-14888
なんなら	-14889
にはまだ	-14890
にも似た	-14891
に見えた	-14892
のものは	-14893
はあろう	-14894
は自分の	-14895
ばっかり	-14896
ほんっと	-14897
まだマシ	-14898
まとめる	-14899
ようにと	-14900
らしいな	-14901
りしない	-14902
を果たす	-14903
を見ない	-14904
エル定規	-14905
エル巻尺	-14906
ギルドも	-14907
システム	-14908
リハビリ	-14909
ローブを	-14910
三面鬼の	-14911
上半身を	-14912
上空から	-14913
乗り込む	-14914
事になる	-14915
事もある	-14916
人のお嬢	-14917
代わりの	-14918
仲間達に	-14919
判明した	-14920
化け物は	-14921
否定した	-14922
埋め尽く	-14923
失われる	-14924
引き寄せ	-14925
役に立つ	-14926
彼女との	-14927
心からの	-14928
心当たり	-14929
念のため	-14930
怪我を負	-14931
悪感情の	-14932
戦士達も	-14933
指摘する	-14934
揺らした	-14935
普段から	-14936
望ましい	-14937
残ってる	-14938
気づけば	-14939
気はない	-14940
気まぐれ	-14941
注がれた	-14942
注がれる	-14943
混乱する	-14944
溢れかえ	-14945
無意識に	-14946
生み出し	-14947
神官達が	-14948
続ければ	-14949
者もいた	-14950
聞かれた	-14951
解放する	-14952
許さない	-14953
読めない	-14954
踏み込む	-14955
身を守る	-14956
近づける	-14957
返された	-14958
部下達に	-14959
部屋から	-14960
顔を見て	-14961
▁そこから	-14962
▁わざわざ	-14963
▁スーアが	-14964
あそこまで	-14965
いやらしく	-14966
からずっと	-14967
こんな風に	-14968
じゃねぇか	-14969
そうやって	-14970
そのために	-14971
それこそが	-14972
ってもいい	-14973
できません	-14974
ところだが	-14975
とでもいう	-14976
と思うけど	-14977
と思うんだ	-14978
なおのこと	-14979
なのですか	-14980
に刻まれた	-14981
に対しての	-14982
のをウルは	-14983
のリーダー	-14984
はずなのだ	-14985
ぶつかった	-14986
よりも先に	-14987
らせている	-14988
わなければ	-14989
を利用した	-14990
クロコスは	-14991
クローロは	-14992
ダメだった	-14993
久しぶりに	-14994
事になった	-14995
冒険者達は	-14996
向けている	-14997
周囲を見渡	-14998
多くはない	-14999
当然だろう	-15000
手を上げた	-15001
振りかぶり	-15002
最悪だった	-15003
此処に来た	-15004
母ちゃんは	-15005
母ちゃんも	-15006
無理もない	-15007
無茶苦茶な	-15008
焼き払った	-15009
白樺トンボ	-15010
立ち向かう	-15011
者としての	-15012
耐えられる	-15013
襲ってくる	-15014
言うことは	-15015
認められた	-15016
語りかける	-15017
走っている	-15018
足を止めた	-15019
身につける	-15020
輝いていた	-15021
魔物の襲撃	-15022
▁ただでさえ	-15023
▁エリン姉は	-15024
▁ジャインが	-15025
▁ジャインの	-15026
▁間違いなく	-15027
いつも通りの	-15028
かかっていた	-15029
からだろうか	-15030
が必要になる	-15031
このままだと	-15032
しております	-15033
というよりは	-15034
といった形で	-15035
と変わらない	-15036
と思いますよ	-15037
どういうこと	-15038
になっていく	-15039
わけではなく	-15040
を引き起こす	-15041
ウルは自分の	-15042
ダメージを負	-15043
上がってきた	-15044
予想していた	-15045
変わっていく	-15046
意識を失った	-15047
感じられない	-15048
映し出される	-15049
気づいている	-15050
消えていった	-15051
確信があった	-15052
精霊の加護を	-15053
経っていない	-15054
落下していく	-15055
視線を向けた	-15056
言葉の意味を	-15057
警戒している	-15058
▁シャナイアは	-15059
しかしそれでも	-15060
しているような	-15061
そう思っていた	-15062
アルンビョルン	-15063
大罪迷宮ラスト	-15064
振り下ろされた	-15065
者はいなかった	-15066
言いたいことは	-15067
足を踏み入れる	-15068
面倒くさそうに	-15069
されていなかった	-15070
しまいそうになる	-15071
ってはいなかった	-15072
とは思えなかった	-15073
カカカカカカカカ	-15074
分からなかったが	-15075
られてしまっていた	-15076
............❤」	-15077
▁え	-15078
▁武	-15079
♥』	-15080
いー	-15081
うろ	-15082
がね	-15083
こき	-15084
ご免	-15085
すよ	-15086
てめ	-15087
と呼	-15088
なげ	-15089
に就	-15090
の石	-15091
は不	-15092
ひき	-15093
ひら	-15094
ひん	-15095
めな	-15096
やだ	-15097
やべ	-15098
りな	-15099
れよ	-15100
を執	-15101
を売	-15102
イケ	-15103
ウェ	-15104
カツ	-15105
クニ	-15106
ナー	-15107
ニア	-15108
一個	-15109
二式	-15110
件を	-15111
似て	-15112
何回	-15113
余す	-15114
余り	-15115
余地	-15116
余波	-15117
保持	-15118
優雅	-15119
兵が	-15120
冷え	-15121
出迎	-15122
分野	-15123
刑務	-15124
制圧	-15125
十数	-15126
半端	-15127
四方	-15128
堪え	-15129
場面	-15130
塊が	-15131
塞が	-15132
塞ぎ	-15133
増し	-15134
妄想	-15135
客が	-15136
害を	-15137
専用	-15138
尊重	-15139
市井	-15140
常人	-15141
形式	-15142
必殺	-15143
感動	-15144
感慨	-15145
我ら	-15146
捻る	-15147
故か	-15148
敏感	-15149
普及	-15150
正な	-15151
正常	-15152
法の	-15153
減ら	-15154
満満	-15155
演技	-15156
焦燥	-15157
父の	-15158
片手	-15159
独自	-15160
献身	-15161
発射	-15162
真の	-15163
種が	-15164
穴に	-15165
穴の	-15166
突く	-15167
筋を	-15168
範疇	-15169
系統	-15170
総合	-15171
縄で	-15172
肉に	-15173
脆い	-15174
脳髄	-15175
臨時	-15176
自壊	-15177
草の	-15178
蛇の	-15179
補修	-15180
褒美	-15181
設定	-15182
訴え	-15183
話も	-15184
諸々	-15185
講義	-15186
贔屓	-15187
転倒	-15188
載せ	-15189
逃避	-15190
遮る	-15191
部外	-15192
酒蔵	-15193
銅貨	-15194
鍋を	-15195
鎌鼬	-15196
雑把	-15197
露出	-15198
骨は	-15199
髭を	-15200
鳥は	-15201
///	-15202
???	-15203
▁我が	-15204
▁普通	-15205
▁良い	-15206
▁言い	-15207
々から	-15208
かき消	-15209
が強い	-15210
この大	-15211
ご苦労	-15212
その実	-15213
たちへ	-15214
つぶや	-15215
づらく	-15216
で戦う	-15217
と同様	-15218
なしの	-15219
の一員	-15220
の報告	-15221
の姿に	-15222
の方針	-15223
の研究	-15224
の間で	-15225
は彼の	-15226
ましき	-15227
まるか	-15228
みても	-15229
も悪く	-15230
よーし	-15231
を強い	-15232
を眺め	-15233
を迎え	-15234
ウルよ	-15235
エクス	-15236
オッサ	-15237
クソが	-15238
ックリ	-15239
ハーブ	-15240
バーノ	-15241
ヒトと	-15242
ヒトに	-15243
ルイも	-15244
一先ず	-15245
中に入	-15246
中央に	-15247
亜人は	-15248
伴った	-15249
体重を	-15250
何の用	-15251
何処か	-15252
促した	-15253
先端が	-15254
入りの	-15255
兵士達	-15256
冷えた	-15257
刀身は	-15258
勢いが	-15259
友人の	-15260
取り返	-15261
口ぶり	-15262
同じだ	-15263
周囲で	-15264
呪われ	-15265
報酬が	-15266
場違い	-15267
声音は	-15268
多くて	-15269
大いに	-15270
大地が	-15271
大抵は	-15272
大麦酒	-15273
天剣を	-15274
天祈の	-15275
女子供	-15276
寸前の	-15277
巻きに	-15278
店員に	-15279
弾けた	-15280
当時は	-15281
彼女へ	-15282
後には	-15283
心の奥	-15284
愛液で	-15285
態勢を	-15286
慣れる	-15287
所詮は	-15288
手を離	-15289
手立て	-15290
手紙を	-15291
抑えて	-15292
投げて	-15293
抱いた	-15294
挟んで	-15295
接する	-15296
提案に	-15297
握って	-15298
支えて	-15299
方法は	-15300
曖昧な	-15301
替える	-15302
最近の	-15303
椅子を	-15304
欠片も	-15305
次第で	-15306
歪めた	-15307
決死の	-15308
沈黙が	-15309
消石灰	-15310
深層の	-15311
漂わせ	-15312
潰れた	-15313
潰れる	-15314
状態に	-15315
状況下	-15316
狙いが	-15317
現場に	-15318
痛みと	-15319
知識の	-15320
砂漠の	-15321
神殿で	-15322
秘めた	-15323
空間の	-15324
精液が	-15325
素振り	-15326
素材を	-15327
者まで	-15328
腰振り	-15329
自分達	-15330
興味が	-15331
落下し	-15332
血塗れ	-15333
行くか	-15334
表情の	-15335
見習い	-15336
解いて	-15337
記憶を	-15338
試みた	-15339
貫いて	-15340
責任を	-15341
貰える	-15342
蹴りが	-15343
退いた	-15344
連中の	-15345
連続で	-15346
遥かに	-15347
酒場の	-15348
重ねた	-15349
鈴の音	-15350
間から	-15351
間には	-15352
頻繁に	-15353
飛ばし	-15354
騎乗位	-15355
騎士達	-15356
高める	-15357
魔物も	-15358
...!	-15359
▁あんっ	-15360
▁これを	-15361
▁すぐに	-15362
▁なんか	-15363
▁なんで	-15364
▁彼女も	-15365
▁相手が	-15366
▁身体が	-15367
▁魔女の	-15368
▁魔王の	-15369
▁魔術の	-15370
お待たせ	-15371
がらない	-15372
が完全に	-15373
くるりと	-15374
この学園	-15375
この手の	-15376
させても	-15377
した結果	-15378
してみた	-15379
しますか	-15380
しみじみ	-15381
すさまじ	-15382
その日の	-15383
その点は	-15384
たちから	-15385
ため息を	-15386
ちくちく	-15387
ついてる	-15388
つもりは	-15389
に入れて	-15390
に行った	-15391
ねえだろ	-15392
はいるが	-15393
は大きい	-15394
ひっつか	-15395
まっすぐ	-15396
みならず	-15397
やむなく	-15398
ようです	-15399
をすると	-15400
を破壊し	-15401
を背負い	-15402
を見つけ	-15403
を通して	-15404
を通じて	-15405
を開けて	-15406
バチバチ	-15407
ユーリに	-15408
ヨーグの	-15409
ライバル	-15410
人として	-15411
人形兵器	-15412
他の村の	-15413
冷燻施設	-15414
出てきて	-15415
切られた	-15416
効かない	-15417
包まれる	-15418
協力して	-15419
双刃剣は	-15420
叩き潰す	-15421
地下探鉱	-15422
地下深く	-15423
変化する	-15424
外の世界	-15425
大麦酒の	-15426
好き勝手	-15427
帰還した	-15428
床暖房の	-15429
彼女だが	-15430
心地よい	-15431
想定外の	-15432
戦い方は	-15433
振り上げ	-15434
撒き散ら	-15435
放ってお	-15436
来てから	-15437
極限まで	-15438
殺到する	-15439
気は無い	-15440
沈黙する	-15441
済ませて	-15442
状況下で	-15443
相手でも	-15444
私たちが	-15445
突き進む	-15446
絶句した	-15447
絶望的な	-15448
緩やかな	-15449
者たちの	-15450
自分達が	-15451
至るまで	-15452
身を乗り	-15453
身構えた	-15454
違和感に	-15455
選択肢は	-15456
都市国の	-15457
間違えた	-15458
音もなく	-15459
風の精霊	-15460
―――❤」	-15461
▁おそらく	-15462
▁かつての	-15463
▁これから	-15464
▁とにかく	-15465
▁ともあれ	-15466
▁ストリゴ	-15467
▁ディズと	-15468
▁ロックが	-15469
▁北方社会	-15470
ありがたく	-15471
えてしまう	-15472
かと思うと	-15473
きっている	-15474
ことなんて	-15475
この世界が	-15476
この地下牢	-15477
するつもり	-15478
そうにする	-15479
その動きを	-15480
それだった	-15481
それならば	-15482
そんなもの	-15483
だろうから	-15484
だろうなあ	-15485
できるなら	-15486
というのか	-15487
と言えなく	-15488
どうなって	-15489
なによりも	-15490
の中にいる	-15491
はそこまで	-15492
ほうが良い	-15493
までもない	-15494
ままだった	-15495
やかましい	-15496
やれやれと	-15497
らせながら	-15498
られており	-15499
をもたらす	-15500
を持たない	-15501
んでしまう	-15502
んですよね	-15503
アルバーノ	-15504
エルシアは	-15505
カルカラも	-15506
ジグを見た	-15507
メートル超	-15508
ヤサエルが	-15509
一刻も早く	-15510
並んでいる	-15511
中央工房の	-15512
優れている	-15513
前代未聞の	-15514
勇者ディズ	-15515
叩きつけた	-15516
吹っ飛んで	-15517
大きすぎる	-15518
少なくない	-15519
幸いにして	-15520
強化された	-15521
思いながら	-15522
思い知った	-15523
払うように	-15524
投げつけた	-15525
投げられた	-15526
抱きしめた	-15527
持ち上げる	-15528
死霊術師の	-15529
満たされる	-15530
目が合った	-15531
眉を顰めた	-15532
確かだった	-15533
示している	-15534
背を向けて	-15535
背を向ける	-15536
腹立たしい	-15537
落ちてくる	-15538
逃げられる	-15539
降りてきた	-15540
頭を掻いた	-15541
▁〈――――	-15542
▁たっぷりと	-15543
▁エリン姉が	-15544
▁シャナイア	-15545
▁言っている	-15546
しか見えない	-15547
しつつあった	-15548
しているから	-15549
ちょっとした	-15550
っていたのは	-15551
とは言えない	-15552
と言うことを	-15553
ものじゃない	-15554
ようであった	-15555
わけでは無い	-15556
を取り戻した	-15557
んじゃねえぞ	-15558
ウルに対して	-15559
エネルギーを	-15560
グローリアは	-15561
シグリズ様は	-15562
今すぐにでも	-15563
何度も何度も	-15564
差し出された	-15565
広がっている	-15566
思わなかった	-15567
止められない	-15568
混じっている	-15569
生物としての	-15570
考えてみれば	-15571
聞いていたが	-15572
言い聞かせる	-15573
近付いてくる	-15574
集まっていた	-15575
顔をしかめた	-15576
▁なんというか	-15577
▁先ほどまでの	-15578
こともなかった	-15579
ことを理解した	-15580
するかのように	-15581
それにしたって	-15582
よく知っている	-15583
アグリェーシャ	-15584
ラクレツィアの	-15585
想像もつかない	-15586
方舟イスラリア	-15587
時間がかかった	-15588
げげげげげげげげ	-15589
なのは間違いない	-15590
大罪迷宮グリード	-15591
▁「――――――」	-15592
▁大罪都市グリード	-15593
迷宮フォルスティア	-15594
大罪迷宮プラウディア	-15595
na	-15596
ra	-15597
▁眼	-15598
▁聖	-15599
えな	-15600
ぐに	-15601
ごま	-15602
じめ	-15603
たの	-15604
の良	-15605
の証	-15606
は高	-15607
ひね	-15608
ふさ	-15609
もつ	-15610
ゆら	-15611
を射	-15612
を討	-15613
ウト	-15614
カッ	-15615
コク	-15616
シー	-15617
スモ	-15618
スラ	-15619
ダン	-15620
トゲ	-15621
ノウ	-15622
ハン	-15623
フリ	-15624
ホイ	-15625
ボケ	-15626
・・	-15627
一回	-15628
上段	-15629
下品	-15630
中が	-15631
乙女	-15632
事か	-15633
仇猿	-15634
休暇	-15635
伝う	-15636
住む	-15637
体も	-15638
俊敏	-15639
修復	-15640
偏見	-15641
八つ	-15642
凍て	-15643
分も	-15644
分散	-15645
利く	-15646
前後	-15647
動機	-15648
協定	-15649
同業	-15650
命中	-15651
地点	-15652
堕落	-15653
外道	-15654
大剣	-15655
大義	-15656
奔る	-15657
奥の	-15658
嫌だ	-15659
安価	-15660
実践	-15661
宴会	-15662
寝て	-15663
射線	-15664
尻が	-15665
届き	-15666
工事	-15667
工程	-15668
店が	-15669
廊下	-15670
強大	-15671
影の	-15672
応用	-15673
意匠	-15674
慢心	-15675
憐れ	-15676
撒き	-15677
攻勢	-15678
日を	-15679
昔の	-15680
服の	-15681
朦朧	-15682
根の	-15683
桶に	-15684
槍と	-15685
洗う	-15686
流通	-15687
浜に	-15688
清掃	-15689
炉の	-15690
煽る	-15691
爆ぜ	-15692
猫が	-15693
皮を	-15694
目映	-15695
矜持	-15696
矢が	-15697
神鳴	-15698
糸切	-15699
緩く	-15700
肥え	-15701
胴体	-15702
脳み	-15703
腕と	-15704
自殺	-15705
融合	-15706
見通	-15707
解け	-15708
試練	-15709
試験	-15710
誠実	-15711
貧乏	-15712
資格	-15713
赤錆	-15714
軌道	-15715
造る	-15716
遅く	-15717
遜色	-15718
部族	-15719
限定	-15720
隠密	-15721
集合	-15722
難儀	-15723
風貌	-15724
香る	-15725
駆動	-15726
鳥が	-15727
鷲掴	-15728
▁丁度	-15729
▁今更	-15730
▁仮に	-15731
▁何も	-15732
▁僕も	-15733
▁回避	-15734
▁女の	-15735
▁少年	-15736
▁時間	-15737
▁警戒	-15738
▁首を	-15739
いいぞ	-15740
いいよ	-15741
うまい	-15742
おめで	-15743
お互い	-15744
かなど	-15745
が動く	-15746
きっち	-15747
こそぎ	-15748
させろ	-15749
さーん	-15750
するよ	-15751
する中	-15752
そうも	-15753
そっぽ	-15754
たって	-15755
だよな	-15756
ちょっ	-15757
っかい	-15758
ていき	-15759
と彼は	-15760
なおす	-15761
に戻り	-15762
の一行	-15763
の存在	-15764
の方で	-15765
の男は	-15766
は良い	-15767
ふらと	-15768
もらう	-15769
よその	-15770
りして	-15771
るべく	-15772
を描き	-15773
を頼む	-15774
んなあ	-15775
カッカ	-15776
カ所に	-15777
クロス	-15778
コース	-15779
コート	-15780
ジュプ	-15781
セイン	-15782
チャク	-15783
ッッッ	-15784
ニング	-15785
フード	-15786
レーネ	-15787
ワーク	-15788
ートル	-15789
ーーっ	-15790
一つに	-15791
一ヶ月	-15792
一応は	-15793
一番の	-15794
一瞬の	-15795
一行は	-15796
下手を	-15797
不可欠	-15798
二人も	-15799
人差し	-15800
今年は	-15801
伴って	-15802
何年も	-15803
使いの	-15804
使い方	-15805
信仰を	-15806
内部に	-15807
出来事	-15808
利用し	-15809
刻んだ	-15810
単独で	-15811
参加者	-15812
名乗る	-15813
吐いた	-15814
呼吸が	-15815
唇から	-15816
商品を	-15817
声を荒	-15818
声音に	-15819
大げさ	-15820
大勢の	-15821
大聖教	-15822
太陽を	-15823
差し支	-15824
広間に	-15825
引き換	-15826
後ろへ	-15827
応える	-15828
性質を	-15829
怪鳥が	-15830
悪感情	-15831
悲鳴と	-15832
情報屋	-15833
我に返	-15834
戦士が	-15835
手一杯	-15836
打って	-15837
拾った	-15838
指輪の	-15839
掛から	-15840
攻める	-15841
攻撃も	-15842
日々を	-15843
更には	-15844
書いた	-15845
木っ端	-15846
未来視	-15847
村の大	-15848
桃色の	-15849
極上の	-15850
気づか	-15851
注いで	-15852
澄んだ	-15853
灰の王	-15854
無事か	-15855
焦牢の	-15856
煌めく	-15857
父ちゃ	-15858
状態が	-15859
状況の	-15860
疲れて	-15861
白亜の	-15862
目で見	-15863
相当の	-15864
真っ暗	-15865
真美は	-15866
着いた	-15867
神官は	-15868
程度は	-15869
空へと	-15870
立場の	-15871
立場上	-15872
精霊達	-15873
紛れて	-15874
緩める	-15875
縄張り	-15876
纏った	-15877
考え方	-15878
聖遺物	-15879
菓子を	-15880
薄気味	-15881
被害者	-15882
装備が	-15883
覆った	-15884
視線の	-15885
言い方	-15886
詠唱を	-15887
説明は	-15888
読んで	-15889
調子で	-15890
足場に	-15891
辺りで	-15892
辺りに	-15893
迷宮化	-15894
這わせ	-15895
速度と	-15896
道具を	-15897
遠目に	-15898
部隊は	-15899
都市で	-15900
釘付け	-15901
銀髪の	-15902
防具は	-15903
食事の	-15904
高速で	-15905
魔力も	-15906
魔族の	-15907
rano	-15908
▁きっと	-15909
▁二つの	-15910
▁最初に	-15911
▁淡々と	-15912
▁自らの	-15913
▁迷宮の	-15914
▁魔女が	-15915
ありがと	-15916
ある意味	-15917
いられる	-15918
かなって	-15919
が増える	-15920
が激しく	-15921
きちんと	-15922
けられる	-15923
こうとも	-15924
ことある	-15925
さっきの	-15926
されたが	-15927
していい	-15928
すっごい	-15929
するので	-15930
そうなの	-15931
そうねえ	-15932
そこそこ	-15933
そっちも	-15934
だったと	-15935
だったよ	-15936
っかかり	-15937
できます	-15938
というの	-15939
という名	-15940
とすれば	-15941
とのこと	-15942
と同様に	-15943
と思うか	-15944
どこかの	-15945
なったが	-15946
には十分	-15947
に反して	-15948
に思わず	-15949
の手入れ	-15950
はっきり	-15951
は本当に	-15952
へと至る	-15953
むにむに	-15954
られたら	-15955
わされた	-15956
を告げる	-15957
を教えて	-15958
を超えた	-15959
アイツら	-15960
スガルド	-15961
スープを	-15962
チェック	-15963
ニシンは	-15964
ラウンド	-15965
乗り越え	-15966
付けられ	-15967
何の問題	-15968
保有する	-15969
停止した	-15970
原始的な	-15971
受け取り	-15972
名無し達	-15973
変貌する	-15974
外に出た	-15975
多すぎる	-15976
奇妙なる	-15977
完全なる	-15978
引き起こ	-15979
当たりに	-15980
彼女自身	-15981
怖ろしい	-15982
悪いけど	-15983
操り人形	-15984
攻撃を仕	-15985
油断なく	-15986
済まない	-15987
燻製小屋	-15988
爽やかな	-15989
瓦礫の山	-15990
神官達の	-15991
突っ込み	-15992
糸切奇居	-15993
結果的に	-15994
維持する	-15995
者がいた	-15996
自分では	-15997
自分より	-15998
血が噴き	-15999
許された	-16000
話し合い	-16001
購入した	-16002
進まない	-16003
雄チンポ	-16004
音がする	-16005
飛ばして	-16006
飛び回る	-16007
魔法陣を	-16008
魔術刻印	-16009
黒炎鬼の	-16010
▁その結果	-16011
▁どちらも	-16012
▁ウル達は	-16013
▁グリード	-16014
▁ザインは	-16015
▁気付けば	-16016
あのような	-16017
いなければ	-16018
いられない	-16019
いろいろと	-16020
が発生した	-16021
ここに来た	-16022
この場所を	-16023
したくない	-16024
してもいい	-16025
しまわない	-16026
すぎている	-16027
そうなので	-16028
そのことを	-16029
その中でも	-16030
その動きは	-16031
それ自体が	-16032
たたき込む	-16033
だけである	-16034
だろうけど	-16035
つまらない	-16036
なのですが	-16037
になるまで	-16038
を取り出し	-16039
を破壊する	-16040
ウルもまた	-16041
ガルーダの	-16042
キスをする	-16043
セックスは	-16044
バランスが	-16045
ボロボロの	-16046
ラビィンの	-16047
ヴァルハラ	-16048
伸びている	-16049
住んでいる	-16050
何が起きた	-16051
余裕がある	-16052
入ってくる	-16053
叫んでいた	-16054
吐き捨てる	-16055
増していく	-16056
当然のこと	-16057
必死だった	-16058
必要とする	-16059
意味がある	-16060
意味がない	-16061
慣れていた	-16062
抜いている	-16063
構えている	-16064
気配を感じ	-16065
混沌とした	-16066
絶え間なく	-16067
縫うように	-16068
考えられる	-16069
自分よりも	-16070
見えるのは	-16071
設置された	-16072
迫っている	-16073
迷宮大乱立	-16074
都市民達は	-16075
▁そういった	-16076
▁そのことに	-16077
▁ノートンは	-16078
▁自分たちの	-16079
ことも出来る	-16080
しているのが	-16081
することなく	-16082
たった一人で	-16083
であるが故に	-16084
というだけの	-16085
という事実は	-16086
ばかりだった	-16087
ようとしたが	-16088
りをしている	-16089
を使っている	-16090
を眺めていた	-16091
ウルは彼女の	-16092
シアーシャへ	-16093
ライトノベル	-16094
切り裂かれた	-16095
尋常ではない	-16096
感じさせない	-16097
時間が掛かる	-16098
次の瞬間には	-16099
正確に言えば	-16100
気にしている	-16101
確信している	-16102
祈りを捧げる	-16103
行かなかった	-16104
観察していた	-16105
避けられない	-16106
▁それにしても	-16107
▁だがそれでも	-16108
かも知れないが	-16109
ことを考えると	-16110
と思うんだよね	-16111
と思っていると	-16112
に巻き込まれた	-16113
動かなくなった	-16114
確かめるように	-16115
竜呑都市ウーガ	-16116
納得したように	-16117
アアアアアアアア	-16118
シグヴァルド様が	-16119
大罪都市グリード	-16120
楽しそうに笑った	-16121
よろしいでしょうか	-16122
ことしかできなかった	-16123
.............	-16124
▁■	-16125
▁ぐ	-16126
▁し	-16127
▁よ	-16128
▁ツ	-16129
▁嘘	-16130
▁夏	-16131
▁異	-16132
▁闇	-16133
、、	-16134
うそ	-16135
えよ	-16136
こた	-16137
さだ	-16138
じゅ	-16139
じり	-16140
すす	-16141
そび	-16142
にあ	-16143
はた	-16144
むむ	-16145
めず	-16146
ゆが	-16147
わっ	-16148
ガガ	-16149
ガク	-16150
キデ	-16151
サマ	-16152
タリ	-16153
ッキ	-16154
ナン	-16155
ヘラ	-16156
一転	-16157
下へ	-16158
丸い	-16159
主よ	-16160
亀裂	-16161
五月	-16162
些か	-16163
人体	-16164
保て	-16165
停泊	-16166
光で	-16167
兼ね	-16168
冬に	-16169
分担	-16170
別だ	-16171
剣技	-16172
劣る	-16173
十三	-16174
反則	-16175
喰い	-16176
団の	-16177
国を	-16178
土壇	-16179
変幻	-16180
多種	-16181
宍戸	-16182
実現	-16183
客の	-16184
家も	-16185
崩す	-16186
席に	-16187
平ら	-16188
店は	-16189
当事	-16190
当人	-16191
恥辱	-16192
感の	-16193
扉の	-16194
担保	-16195
指に	-16196
描き	-16197
支障	-16198
放棄	-16199
映す	-16200
時を	-16201
晴れ	-16202
暴動	-16203
望遠	-16204
期に	-16205
楽に	-16206
樽は	-16207
機動	-16208
欠落	-16209
正す	-16210
正当	-16211
歪に	-16212
歪む	-16213
残滓	-16214
残酷	-16215
民は	-16216
淡い	-16217
満載	-16218
潜口	-16219
無傷	-16220
無敵	-16221
無比	-16222
熱源	-16223
爪蟲	-16224
牙を	-16225
狭く	-16226
田舎	-16227
留守	-16228
目だ	-16229
知能	-16230
短剣	-16231
石鹸	-16232
純潔	-16233
続行	-16234
肌の	-16235
胸板	-16236
脂肪	-16237
自立	-16238
臭が	-16239
船が	-16240
花が	-16241
荒野	-16242
蜜蜂	-16243
衆が	-16244
衛生	-16245
裂け	-16246
補う	-16247
見ろ	-16248
角が	-16249
貿易	-16250
賢明	-16251
走れ	-16252
足元	-16253
路の	-16254
述べ	-16255
追跡	-16256
速攻	-16257
逡巡	-16258
遮音	-16259
部は	-16260
開門	-16261
雄に	-16262
集約	-16263
集落	-16264
順位	-16265
風乾	-16266
飲め	-16267
馬に	-16268
駆り	-16269
騒乱	-16270
黙れ	-16271
!】」	-16272
▁セツ	-16273
▁七天	-16274
▁依頼	-16275
▁即ち	-16276
▁幼い	-16277
▁強く	-16278
▁拳聖	-16279
▁機神	-16280
▁目を	-16281
▁逆に	-16282
えたぎ	-16283
えます	-16284
おった	-16285
おろか	-16286
かもな	-16287
が入り	-16288
ささか	-16289
しさは	-16290
せいだ	-16291
そんで	-16292
ちょく	-16293
ちょろ	-16294
っとも	-16295
とかで	-16296
どおり	-16297
な態度	-16298
の下で	-16299
の場所	-16300
の姿勢	-16301
の時は	-16302
らねえ	-16303
を再開	-16304
を知る	-16305
を突く	-16306
を行使	-16307
を開く	-16308
ウルや	-16309
カット	-16310
ガラス	-16311
キデウ	-16312
コスト	-16313
コレが	-16314
ズボン	-16315
ページ	-16316
マンコ	-16317
マント	-16318
モノは	-16319
リカリ	-16320
不可視	-16321
不快な	-16322
両手に	-16323
事には	-16324
五月蠅	-16325
今さら	-16326
体つき	-16327
何度目	-16328
価値が	-16329
倒れて	-16330
偉業を	-16331
割れて	-16332
勢いに	-16333
匂いに	-16334
匂いは	-16335
収まり	-16336
君たち	-16337
固めた	-16338
土地の	-16339
圧倒的	-16340
墜ちた	-16341
多量の	-16342
大騒ぎ	-16343
嫉妬の	-16344
学んだ	-16345
実際は	-16346
寄って	-16347
寄り添	-16348
封じた	-16349
尻穴を	-16350
届かぬ	-16351
巨体が	-16352
建てる	-16353
当ては	-16354
役割を	-16355
忌み嫌	-16356
快楽の	-16357
思いの	-16358
急激に	-16359
意図は	-16360
愛液を	-16361
感情に	-16362
慌てる	-16363
所まで	-16364
手に負	-16365
扱いが	-16366
技術も	-16367
抱えた	-16368
指輪を	-16369
揺るが	-16370
支払う	-16371
支配者	-16372
断った	-16373
施設を	-16374
早くも	-16375
早めに	-16376
明日の	-16377
有名な	-16378
未来の	-16379
本人の	-16380
殺しに	-16381
民会で	-16382
求めて	-16383
渾身の	-16384
満足に	-16385
溢れて	-16386
溶けた	-16387
無様な	-16388
熟練の	-16389
物騒な	-16390
特異な	-16391
狂爪蟲	-16392
生命の	-16393
用いた	-16394
痛みは	-16395
癒やす	-16396
直して	-16397
石灰の	-16398
確かだ	-16399
空中に	-16400
範囲は	-16401
精液を	-16402
経った	-16403
経験の	-16404
肉欲の	-16405
自体も	-16406
舌を絡	-16407
良いな	-16408
行為を	-16409
表向き	-16410
褒めて	-16411
襲撃の	-16412
見つめ	-16413
視する	-16414
角折れ	-16415
言いつ	-16416
訴える	-16417
誰かを	-16418
豊かに	-16419
賭けた	-16420
込みで	-16421
通りだ	-16422
運んだ	-16423
長きに	-16424
長船を	-16425
開かれ	-16426
防具の	-16427
降りて	-16428
隊長の	-16429
隠れた	-16430
音を鳴	-16431
額から	-16432
騒動の	-16433
魔物だ	-16434
▁その点	-16435
▁ケイン	-16436
▁場所は	-16437
▁実際に	-16438
々として	-16439
】】】」	-16440
あたりの	-16441
おまけに	-16442
お互いに	-16443
からねえ	-16444
から引き	-16445
から逃げ	-16446
この男が	-16447
ざわめき	-16448
しないが	-16449
すべてを	-16450
するから	-16451
ずにいた	-16452
せいぜい	-16453
そのため	-16454
その姿に	-16455
その様子	-16456
それ以降	-16457
ですらも	-16458
ときどき	-16459
ともなく	-16460
とウルが	-16461
とスール	-16462
と思うよ	-16463
と思える	-16464
なさいよ	-16465
なのかも	-16466
に備えて	-16467
に入ると	-16468
に限らず	-16469
の中にも	-16470
の中心地	-16471
の少ない	-16472
の形相で	-16473
は正しい	-16474
へと足を	-16475
まあいい	-16476
まである	-16477
やろうと	-16478
よくない	-16479
を睨んだ	-16480
アカネ様	-16481
イレギュ	-16482
コールド	-16483
ションを	-16484
ジュース	-16485
スモーク	-16486
ボールを	-16487
メダル様	-16488
ルキデウ	-16489
ロック様	-16490
ローズは	-16491
不安定な	-16492
事は無い	-16493
伸ばして	-16494
出さずに	-16495
分かって	-16496
到着した	-16497
剣を振り	-16498
力だった	-16499
反応した	-16500
受け取る	-16501
向こうも	-16502
呼ばれる	-16503
問いかけ	-16504
変わって	-16505
奪われて	-16506
守るべき	-16507
容易には	-16508
弾かれた	-16509
彼自身の	-16510
従者達が	-16511
従者達の	-16512
従者達は	-16513
忌々しい	-16514
思いつき	-16515
悪いこと	-16516
悪態をつ	-16517
愛らしい	-16518
手つきで	-16519
手を振り	-16520
手放した	-16521
抱き寄せ	-16522
斬られた	-16523
楽しげに	-16524
歩き出す	-16525
無防備に	-16526
物言いに	-16527
痛かった	-16528
直接的に	-16529
破壊され	-16530
突撃した	-16531
簡単には	-16532
考えずに	-16533
聞かせて	-16534
自分自身	-16535
誰だって	-16536
護衛対象	-16537
送られて	-16538
通らない	-16539
長いこと	-16540
長い年月	-16541
隠された	-16542
震わせた	-16543
風来鮊の	-16544
馬鹿馬鹿	-16545
黄金級の	-16546
▁この世界	-16547
▁カルメは	-16548
▁ユーリが	-16549
▁ユーリの	-16550
いでしょう	-16551
おうとして	-16552
かろうじて	-16553
この世界を	-16554
この場所に	-16555
させるのは	-16556
してくれて	-16557
そうである	-16558
そうですよ	-16559
それぐらい	-16560
それすらも	-16561
ためだけに	-16562
って言った	-16563
つけている	-16564
つけてきた	-16565
つけてくる	-16566
できるはず	-16567
ですらない	-16568
というべき	-16569
と思ってた	-16570
どうしたら	-16571
なんだがな	-16572
になるのか	-16573
へと向けた	-16574
ものを見る	-16575
ようですね	-16576
を見上げた	-16577
を見送った	-16578
ガルーダは	-16579
セックスを	-16580
ダメージは	-16581
デメリット	-16582
プレゼント	-16583
上げられる	-16584
付けていた	-16585
入ってきた	-16586
出来るだけ	-16587
剣を構える	-16588
力を込めて	-16589
叫びながら	-16590
叫んでいる	-16591
向けてくる	-16592
告げていた	-16593
問題なのは	-16594
困難だった	-16595
地面を蹴り	-16596
姿勢を低く	-16597
安全な場所	-16598
巻き起こる	-16599
彼の身体を	-16600
必要だった	-16601
振りかぶる	-16602
振り返って	-16603
揺れている	-16604
来なかった	-16605
正直言って	-16606
盛り上がる	-16607
目的とした	-16608
真っ向から	-16609
確認できた	-16610
竜の身体を	-16611
籠められた	-16612
羽目になる	-16613
自分と同じ	-16614
自分以外の	-16615
行っている	-16616
解放された	-16617
言い放った	-16618
誰の目にも	-16619
踏み込んだ	-16620
込みながら	-16621
込むような	-16622
近くにいた	-16623
追いかける	-16624
部屋の中で	-16625
都合が良い	-16626
重ねられた	-16627
重要なのは	-16628
間違えれば	-16629
頭を撫でた	-16630
食らいつく	-16631
黒炎砂漠の	-16632
▁そして現在	-16633
▁その言葉を	-16634
▁ウルバスは	-16635
▁カルカラが	-16636
こんなことを	-16637
させるために	-16638
されなかった	-16639
したのだろう	-16640
そうでもない	-16641
そう考えると	-16642
つかなかった	-16643
とっくの昔に	-16644
とはまた違う	-16645
とは思っても	-16646
と言うよりも	-16647
と言って良い	-16648
などなかった	-16649
についている	-16650
の声を上げる	-16651
イスラリアで	-16652
イレギュラー	-16653
スガルドの神	-16654
ルーン文字で	-16655
上がっていく	-16656
使われている	-16657
冒険者たちを	-16658
助けを求める	-16659
大きくなった	-16660
感じなかった	-16661
生まれながら	-16662
行きましょう	-16663
▁そんなわけで	-16664
▁グロンゾンは	-16665
▁普段であれば	-16666
からはほど遠い	-16667
してくれている	-16668
でしかなかった	-16669
と言われている	-16670
どころではない	-16671
なきゃいけない	-16672
のようなものを	-16673
ギークの逸物が	-16674
ダールとスール	-16675
向けられている	-16676
様子はなかった	-16677
視線を向けると	-16678
▁イスラリア大陸	-16679
ことはないだろう	-16680
わけには行かない	-16681
アルンビョルンの	-16682
痛い痛い痛い痛い	-16683
させていただきます	-16684
カーラーレイ一族の	-16685
▁「......❤」	-16686
とは思っていなかった	-16687
aaaaaaaaaaaaaaaa	-16688
yy	-16689
▁別	-16690
▁寝	-16691
▁山	-16692
▁敵	-16693
▁暗	-16694
▁薬	-16695
うえ	-16696
えん	-16697
おと	-16698
が書	-16699
けの	-16700
さむ	-16701
そと	-16702
だあ	-16703
の声	-16704
の表	-16705
みと	-16706
むと	-16707
めか	-16708
もー	-16709
を遂	-16710
んば	-16711
カチ	-16712
カリ	-16713
ケー	-16714
スに	-16715
ズム	-16716
ペラ	-16717
ミン	-16718
一層	-16719
不運	-16720
予め	-16721
人共	-16722
人影	-16723
人骨	-16724
伝達	-16725
偵察	-16726
偽竜	-16727
傍ら	-16728
優れ	-16729
先導	-16730
先行	-16731
克服	-16732
全能	-16733
前と	-16734
動じ	-16735
卑怯	-16736
単調	-16737
即死	-16738
却下	-16739
反吐	-16740
収め	-16741
同然	-16742
吹く	-16743
和ら	-16744
咎め	-16745
唸り	-16746
器に	-16747
回は	-16748
壁は	-16749
夕方	-16750
夜を	-16751
失せ	-16752
定か	-16753
宿す	-16754
小柄	-16755
布で	-16756
平然	-16757
強度	-16758
後ず	-16759
微動	-16760
徴税	-16761
心と	-16762
怯む	-16763
悪用	-16764
慰め	-16765
懸命	-16766
手前	-16767
投入	-16768
投票	-16769
指は	-16770
指定	-16771
揚げ	-16772
新調	-16773
昇華	-16774
時点	-16775
晶纏	-16776
有望	-16777
末裔	-16778
本体	-16779
朽ち	-16780
杭が	-16781
根性	-16782
止む	-16783
歩幅	-16784
気力	-16785
気質	-16786
洒落	-16787
消化	-16788
液が	-16789
温度	-16790
漁業	-16791
無効	-16792
無機	-16793
無縁	-16794
狂信	-16795
玩具	-16796
現代	-16797
男も	-16798
痛む	-16799
発掘	-16800
相性	-16801
真偽	-16802
知性	-16803
短期	-16804
破砕	-16805
空で	-16806
端が	-16807
競争	-16808
筋が	-16809
紡ぎ	-16810
経歴	-16811
耳は	-16812
聖堂	-16813
肩の	-16814
胸は	-16815
脚で	-16816
自負	-16817
舌に	-16818
船の	-16819
薪を	-16820
衆は	-16821
補足	-16822
親が	-16823
解く	-16824
託す	-16825
説教	-16826
責め	-16827
赤の	-16828
起点	-16829
踏破	-16830
退屈	-16831
遺跡	-16832
部が	-16833
量産	-16834
金と	-16835
阻む	-16836
阻止	-16837
雫が	-16838
領主	-16839
顔面	-16840
食ら	-16841
食糧	-16842
髪型	-16843
鬼気	-16844
麻痺	-16845
▁「”	-16846
▁ふっ	-16847
▁トロ	-16848
▁ビュ	-16849
▁二人	-16850
▁声を	-16851
▁怪我	-16852
▁振り	-16853
▁銀級	-16854
▁長く	-16855
▁頭部	-16856
いでも	-16857
いねえ	-16858
うっと	-16859
うつむ	-16860
およそ	-16861
お前達	-16862
きれず	-16863
ぎょろ	-16864
したし	-16865
するわ	-16866
そう思	-16867
その中	-16868
たいと	-16869
ため息	-16870
たらし	-16871
だんだ	-16872
っこう	-16873
と違い	-16874
なしで	-16875
にも拘	-16876
に変化	-16877
に響く	-16878
のお陰	-16879
の外套	-16880
の断片	-16881
の時間	-16882
の竜を	-16883
の管理	-16884
はいた	-16885
やめた	-16886
るのが	-16887
れたら	-16888
れるか	-16889
を待つ	-16890
を見送	-16891
んすか	-16892
ダウン	-16893
ノイズ	-16894
ピング	-16895
プラグ	-16896
メンツ	-16897
ラスタ	-16898
ルイ様	-16899
レット	-16900
一帯を	-16901
一本の	-16902
一苦労	-16903
下まで	-16904
不自由	-16905
世話を	-16906
乙女の	-16907
事態に	-16908
仕打ち	-16909
以上が	-16910
伸介は	-16911
住民の	-16912
余裕は	-16913
作業の	-16914
信仰が	-16915
働いて	-16916
再起動	-16917
分には	-16918
力任せ	-16919
勇者様	-16920
協力し	-16921
危険性	-16922
厚手の	-16923
厳しく	-16924
反応し	-16925
右腕が	-16926
同士で	-16927
問題に	-16928
囁かれ	-16929
堪える	-16930
塞いだ	-16931
大人が	-16932
大暴れ	-16933
大王の	-16934
天井に	-16935
女王の	-16936
嫌悪感	-16937
存外に	-16938
届ける	-16939
干し草	-16940
廊下を	-16941
引き千	-16942
影響を	-16943
彼等に	-16944
応えた	-16945
恐れる	-16946
悪意を	-16947
悪趣味	-16948
愚痴を	-16949
感想は	-16950
感触に	-16951
戦力は	-16952
戸惑う	-16953
手の甲	-16954
手伝い	-16955
手元に	-16956
手放す	-16957
払いを	-16958
振ると	-16959
揺らが	-16960
断末魔	-16961
有能な	-16962
望んで	-16963
期に及	-16964
村でも	-16965
来たれ	-16966
死人が	-16967
残して	-16968
段階で	-16969
気を失	-16970
汲んで	-16971
沈んだ	-16972
泊まり	-16973
法衣の	-16974
泣いて	-16975
派手な	-16976
消し去	-16977
減らす	-16978
渦巻く	-16979
焼きの	-16980
牙を剥	-16981
特定の	-16982
狙った	-16983
狙って	-16984
理性が	-16985
発的に	-16986
目的地	-16987
相手だ	-16988
真っ青	-16989
短期間	-16990
移動し	-16991
空けた	-16992
窮地を	-16993
竜達を	-16994
経験を	-16995
聖女様	-16996
脳みそ	-16997
膨らみ	-16998
自慢の	-16999
表に出	-17000
見込み	-17001
視界は	-17002
護符を	-17003
豊満な	-17004
賜った	-17005
蹴散ら	-17006
身体も	-17007
追って	-17008
逃げ惑	-17009
透明の	-17010
這いの	-17011
連中を	-17012
過剰な	-17013
都市外	-17014
鋭利な	-17015
鐘の音	-17016
長い間	-17017
閉じて	-17018
防壁が	-17019
集った	-17020
頭を過	-17021
馬車が	-17022
馬車の	-17023
馴染み	-17024
駆けた	-17025
高まり	-17026
▁ずっと	-17027
▁むしろ	-17028
▁同じく	-17029
▁奇妙な	-17030
▁慌てて	-17031
▁普段の	-17032
▁此処に	-17033
▁通常の	-17034
▁部屋の	-17035
▁随分と	-17036
あそこは	-17037
がすごい	-17038
がゆえに	-17039
が変わる	-17040
が必要だ	-17041
この男の	-17042
この街の	-17043
さを感じ	-17044
すっころ	-17045
せるのは	-17046
そいつは	-17047
その仕草	-17048
その為の	-17049
それには	-17050
だけだよ	-17051
だろうさ	-17052
っても尚	-17053
と同じだ	-17054
と笑った	-17055
と聞いた	-17056
なくては	-17057
のところ	-17058
のも無理	-17059
の一撃を	-17060
の内側で	-17061
ぶつぶつ	-17062
まき散ら	-17063
まとまり	-17064
まとめた	-17065
めんどく	-17066
もなにも	-17067
やたらと	-17068
やるから	-17069
をとった	-17070
を向いて	-17071
を抑える	-17072
を止める	-17073
を終えて	-17074
アングル	-17075
イカザが	-17076
カップを	-17077
ギルドへ	-17078
コチラに	-17079
チームが	-17080
ローズの	-17081
伝えると	-17082
何故なら	-17083
兵士達は	-17084
切っ掛け	-17085
剥ぎ取り	-17086
動かせる	-17087
基本的な	-17088
大きさは	-17089
太刀打ち	-17090
奴がいる	-17091
嫌がらせ	-17092
守られた	-17093
席を立つ	-17094
弱々しく	-17095
強大なる	-17096
思い知ら	-17097
投げやり	-17098
断ち切る	-17099
根本的な	-17100
溜まった	-17101
溢れ出る	-17102
無防備な	-17103
狙われる	-17104
生き残り	-17105
白王陣は	-17106
目掛けて	-17107
相対した	-17108
砕け散り	-17109
笑い声が	-17110
粉みじん	-17111
緩やかに	-17112
繰り出す	-17113
考えたが	-17114
腕を組み	-17115
腰を浮か	-17116
自分達を	-17117
至る所に	-17118
苦笑いを	-17119
荒れ狂う	-17120
覆い被さ	-17121
覚えない	-17122
言うなら	-17123
話である	-17124
謳われる	-17125
距離を取	-17126
身に纏い	-17127
込んでも	-17128
近接戦闘	-17129
遮音魔法	-17130
都市から	-17131
都市民達	-17132
離さない	-17133
驚くほど	-17134
▁その上で	-17135
▁グレンの	-17136
▁天陽騎士	-17137
▁宝石人形	-17138
▁明らかに	-17139
▁目の前に	-17140
▁真っ黒な	-17141
▁背後から	-17142
いきません	-17143
いっぱいに	-17144
いています	-17145
おめでとう	-17146
が始まって	-17147
が行われる	-17148
くれないか	-17149
こちらから	-17150
ことも無く	-17151
したという	-17152
そういう事	-17153
その場所は	-17154
それなのに	-17155
それもまた	-17156
できていた	-17157
という事は	-17158
という名の	-17159
という思い	-17160
とは思えぬ	-17161
どうなった	-17162
にも見える	-17163
に手を出す	-17164
ひとしきり	-17165
べきだった	-17166
ほどまでに	-17167
もう一つの	-17168
も何もかも	-17169
やってきて	-17170
よりはマシ	-17171
ろうとして	-17172
を持ってい	-17173
を見る限り	-17174
ストリゴで	-17175
ダメージが	-17176
チャクチャ	-17177
ハリアンに	-17178
ビーカンの	-17179
ベッドから	-17180
ヤサエルは	-17181
一見すると	-17182
仕事がある	-17183
何もかもを	-17184
入るように	-17185
入れていた	-17186
受けていた	-17187
叩きながら	-17188
寄ってくる	-17189
封じられた	-17190
尋ねてくる	-17191
少し離れた	-17192
彼女の前に	-17193
彼女の身体	-17194
彼女自身が	-17195
悲鳴を上げ	-17196
意識を集中	-17197
手を出して	-17198
暴れている	-17199
流れている	-17200
満足そうに	-17201
特製の大麦	-17202
白の蟒蛇の	-17203
白の魔女の	-17204
笑みだった	-17205
精霊憑きの	-17206
終わったら	-17207
終わらない	-17208
自分たちに	-17209
訳でもない	-17210
話しかける	-17211
認められる	-17212
距離を取り	-17213
輝きを放つ	-17214
迫ってくる	-17215
進めている	-17216
運命の聖女	-17217
部屋の中央	-17218
頭を撫でる	-17219
飲んでいる	-17220
魔力を吸収	-17221
鳴らされる	-17222
鼻で笑った	-17223
▁エルシアは	-17224
▁父ちゃんの	-17225
あるいはその	-17226
いらっしゃい	-17227
からといって	-17228
がないことを	-17229
くはなかった	-17230
ぐしゃぐしゃ	-17231
こちらを見る	-17232
していたのか	-17233
してしまえば	-17234
そうな表情で	-17235
それはつまり	-17236
たった一人の	-17237
っていました	-17238
であるならば	-17239
とは言っても	-17240
ならともかく	-17241
みたいだけど	-17242
も同じように	-17243
わかりません	-17244
を受け入れる	-17245
を思い出した	-17246
アルノルドの	-17247
イスラリアが	-17248
助けてくれた	-17249
大したものだ	-17250
子供のような	-17251
広がっていた	-17252
彼女の言葉に	-17253
彼女の言葉を	-17254
慣れていない	-17255
気分になった	-17256
理解できずに	-17257
確信していた	-17258
繰り出される	-17259
繰り返される	-17260
聞こえていた	-17261
自分のことを	-17262
血が噴き出す	-17263
視線の先には	-17264
言わなかった	-17265
詰まっている	-17266
詰まるところ	-17267
話にならない	-17268
誰一人として	-17269
起こっている	-17270
追い出された	-17271
▁アナスタシア	-17272
▁シグリズ様は	-17273
そういうことだ	-17274
そうな顔をした	-17275
のはあまりにも	-17276
見たことがない	-17277
しているのだろう	-17278
することになった	-17279
ボロボロになった	-17280
襲いかかってくる	-17281
越したことはない	-17282
▁大罪迷宮グリード	-17283
クナトルレイク競技	-17284
大罪都市エンヴィー	-17285
▁「......!」	-17286
kk	-17287
▁ご	-17288
▁作	-17289
▁友	-17290
▁熱	-17291
▁盾	-17292
▁馬	-17293
おぉ	-17294
おこ	-17295
お手	-17296
がき	-17297
がた	-17298
けが	-17299
けで	-17300
ごた	-17301
ごち	-17302
せせ	-17303
そぐ	-17304
そん	-17305
たば	-17306
っは	-17307
の利	-17308
の王	-17309
はて	-17310
ふる	-17311
まぶ	-17312
やー	-17313
をひ	-17314
を貪	-17315
を逃	-17316
オナ	-17317
スイ	-17318
スポ	-17319
ツメ	-17320
ツン	-17321
ヒビ	-17322
ミシ	-17323
モニ	-17324
リジ	-17325
リフ	-17326
ーな	-17327
ーブ	-17328
一組	-17329
万象	-17330
不浄	-17331
主を	-17332
二匹	-17333
二回	-17334
二重	-17335
人や	-17336
人種	-17337
人身	-17338
伝統	-17339
住宅	-17340
体質	-17341
何十	-17342
併設	-17343
冬は	-17344
出で	-17345
切羽	-17346
刹那	-17347
割く	-17348
効く	-17349
勅命	-17350
勝機	-17351
北欧	-17352
古参	-17353
号令	-17354
同類	-17355
品は	-17356
堂々	-17357
大層	-17358
女と	-17359
奴に	-17360
嬉し	-17361
存外	-17362
孤独	-17363
室を	-17364
家具	-17365
審問	-17366
対立	-17367
封鎖	-17368
小瓶	-17369
巨星	-17370
席で	-17371
席の	-17372
帰れ	-17373
度々	-17374
延ば	-17375
引け	-17376
強者	-17377
悲劇	-17378
惨な	-17379
惨状	-17380
成る	-17381
我等	-17382
拒む	-17383
換金	-17384
損失	-17385
摘ま	-17386
散る	-17387
昇り	-17388
景色	-17389
月の	-17390
望ま	-17391
朝は	-17392
木材	-17393
未練	-17394
机を	-17395
柱を	-17396
格差	-17397
案を	-17398
棍を	-17399
植物	-17400
構い	-17401
槍で	-17402
次々	-17403
欲を	-17404
歩行	-17405
没頭	-17406
法で	-17407
法は	-17408
洞窟	-17409
浮上	-17410
滴る	-17411
漆喰	-17412
灼炎	-17413
災禍	-17414
物言	-17415
狡猾	-17416
玉を	-17417
理念	-17418
画面	-17419
直な	-17420
相互	-17421
相棒	-17422
眩く	-17423
瞑想	-17424
矢を	-17425
石で	-17426
砂の	-17427
竜だ	-17428
粛正	-17429
精を	-17430
紫紺	-17431
緒に	-17432
線は	-17433
翡翠	-17434
育つ	-17435
脊髄	-17436
脚甲	-17437
脱力	-17438
腔内	-17439
臨戦	-17440
自室	-17441
自重	-17442
色と	-17443
苦悶	-17444
蓮は	-17445
薪の	-17446
蘇生	-17447
街が	-17448
街へ	-17449
見学	-17450
解答	-17451
試し	-17452
試作	-17453
該当	-17454
認定	-17455
足場	-17456
軽減	-17457
轟音	-17458
追及	-17459
逆ら	-17460
這う	-17461
過酷	-17462
遺産	-17463
配布	-17464
醸し	-17465
鎧に	-17466
長の	-17467
長年	-17468
門番	-17469
雑務	-17470
雨が	-17471
青の	-17472
非難	-17473
飽き	-17474
魅せ	-17475
鼻が	-17476
~~~	-17477
▁ぁッ	-17478
▁ふと	-17479
▁ムニ	-17480
▁何の	-17481
▁去年	-17482
▁多少	-17483
▁年齢	-17484
▁幼少	-17485
▁抵抗	-17486
▁持ち	-17487
▁曰く	-17488
▁最も	-17489
▁最近	-17490
▁未だ	-17491
▁相手	-17492
▁神の	-17493
▁突き	-17494
▁腰を	-17495
▁若い	-17496
▁貴族	-17497
▁赤い	-17498
▁過去	-17499
うなだ	-17500
おばあ	-17501
かえる	-17502
かけの	-17503
かもね	-17504
が完成	-17505
が足り	-17506
くさい	-17507
くすぐ	-17508
ここを	-17509
こんに	-17510
じみた	-17511
せせら	-17512
それの	-17513
たれる	-17514
だいた	-17515
だしな	-17516
っしょ	-17517
っぱい	-17518
でいた	-17519
でもう	-17520
で済む	-17521
どうな	-17522
どこへ	-17523
なおも	-17524
に浸る	-17525
のよね	-17526
の一番	-17527
の情報	-17528
の方だ	-17529
の間を	-17530
はじめ	-17531
はやく	-17532
は可能	-17533
は必須	-17534
ぱっと	-17535
ひとつ	-17536
ひとり	-17537
まあな	-17538
むべき	-17539
やるか	-17540
らかな	-17541
わざる	-17542
わたし	-17543
を優先	-17544
を無視	-17545
を確保	-17546
を解く	-17547
を開き	-17548
んだり	-17549
んなよ	-17550
アクセ	-17551
ウルだ	-17552
オヤジ	-17553
ガード	-17554
グルー	-17555
ゲージ	-17556
シチュ	-17557
ツメク	-17558
バトル	-17559
パンの	-17560
フレイ	-17561
ブルー	-17562
マジか	-17563
ラビア	-17564
ワシは	-17565
ヴィク	-17566
上へと	-17567
不可解	-17568
互いが	-17569
交易の	-17570
人形を	-17571
仄かに	-17572
仕事も	-17573
仕留め	-17574
付け足	-17575
代物だ	-17576
体力は	-17577
体力も	-17578
使命を	-17579
依頼が	-17580
依頼書	-17581
信頼を	-17582
俺達に	-17583
個体が	-17584
傭兵だ	-17585
働いた	-17586
光景だ	-17587
内部で	-17588
切ると	-17589
前に出	-17590
前線に	-17591
剣呑な	-17592
加護が	-17593
助けを	-17594
包囲網	-17595
危機を	-17596
合える	-17597
名前も	-17598
周囲が	-17599
命令を	-17600
困難を	-17601
垂れ流	-17602
堪えた	-17603
報酬の	-17604
場から	-17605
壊れる	-17606
声を潜	-17607
声音が	-17608
声音で	-17609
外した	-17610
外へと	-17611
大切に	-17612
天剣が	-17613
契約を	-17614
奪われ	-17615
好奇心	-17616
姿を見	-17617
守って	-17618
実力が	-17619
宿した	-17620
小声で	-17621
岩槍が	-17622
崩壊し	-17623
左腕を	-17624
建物が	-17625
弱った	-17626
役にも	-17627
得意な	-17628
必要は	-17629
思うが	-17630
思考は	-17631
怯える	-17632
悪いな	-17633
情報に	-17634
扉から	-17635
手出し	-17636
手続き	-17637
抑えた	-17638
抽送は	-17639
指示に	-17640
挙げた	-17641
斜めに	-17642
新人が	-17643
時代の	-17644
晴れた	-17645
最悪な	-17646
朝食を	-17647
期待を	-17648
条件が	-17649
楽しま	-17650
楽しむ	-17651
機能は	-17652
此方が	-17653
武器に	-17654
残酷な	-17655
気が付	-17656
満面の	-17657
準備も	-17658
無様に	-17659
無理を	-17660
無表情	-17661
玉座に	-17662
王国の	-17663
瓦礫に	-17664
男達は	-17665
留めた	-17666
目が覚	-17667
目的の	-17668
目論見	-17669
真剣に	-17670
知識が	-17671
神官と	-17672
程遠い	-17673
笑みで	-17674
笑みは	-17675
粉々に	-17676
職人は	-17677
肝心の	-17678
背負い	-17679
至宝の	-17680
被害が	-17681
見積も	-17682
触って	-17683
計画の	-17684
訳にも	-17685
話だが	-17686
誇りを	-17687
誤った	-17688
読める	-17689
負った	-17690
越して	-17691
越しの	-17692
跪いた	-17693
身の丈	-17694
身もだ	-17695
通りを	-17696
道具は	-17697
達にも	-17698
部屋は	-17699
部隊の	-17700
銀の糸	-17701
銀貨を	-17702
閉じる	-17703
開くと	-17704
集中し	-17705
食い千	-17706
食事が	-17707
食事も	-17708
飲める	-17709
馬車に	-17710
黒炎は	-17711
///」	-17712
▁せめて	-17713
▁それと	-17714
▁それら	-17715
▁グチュ	-17716
▁グレン	-17717
▁ザイン	-17718
▁バベル	-17719
▁ユーリ	-17720
▁中には	-17721
▁何故か	-17722
▁天賢王	-17723
▁昨日の	-17724
▁複数の	-17725
▁視線を	-17726
▁身体の	-17727
▁逃げる	-17728
▁魔物の	-17729
あそこに	-17730
あんたが	-17731
あんたは	-17732
いたのだ	-17733
いやらし	-17734
おきます	-17735
おずおず	-17736
からって	-17737
から抜け	-17738
がウルの	-17739
しまうと	-17740
すために	-17741
すらない	-17742
そして今	-17743
その上に	-17744
その言葉	-17745
それって	-17746
そんな中	-17747
でもいい	-17748
ときから	-17749
と考えた	-17750
どこかに	-17751
どちらが	-17752
など無い	-17753
につれて	-17754
にできる	-17755
に戻って	-17756
のだとか	-17757
の全てが	-17758
の大半は	-17759
はかなり	-17760
は終わり	-17761
まあまあ	-17762
もらえる	-17763
やったら	-17764
らないで	-17765
われない	-17766
を上げる	-17767
を抱きし	-17768
を超えて	-17769
アランは	-17770
ウィルダ	-17771
ウル様の	-17772
グループ	-17773
コサック	-17774
コースケ	-17775
スタート	-17776
トールの	-17777
ビックリ	-17778
モニター	-17779
ユーリと	-17780
ラックス	-17781
リスクが	-17782
リソース	-17783
ルイには	-17784
上げます	-17785
上げられ	-17786
不可思議	-17787
不可能だ	-17788
不可能な	-17789
両の手を	-17790
今はその	-17791
今まさに	-17792
他の七天	-17793
仲間達が	-17794
何をする	-17795
何処にも	-17796
使いこな	-17797
使い手の	-17798
使ってる	-17799
備え付け	-17800
傷だらけ	-17801
光を放つ	-17802
全く同じ	-17803
具体的な	-17804
冒険者も	-17805
分かるか	-17806
創造主は	-17807
力を込め	-17808
勃起した	-17809
反応して	-17810
取り戻す	-17811
受付嬢が	-17812
名無しが	-17813
君たちの	-17814
唇を触れ	-17815
堪らなく	-17816
場所には	-17817
多くない	-17818
太陽神が	-17819
失われて	-17820
察してか	-17821
幾らかの	-17822
引き裂く	-17823
彼の部下	-17824
彼もまた	-17825
悦ばせる	-17826
成長した	-17827
成長する	-17828
手を差し	-17829
押しとど	-17830
施された	-17831
明らかだ	-17832
時間を稼	-17833
曲がった	-17834
書き換え	-17835
本能的に	-17836
果たした	-17837
根こそぎ	-17838
此処には	-17839
気もする	-17840
気を付け	-17841
爆発した	-17842
白銀の竜	-17843
目を細め	-17844
目立った	-17845
真っ赤な	-17846
真ん中に	-17847
眷属竜の	-17848
知らずに	-17849
社交場で	-17850
終えると	-17851
者も多い	-17852
聞き取り	-17853
腰を振る	-17854
色をした	-17855
苦労して	-17856
要するに	-17857
見慣れた	-17858
覗かせる	-17859
訳がない	-17860
身動きが	-17861
迷宮に潜	-17862
都合良く	-17863
際限なく	-17864
飛び散る	-17865
騎士団に	-17866
鮮やかな	-17867
黒炎鬼が	-17868
▁それらを	-17869
▁ちらりと	-17870
▁クローロ	-17871
▁スーアの	-17872
▁ダヴィネ	-17873
▁ハインツ	-17874
▁代わりに	-17875
▁大聖教の	-17876
ある程度は	-17877
あろうとも	-17878
うってつけ	-17879
おおよその	-17880
かっている	-17881
からすると	-17882
きたかった	-17883
ことも多い	-17884
ことも無い	-17885
この世界は	-17886
この状況を	-17887
こんな所に	-17888
さっきまで	-17889
さぬように	-17890
しかるべき	-17891
しているの	-17892
しておこう	-17893
するよりも	-17894
そうだねえ	-17895
その時点で	-17896
その身体は	-17897
でもわかる	-17898
というなら	-17899
という意味	-17900
という言葉	-17901
とはしない	-17902
とディズは	-17903
と判断した	-17904
と思ってる	-17905
なんなのか	-17906
に気づいた	-17907
に近かった	-17908
へと至った	-17909
ほんとうに	-17910
までの間に	-17911
やってくれ	-17912
よく見れば	-17913
よりずっと	-17914
わっていた	-17915
エルシアの	-17916
カスカベが	-17917
ギリギリで	-17918
クロスボウ	-17919
グラウンド	-17920
グレーレに	-17921
シュオウが	-17922
シロツメク	-17923
ジグたちの	-17924
スロウスは	-17925
ディズから	-17926
ファリーナ	-17927
ベグードの	-17928
ミミココは	-17929
リーダーの	-17930
代物だった	-17931
何処までも	-17932
働いていた	-17933
冷静だった	-17934
剣を構えた	-17935
動きを止め	-17936
可能とする	-17937
名無し達の	-17938
向こうから	-17939
吹き飛ばす	-17940
周囲を警戒	-17941
回している	-17942
座り込んだ	-17943
引きつった	-17944
引き起こす	-17945
当然だった	-17946
怒っている	-17947
悩んでいた	-17948
感じ取れる	-17949
慌ただしい	-17950
成し遂げた	-17951
投げつける	-17952
支えていた	-17953
教えられた	-17954
有様だった	-17955
来てくれた	-17956
歩いていた	-17957
気がしない	-17958
泣きながら	-17959
消し飛んだ	-17960
無茶をした	-17961
睨んでいる	-17962
精霊の力が	-17963
終わらせる	-17964
縦横無尽に	-17965
纏わり付く	-17966
者がいない	-17967
聖女として	-17968
肉棒を突き	-17969
見えていた	-17970
見つかった	-17971
視線を彷徨	-17972
言われると	-17973
訳では無い	-17974
話し合いを	-17975
読んでいた	-17976
跡形も無く	-17977
追うように	-17978
都市の外で	-17979
隠していた	-17980
離れていた	-17981
震えている	-17982
静かだった	-17983
――――】」	-17984
▁「―――」	-17985
▁なんとなく	-17986
▁グリードは	-17987
▁フィヨルド	-17988
▁言いながら	-17989
があまりにも	-17990
させるための	-17991
しょうがない	-17992
つけるように	-17993
できなくなる	-17994
ではないのだ	-17995
とのことです	-17996
とは言い難い	-17997
とエリン姉は	-17998
なのでしょう	-17999
もんじゃない	-18000
ようなものだ	-18001
ように思えた	-18002
よく分かった	-18003
んでしまった	-18004
ウィルダイト	-18005
ウルとしては	-18006
ウルは黙って	-18007
エイスーラが	-18008
シグリズ様の	-18009
シャナイアを	-18010
パーティーの	-18011
不足している	-18012
冒険者たちに	-18013
出そうとする	-18014
勘弁してくれ	-18015
困ったことに	-18016
大丈夫ですよ	-18017
差し支えない	-18018
承知しました	-18019
未来視の魔眼	-18020
正直なところ	-18021
流れるように	-18022
混乱していた	-18023
溜息をついて	-18024
目を見開いて	-18025
繋がっている	-18026
置かれている	-18027
落ち着かない	-18028
行われている	-18029
覚えていない	-18030
認識している	-18031
身体を起こす	-18032
黒炎払いの面	-18033
――――――』	-18034
▁そんな彼女に	-18035
▁真なるバベル	-18036
おかしくはない	-18037
があるとすれば	-18038
しようとしたが	-18039
するようにして	-18040
そうにしている	-18041
とウルは思った	-18042
に過ぎなかった	-18043
を見つめている	-18044
プラウディアで	-18045
何を言っている	-18046
冒険者ギルドに	-18047
凄まじい速度で	-18048
分かっていない	-18049
呼応するように	-18050
当たらなかった	-18051
気づいていない	-18052
気づかなかった	-18053
飛び込んできた	-18054
というものがある	-18055
となってしまった	-18056
なくなってしまう	-18057
わけでは無かった	-18058
コールドスモーク	-18059
悲鳴を上げながら	-18060
理解できていない	-18061
聞いたことがない	-18062
することは出来ない	-18063
トールステイン大王	-18064
になってしまっていた	-18065
OOOOOOOOOOOO	-18066
GI	-18067
VA	-18068
▁J	-18069
▁つ	-18070
▁ど	-18071
▁ぴ	-18072
▁出	-18073
▁味	-18074
▁己	-18075
▁話	-18076
かっ	-18077
がく	-18078
くつ	-18079
し方	-18080
ずく	-18081
ぞー	-18082
つり	-18083
つー	-18084
とし	-18085
と称	-18086
ねぎ	-18087
の念	-18088
の新	-18089
の身	-18090
へい	-18091
を図	-18092
んぁ	-18093
アッ	-18094
カモ	-18095
グズ	-18096
ザラ	-18097
スク	-18098
チっ	-18099
トリ	-18100
ピュ	-18101
ピリ	-18102
ブゥ	-18103
ペン	-18104
ラが	-18105
一千	-18106
一端	-18107
一致	-18108
一階	-18109
上品	-18110
乳首	-18111
人手	-18112
侮辱	-18113
傷も	-18114
公園	-18115
再度	-18116
冷徹	-18117
凍結	-18118
処女	-18119
刀で	-18120
制服	-18121
刺繍	-18122
前例	-18123
剛直	-18124
剣閃	-18125
動員	-18126
医療	-18127
厚く	-18128
取得	-18129
名残	-18130
咲き	-18131
喧騒	-18132
均衡	-18133
執行	-18134
基盤	-18135
娼館	-18136
完結	-18137
宣伝	-18138
宿る	-18139
専念	-18140
射程	-18141
導入	-18142
居て	-18143
差異	-18144
巻物	-18145
年寄	-18146
幼児	-18147
店長	-18148
役の	-18149
得手	-18150
徘徊	-18151
心許	-18152
快適	-18153
怒号	-18154
愛情	-18155
憂鬱	-18156
抉る	-18157
拳に	-18158
指向	-18159
挙手	-18160
探る	-18161
損害	-18162
放射	-18163
数も	-18164
既存	-18165
日で	-18166
晒し	-18167
暗黒	-18168
服が	-18169
本が	-18170
本末	-18171
格上	-18172
棄て	-18173
極力	-18174
欠損	-18175
殺人	-18176
毎度	-18177
毛並	-18178
民を	-18179
気合	-18180
灼熱	-18181
烏賊	-18182
焦る	-18183
爛れ	-18184
牙獅	-18185
獰猛	-18186
生涯	-18187
異質	-18188
病み	-18189
皿に	-18190
石に	-18191
砦の	-18192
確実	-18193
秘裂	-18194
移す	-18195
空中	-18196
竜達	-18197
端末	-18198
箇所	-18199
精緻	-18200
線で	-18201
罪の	-18202
聖子	-18203
脅し	-18204
腕も	-18205
舌で	-18206
船は	-18207
苦難	-18208
薔薇	-18209
薬物	-18210
衰弱	-18211
袋が	-18212
解析	-18213
誘拐	-18214
誰だ	-18215
調教	-18216
謝る	-18217
貴い	-18218
賛同	-18219
軽快	-18220
透き	-18221
連撃	-18222
進路	-18223
遮断	-18224
野生	-18225
量で	-18226
閉鎖	-18227
間接	-18228
隆起	-18229
難易	-18230
青年	-18231
顔見	-18232
駆除	-18233
魔剣	-18234
▁→【	-18235
▁ぁあ	-18236
▁アッ	-18237
▁一つ	-18238
▁人の	-18239
▁僕と	-18240
▁光の	-18241
▁当初	-18242
▁後ろ	-18243
▁方舟	-18244
▁聞き	-18245
▁胸の	-18246
ぁああ	-18247
あるか	-18248
いかぶ	-18249
いくぞ	-18250
いやす	-18251
いやっ	-18252
いやー	-18253
いらん	-18254
がする	-18255
が過ぎ	-18256
ぐちゃ	-18257
こその	-18258
こびり	-18259
こぼす	-18260
これば	-18261
さんざ	-18262
さんも	-18263
ざした	-18264
ざるを	-18265
しがた	-18266
したと	-18267
しとる	-18268
その奥	-18269
そぶり	-18270
ちゅる	-18271
できん	-18272
とかは	-18273
と少し	-18274
と考え	-18275
と違う	-18276
なかで	-18277
に協力	-18278
に映る	-18279
のって	-18280
の力で	-18281
の奥に	-18282
の時代	-18283
の練習	-18284
の話を	-18285
は更に	-18286
は違う	-18287
ひっぱ	-18288
ふりを	-18289
ぶちま	-18290
ぶんと	-18291
みたら	-18292
みっと	-18293
わねば	-18294
をとる	-18295
を中心	-18296
を得て	-18297
を立て	-18298
を超え	-18299
を進め	-18300
を食べ	-18301
カイン	-18302
キッチ	-18303
キノコ	-18304
セーフ	-18305
ッタレ	-18306
トラウ	-18307
ニタと	-18308
ネット	-18309
バカが	-18310
バック	-18311
フリー	-18312
ホッと	-18313
ホール	-18314
ポーズ	-18315
メンバ	-18316
レイが	-18317
一撃は	-18318
一本で	-18319
一部が	-18320
下っ端	-18321
両腕が	-18322
乱れる	-18323
予想は	-18324
事件の	-18325
二回り	-18326
亜人を	-18327
休める	-18328
休んで	-18329
位置に	-18330
体勢は	-18331
何かは	-18332
何か用	-18333
個体は	-18334
傾いた	-18335
全力の	-18336
冷めた	-18337
冷燻の	-18338
凄いな	-18339
切り離	-18340
刻んで	-18341
加えた	-18342
勇者と	-18343
危険が	-18344
受け取	-18345
口づけ	-18346
味付け	-18347
唐突に	-18348
嗤った	-18349
四方八	-18350
四等級	-18351
地獄だ	-18352
壁から	-18353
大剣の	-18354
大半は	-18355
大地に	-18356
大好き	-18357
大雑把	-18358
存在し	-18359
存在の	-18360
官位の	-18361
家族を	-18362
家畜を	-18363
宿った	-18364
巨大で	-18365
店主は	-18366
微妙に	-18367
快楽に	-18368
怪訝な	-18369
恨みを	-18370
意識の	-18371
態度で	-18372
戦い方	-18373
所有物	-18374
承知で	-18375
抱えて	-18376
抱える	-18377
採れる	-18378
操れる	-18379
映像を	-18380
時間で	-18381
時間と	-18382
極端に	-18383
様々だ	-18384
次元の	-18385
歯噛み	-18386
歴史の	-18387
殆どが	-18388
比べて	-18389
決まり	-18390
涼しい	-18391
深層に	-18392
潰して	-18393
濡れる	-18394
無理は	-18395
無関係	-18396
独特な	-18397
現象は	-18398
環境が	-18399
男たち	-18400
痛い目	-18401
目的が	-18402
眼を細	-18403
知識と	-18404
砕かれ	-18405
素手で	-18406
素材は	-18407
紫色の	-18408
細かく	-18409
結局は	-18410
絶妙な	-18411
罵声を	-18412
羨まし	-18413
者です	-18414
聖なる	-18415
職員が	-18416
肉棒が	-18417
背ける	-18418
胸を揉	-18419
腰を据	-18420
良いが	-18421
若干の	-18422
薄らと	-18423
蜂の巣	-18424
蜜壷は	-18425
視線も	-18426
観察し	-18427
討伐隊	-18428
訳には	-18429
試合は	-18430
賢しい	-18431
贅沢な	-18432
赤く染	-18433
足りる	-18434
跳ねた	-18435
身分の	-18436
迎える	-18437
返答に	-18438
逃げ場	-18439
連れた	-18440
郎党の	-18441
都市は	-18442
野生の	-18443
長船は	-18444
限りは	-18445
限りを	-18446
隠して	-18447
頼んで	-18448
顔色が	-18449
食料も	-18450
鼻から	-18451
▁あの時	-18452
▁そこへ	-18453
▁なんて	-18454
▁アカネ	-18455
▁事前に	-18456
▁何より	-18457
▁僅かに	-18458
▁新谷は	-18459
▁普段は	-18460
▁最近は	-18461
▁極めて	-18462
▁此処は	-18463
▁白銀の	-18464
▁自然と	-18465
ああいう	-18466
いっても	-18467
お前には	-18468
から逃れ	-18469
が激しい	-18470
が見える	-18471
が起こり	-18472
ぐらいで	-18473
さを覚え	-18474
しきった	-18475
した方が	-18476
してるの	-18477
すべての	-18478
そうかい	-18479
そこら辺	-18480
その後の	-18481
その男は	-18482
それとは	-18483
たくなる	-18484
たらしい	-18485
だけじゃ	-18486
ってやつ	-18487
では到底	-18488
と小さく	-18489
ならねえ	-18490
なりとも	-18491
な冒険者	-18492
に必要な	-18493
に触れる	-18494
のごとく	-18495
の一つが	-18496
ぶつけた	-18497
また別の	-18498
まれない	-18499
もあるし	-18500
よいしょ	-18501
より先に	-18502
らずとも	-18503
らなくて	-18504
を使えば	-18505
を抱いた	-18506
を見やる	-18507
を見渡す	-18508
を除いて	-18509
イイイイ	-18510
クション	-18511
グラスを	-18512
ゲイホー	-18513
コーダル	-18514
スマイル	-18515
トラウマ	-18516
トールが	-18517
ドン引き	-18518
ニシンが	-18519
バベルを	-18520
プライド	-18521
プロミネ	-18522
ポイント	-18523
マギカの	-18524
メニュー	-18525
ヨランは	-18526
一人では	-18527
三面鬼が	-18528
仮都市の	-18529
仲間達は	-18530
仲間達を	-18531
何人かの	-18532
使用する	-18533
傷つけた	-18534
傷つける	-18535
全身から	-18536
冒険者だ	-18537
冷静さを	-18538
判断する	-18539
制御術式	-18540
創造主が	-18541
動きが鈍	-18542
叩かれる	-18543
向こうが	-18544
回された	-18545
堪能する	-18546
声を掛け	-18547
多くなる	-18548
天罰覿面	-18549
失敗する	-18550
女として	-18551
嬢ちゃん	-18552
宝石獣の	-18553
[...]
