{
  "version": "1.0",
  "truncation": null,
  "padding": null,
  "added_tokens": [
    {
      "id": 0,
      "content": "[UNK]",
      "single_word": false,
      "lstrip": false,
      "rstrip": false,
      "normalized": false,
      "special": true
    },
    {
      "id": 1,
      "content": "[CLS]",
      "single_word": false,
      "lstrip": false,
      "rstrip": false,
      "normalized": false,
      "special": true
    },
    {
      "id": 2,
      "content": "[SEP]",
      "single_word": false,
      "lstrip": false,
      "rstrip": false,
      "normalized": false,
      "special": true
    },
    {
      "id": 3,
      "content": "[PAD]",
      "single_word": false,
      "lstrip": false,
      "rstrip": false,
      "normalized": false,
      "special": true
    },
    {
      "id": 4,
      "content": "[MASK]",
      "single_word": false,
      "lstrip": false,
      "rstrip": false,
      "normalized": false,
      "special": true
    }
  ],
  "normalizer": null,
  "pre_tokenizer": {
    "type": "Whitespace"
  },
  "post_processor": null,
  "decoder": null,
  "model": {
    "type": "BPE",
    "dropout": null,
    "unk_token": "[UNK]",
    "continuing_subword_prefix": null,
    "end_of_word_suffix": null,
    "fuse_unk": false,
    "byte_fallback": false,
    "ignore_merges": false,
    "vocab": {
      "[UNK]": 0,
      "[CLS]": 1,
      "[SEP]": 2,
      "[PAD]": 3,
      "[MASK]": 4,
      "!": 5,
      "\"": 6,
      "#": 7,
      "%": 8,
      "&": 9,
      "(": 10,
      ")": 11,
      "*": 12,
      "+": 13,
      ",": 14,
      "-": 15,
      ".": 16,
      "/": 17,
      "0": 18,
      "1": 19,
      "2": 20,
      "3": 21,
      "4": 22,
      "5": 23,
      "6": 24,
      "7": 25,
      "8": 26,
      "9": 27,
      ":": 28,
      "=": 29,
      ">": 30,
      "?": 31,
      "@": 32,
      "A": 33,
      "B": 34,
      "C": 35,
      "D": 36,
      "E": 37,
      "F": 38,
      "G": 39,
      "H": 40,
      "I": 41,
      "J": 42,
      "K": 43,
      "L": 44,
      "M": 45,
      "N": 46,
      "O": 47,
      "P": 48,
      "Q": 49,
      "R": 50,
      "S": 51,
      "T": 52,
      "U": 53,
      "V": 54,
      "W": 55,
      "X": 56,
      "Y": 57,
      "Z": 58,
      "[": 59,
      "\\": 60,
      "]": 61,
      "^": 62,
      "_": 63,
      "`": 64,
      "a": 65,
      "b": 66,
      "c": 67,
      "d": 68,
      "e": 69,
      "f": 70,
      "g": 71,
      "h": 72,
      "i": 73,
      "j": 74,
      "k": 75,
      "l": 76,
      "m": 77,
      "n": 78,
      "o": 79,
      "p": 80,
      "q": 81,
      "r": 82,
      "s": 83,
      "t": 84,
      "u": 85,
      "v": 86,
      "w": 87,
      "x": 88,
      "y": 89,
      "z": 90,
      "{": 91,
      "|": 92,
      "}": 93,
      "~": 94,
      "°": 95,
      "´": 96,
      "×": 97,
      "ˊ": 98,
      "ˋ": 99,
      "˘": 100,
      "Δ": 101,
      "Λ": 102,
      "Ω": 103,
      "α": 104,
      "β": 105,
      "γ": 106,
      "ε": 107,
      "π": 108,
      "ω": 109,
      "д": 110,
      "‐": 111,
      "—": 112,
      "―": 113,
      "‘": 114,
      "’": 115,
      "“": 116,
      "”": 117,
      "‟": 118,
      "•": 119,
      "‥": 120,
      "…": 121,
      "※": 122,
      "⁰": 123,
      "℃": 124,
      "Ⅱ": 125,
      "Ⅲ": 126,
      "Ⅴ": 127,
      "Ⅹ": 128,
      "←": 129,
      "↑": 130,
      "→": 131,
      "⇒": 132,
      "∀": 133,
      "∇": 134,
      "−": 135,
      "∗": 136,
      "√": 137,
      "≦": 138,
      "≧": 139,
      "①": 140,
      "②": 141,
      "③": 142,
      "④": 143,
      "⑤": 144,
      "⑥": 145,
      "─": 146,
      "■": 147,
      "□": 148,
      "▲": 149,
      "△": 150,
      "◆": 151,
      "◇": 152,
      "●": 153,
      "◞": 154,
      "◟": 155,
      "◯": 156,
      "★": 157,
      "☆": 158,
      "♀": 159,
      "♂": 160,
      "♡": 161,
      "♥": 162,
      "♪": 163,
      "♬": 164,
      "✕": 165,
      "❤": 166,
      "、": 167,
      "。": 168,
      "々": 169,
      "〇": 170,
      "〈": 171,
      "〉": 172,
      "《": 173,
      "》": 174,
      "「": 175,
      "」": 176,
      "『": 177,
      "』": 178,
      "【": 179,
      "】": 180,
      "〔": 181,
      "〕": 182,
      "〜": 183,
      "〝": 184,
      "ぁ": 185,
      "あ": 186,
      "ぃ": 187,
      "い": 188,
      "ぅ": 189,
      "う": 190,
      "ぇ": 191,
      "え": 192,
      "ぉ": 193,
      "お": 194,
      "か": 195,
      "が": 196,
      "き": 197,
      "ぎ": 198,
      "く": 199,
      "ぐ": 200,
      "け": 201,
      "げ": 202,
      "こ": 203,
      "ご": 204,
      "さ": 205,
      "ざ": 206,
      "し": 207,
      "じ": 208,
      "す": 209,
      "ず": 210,
      "せ": 211,
      "ぜ": 212,
      "そ": 213,
      "ぞ": 214,
      "た": 215,
      "だ": 216,
      "ち": 217,
      "ぢ": 218,
      "っ": 219,
      "つ": 220,
      "づ": 221,
      "て": 222,
      "で": 223,
      "と": 224,
      "ど": 225,
      "な": 226,
      "に": 227,
      "ぬ": 228,
      "ね": 229,
      "の": 230,
      "は": 231,
      "ば": 232,
      "ぱ": 233,
      "ひ": 234,
      "び": 235,
      "ぴ": 236,
      "ふ": 237,
      "ぶ": 238,
      "ぷ": 239,
      "へ": 240,
      "べ": 241,
      "ぺ": 242,
      "ほ": 243,
      "ぼ": 244,
      "ぽ": 245,
      "ま": 246,
      "み": 247,
      "む": 248,
      "め": 249,
      "も": 250,
      "ゃ": 251,
      "や": 252,
      "ゅ": 253,
      "ゆ": 254,
      "ょ": 255,
      "よ": 256,
      "ら": 257,
      "り": 258,
      "る": 259,
      "れ": 260,
      "ろ": 261,
      "ゎ": 262,
      "わ": 263,
      "を": 264,
      "ん": 265,
      "゛": 266,
      "ゞ": 267,
      "ァ": 268,
      "ア": 269,
      "ィ": 270,
      "イ": 271,
      "ゥ": 272,
      "ウ": 273,
      "ェ": 274,
      "エ": 275,
      "ォ": 276,
      "オ": 277,
      "カ": 278,
      "ガ": 279,
      "キ": 280,
      "ギ": 281,
      "ク": 282,
      "グ": 283,
      "ケ": 284,
      "ゲ": 285,
      "コ": 286,
      "ゴ": 287,
      "サ": 288,
      "ザ": 289,
      "シ": 290,
      "ジ": 291,
      "ス": 292,
      "ズ": 293,
      "セ": 294,
      "ゼ": 295,
      "ソ": 296,
      "ゾ": 297,
      "タ": 298,
      "ダ": 299,
      "チ": 300,
      "ヂ": 301,
      "ッ": 302,
      "ツ": 303,
      "ヅ": 304,
      "テ": 305,
      "デ": 306,
      "ト": 307,
      "ド": 308,
      "ナ": 309,
      "ニ": 310,
      "ヌ": 311,
      "ネ": 312,
      "ノ": 313,
      "ハ": 314,
      "バ": 315,
      "パ": 316,
      "ヒ": 317,
      "ビ": 318,
      "ピ": 319,
      "フ": 320,
      "ブ": 321,
      "プ": 322,
      "ヘ": 323,
      "ベ": 324,
      "ペ": 325,
      "ホ": 326,
      "ボ": 327,
      "ポ": 328,
      "マ": 329,
      "ミ": 330,
      "ム": 331,
      "メ": 332,
      "モ": 333,
      "ャ": 334,
      "ヤ": 335,
      "ュ": 336,
      "ユ": 337,
      "ョ": 338,
      "ヨ": 339,
      "ラ": 340,
      "リ": 341,
      "ル": 342,
      "レ": 343,
      "ロ": 344,
      "ワ": 345,
      "ヲ": 346,
      "ン": 347,
      "ヴ": 348,
      "ヵ": 349,
      "ヶ": 350,
      "・": 351,
      "ー": 352,
      "㎝": 353,
      "一": 354,
      "丁": 355,
      "七": 356,
      "万": 357,
      "丈": 358,
      "三": 359,
      "上": 360,
      "下": 361,
      "不": 362,
      "与": 363,
      "且": 364,
      "世": 365,
      "丘": 366,
      "両": 367,
      "並": 368,
      "中": 369,
      "串": 370,
      "丸": 371,
      "丹": 372,
      "主": 373,
      "丼": 374,
      "久": 375,
      "之": 376,
      "乏": 377,
      "乖": 378,
      "乗": 379,
      "乙": 380,
      "九": 381,
      "乞": 382,
      "也": 383,
      "乱": 384,
      "乳": 385,
      "乾": 386,
      "亀": 387,
      "了": 388,
      "予": 389,
      "争": 390,
      "事": 391,
      "二": 392,
      "云": 393,
      "互": 394,
      "五": 395,
      "井": 396,
      "亘": 397,
      "些": 398,
      "亜": 399,
      "亡": 400,
      "交": 401,
      "享": 402,
      "京": 403,
      "亭": 404,
      "人": 405,
      "什": 406,
      "仁": 407,
      "仄": 408,
      "仇": 409,
      "今": 410,
      "介": 411,
      "仏": 412,
      "仔": 413,
      "仕": 414,
      "他": 415,
      "付": 416,
      "仙": 417,
      "代": 418,
      "令": 419,
      "以": 420,
      "仮": 421,
      "仰": 422,
      "仲": 423,
      "件": 424,
      "任": 425,
      "企": 426,
      "伊": 427,
      "伍": 428,
      "伏": 429,
      "伐": 430,
      "休": 431,
      "会": 432,
      "伝": 433,
      "伯": 434,
      "伴": 435,
      "伸": 436,
      "伺": 437,
      "似": 438,
      "伽": 439,
      "但": 440,
      "佇": 441,
      "位": 442,
      "低": 443,
      "住": 444,
      "佐": 445,
      "佑": 446,
      "体": 447,
      "何": 448,
      "余": 449,
      "作": 450,
      "佩": 451,
      "佳": 452,
      "併": 453,
      "使": 454,
      "例": 455,
      "侍": 456,
      "侘": 457,
      "供": 458,
      "依": 459,
      "侠": 460,
      "価": 461,
      "侮": 462,
      "侵": 463,
      "侶": 464,
      "便": 465,
      "係": 466,
      "促": 467,
      "俄": 468,
      "俊": 469,
      "俗": 470,
      "保": 471,
      "信": 472,
      "修": 473,
      "俯": 474,
      "俳": 475,
      "俵": 476,
      "俺": 477,
      "倅": 478,
      "倉": 479,
      "個": 480,
      "倍": 481,
      "倒": 482,
      "倖": 483,
      "候": 484,
      "借": 485,
      "倣": 486,
      "値": 487,
      "倦": 488,
      "倫": 489,
      "倶": 490,
      "倹": 491,
      "偃": 492,
      "偉": 493,
      "偏": 494,
      "做": 495,
      "停": 496,
      "健": 497,
      "偲": 498,
      "側": 499,
      "偵": 500,
      "偶": 501,
      "偽": 502,
      "傀": 503,
      "傅": 504,
      "傍": 505,
      "傑": 506,
      "傘": 507,
      "備": 508,
      "催": 509,
      "傭": 510,
      "傲": 511,
      "債": 512,
      "傷": 513,
      "傾": 514,
      "僅": 515,
      "働": 516,
      "像": 517,
      "僕": 518,
      "僚": 519,
      "僥": 520,
      "僧": 521,
      "僭": 522,
      "僻": 523,
      "儀": 524,
      "儂": 525,
      "億": 526,
      "儘": 527,
      "儚": 528,
      "償": 529,
      "儡": 530,
      "優": 531,
      "儲": 532,
      "元": 533,
      "兄": 534,
      "充": 535,
      "兆": 536,
      "先": 537,
      "光": 538,
      "克": 539,
      "免": 540,
      "兎": 541,
      "児": 542,
      "党": 543,
      "兜": 544,
      "入": 545,
      "全": 546,
      "八": 547,
      "公": 548,
      "六": 549,
      "共": 550,
      "兵": 551,
      "其": 552,
      "具": 553,
      "典": 554,
      "兼": 555,
      "内": 556,
      "円": 557,
      "冊": 558,
      "再": 559,
      "冑": 560,
      "冒": 561,
      "冗": 562,
      "写": 563,
      "冠": 564,
      "冤": 565,
      "冥": 566,
      "冬": 567,
      "冴": 568,
      "冶": 569,
      "冷": 570,
      "冽": 571,
      "凄": 572,
      "准": 573,
      "凋": 574,
      "凌": 575,
      "凍": 576,
      "凛": 577,
      "凜": 578,
      "凝": 579,
      "几": 580,
      "凡": 581,
      "処": 582,
      "凪": 583,
      "凭": 584,
      "凰": 585,
      "凱": 586,
      "凶": 587,
      "凸": 588,
      "凹": 589,
      "出": 590,
      "刀": 591,
      "刃": 592,
      "分": 593,
      "切": 594,
      "刈": 595,
      "刊": 596,
      "刎": 597,
      "刑": 598,
      "列": 599,
      "初": 600,
      "判": 601,
      "別": 602,
      "利": 603,
      "刮": 604,
      "到": 605,
      "制": 606,
      "刷": 607,
      "券": 608,
      "刹": 609,
      "刺": 610,
      "刻": 611,
      "剃": 612,
      "則": 613,
      "削": 614,
      "剌": 615,
      "前": 616,
      "剖": 617,
      "剛": 618,
      "剝": 619,
      "剣": 620,
      "剤": 621,
      "剥": 622,
      "副": 623,
      "剰": 624,
      "割": 625,
      "創": 626,
      "剽": 627,
      "劇": 628,
      "劈": 629,
      "力": 630,
      "功": 631,
      "加": 632,
      "劣": 633,
      "助": 634,
      "努": 635,
      "劫": 636,
      "励": 637,
      "労": 638,
      "効": 639,
      "劾": 640,
      "勃": 641,
      "勅": 642,
      "勇": 643,
      "勉": 644,
      "動": 645,
      "勘": 646,
      "務": 647,
      "勝": 648,
      "募": 649,
      "勢": 650,
      "勤": 651,
      "勧": 652,
      "勲": 653,
      "勾": 654,
      "勿": 655,
      "匂": 656,
      "包": 657,
      "匍": 658,
      "匐": 659,
      "化": 660,
      "北": 661,
      "匙": 662,
      "匠": 663,
      "匹": 664,
      "区": 665,
      "医": 666,
      "匿": 667,
      "十": 668,
      "千": 669,
      "午": 670,
      "半": 671,
      "卌": 672,
      "卑": 673,
      "卒": 674,
      "卓": 675,
      "協": 676,
      "南": 677,
      "単": 678,
      "博": 679,
      "占": 680,
      "印": 681,
      "危": 682,
      "即": 683,
      "却": 684,
      "卵": 685,
      "卸": 686,
      "卿": 687,
      "厄": 688,
      "厘": 689,
      "厚": 690,
      "原": 691,
      "厨": 692,
      "厩": 693,
      "厭": 694,
      "厳": 695,
      "去": 696,
      "参": 697,
      "又": 698,
      "叉": 699,
      "及": 700,
      "友": 701,
      "双": 702,
      "反": 703,
      "収": 704,
      "叔": 705,
      "取": 706,
      "受": 707,
      "叙": 708,
      "叛": 709,
      "叡": 710,
      "口": 711,
      "古": 712,
      "句": 713,
      "叩": 714,
      "只": 715,
      "叫": 716,
      "召": 717,
      "可": 718,
      "台": 719,
      "叱": 720,
      "史": 721,
      "右": 722,
      "叶": 723,
      "号": 724,
      "司": 725,
      "吃": 726,
      "各": 727,
      "合": 728,
      "吉": 729,
      "吊": 730,
      "同": 731,
      "名": 732,
      "吏": 733,
      "吐": 734,
      "向": 735,
      "君": 736,
      "吝": 737,
      "吞": 738,
      "吟": 739,
      "吠": 740,
      "否": 741,
      "含": 742,
      "吶": 743,
      "吸": 744,
      "吹": 745,
      "吻": 746,
      "吼": 747,
      "呂": 748,
      "呆": 749,
      "呈": 750,
      "告": 751,
      "呑": 752,
      "呟": 753,
      "周": 754,
      "呪": 755,
      "味": 756,
      "呵": 757,
      "呷": 758,
      "呻": 759,
      "呼": 760,
      "命": 761,
      "咀": 762,
      "咄": 763,
      "咆": 764,
      "和": 765,
      "咎": 766,
      "咢": 767,
      "咤": 768,
      "咥": 769,
      "咬": 770,
      "咲": 771,
      "咳": 772,
      "咽": 773,
      "哀": 774,
      "品": 775,
      "哄": 776,
      "員": 777,
      "哨": 778,
      "哭": 779,
      "哮": 780,
      "哲": 781,
      "唄": 782,
      "唆": 783,
      "唇": 784,
      "唐": 785,
      "唖": 786,
      "唯": 787,
      "唱": 788,
      "唸": 789,
      "唾": 790,
      "啄": 791,
      "商": 792,
      "問": 793,
      "啓": 794,
      "啖": 795,
      "啜": 796,
      "啼": 797,
      "善": 798,
      "喉": 799,
      "喋": 800,
      "喘": 801,
      "喚": 802,
      "喜": 803,
      "喝": 804,
      "喧": 805,
      "喩": 806,
      "喪": 807,
      "喫": 808,
      "喰": 809,
      "営": 810,
      "嗅": 811,
      "嗚": 812,
      "嗜": 813,
      "嗟": 814,
      "嗤": 815,
      "嘆": 816,
      "嘉": 817,
      "嘔": 818,
      "嘘": 819,
      "嘩": 820,
      "嘯": 821,
      "嘲": 822,
      "嘴": 823,
      "嘶": 824,
      "噂": 825,
      "噌": 826,
      "噎": 827,
      "噓": 828,
      "噛": 829,
      "噤": 830,
      "器": 831,
      "噪": 832,
      "噴": 833,
      "噺": 834,
      "嚇": 835,
      "嚙": 836,
      "嚢": 837,
      "嚥": 838,
      "嚼": 839,
      "囀": 840,
      "囁": 841,
      "囂": 842,
      "囃": 843,
      "囓": 844,
      "囚": 845,
      "四": 846,
      "回": 847,
      "因": 848,
      "団": 849,
      "囮": 850,
      "困": 851,
      "囲": 852,
      "図": 853,
      "固": 854,
      "国": 855,
      "圃": 856,
      "圏": 857,
      "園": 858,
      "土": 859,
      "圧": 860,
      "在": 861,
      "地": 862,
      "坂": 863,
      "均": 864,
      "坊": 865,
      "坐": 866,
      "坑": 867,
      "坤": 868,
      "坦": 869,
      "坩": 870,
      "垂": 871,
      "型": 872,
      "垢": 873,
      "垣": 874,
      "埃": 875,
      "埋": 876,
      "城": 877,
      "埒": 878,
      "埓": 879,
      "域": 880,
      "執": 881,
      "培": 882,
      "基": 883,
      "堀": 884,
      "堂": 885,
      "堅": 886,
      "堆": 887,
      "堕": 888,
      "堝": 889,
      "堪": 890,
      "堰": 891,
      "報": 892,
      "場": 893,
      "堵": 894,
      "塀": 895,
      "塊": 896,
      "塒": 897,
      "塔": 898,
      "塗": 899,
      "塚": 900,
      "塞": 901,
      "塩": 902,
      "填": 903,
      "塵": 904,
      "塹": 905,
      "塾": 906,
      "境": 907,
      "墓": 908,
      "増": 909,
      "墜": 910,
      "墟": 911,
      "墨": 912,
      "壁": 913,
      "壇": 914,
      "壊": 915,
      "壌": 916,
      "壕": 917,
      "壟": 918,
      "士": 919,
      "壮": 920,
      "声": 921,
      "壱": 922,
      "売": 923,
      "壷": 924,
      "壺": 925,
      "変": 926,
      "夏": 927,
      "夕": 928,
      "外": 929,
      "多": 930,
      "夜": 931,
      "夢": 932,
      "夥": 933,
      "大": 934,
      "天": 935,
      "太": 936,
      "夫": 937,
      "央": 938,
      "失": 939,
      "奇": 940,
      "奈": 941,
      "奉": 942,
      "奏": 943,
      "契": 944,
      "奔": 945,
      "套": 946,
      "奢": 947,
      "奥": 948,
      "奧": 949,
      "奨": 950,
      "奪": 951,
      "奮": 952,
      "女": 953,
      "奴": 954,
      "奸": 955,
      "好": 956,
      "如": 957,
      "妃": 958,
      "妄": 959,
      "妊": 960,
      "妖": 961,
      "妙": 962,
      "妥": 963,
      "妨": 964,
      "妬": 965,
      "妹": 966,
      "妻": 967,
      "妾": 968,
      "姉": 969,
      "始": 970,
      "姐": 971,
      "姑": 972,
      "姓": 973,
      "委": 974,
      "姥": 975,
      "姦": 976,
      "姪": 977,
      "姫": 978,
      "姻": 979,
      "姿": 980,
      "威": 981,
      "娘": 982,
      "娠": 983,
      "娩": 984,
      "娯": 985,
      "娶": 986,
      "娼": 987,
      "婆": 988,
      "婉": 989,
      "婚": 990,
      "婦": 991,
      "婿": 992,
      "媒": 993,
      "媚": 994,
      "嫁": 995,
      "嫉": 996,
      "嫋": 997,
      "嫌": 998,
      "嫡": 999,
      "嬉": 1000,
      "嬌": 1001,
      "嬢": 1002,
      "嬪": 1003,
      "嬲": 1004,
      "子": 1005,
      "孔": 1006,
      "孕": 1007,
      "字": 1008,
      "存": 1009,
      "孝": 1010,
      "季": 1011,
      "孤": 1012,
      "学": 1013,
      "孫": 1014,
      "孵": 1015,
      "宅": 1016,
      "宇": 1017,
      "守": 1018,
      "安": 1019,
      "完": 1020,
      "宍": 1021,
      "宗": 1022,
      "官": 1023,
      "宙": 1024,
      "定": 1025,
      "宛": 1026,
      "宜": 1027,
      "宝": 1028,
      "実": 1029,
      "客": 1030,
      "宣": 1031,
      "室": 1032,
      "宥": 1033,
      "宮": 1034,
      "害": 1035,
      "宴": 1036,
      "宵": 1037,
      "家": 1038,
      "容": 1039,
      "宿": 1040,
      "寂": 1041,
      "寄": 1042,
      "密": 1043,
      "富": 1044,
      "寒": 1045,
      "寛": 1046,
      "寝": 1047,
      "察": 1048,
      "寡": 1049,
      "寥": 1050,
      "寧": 1051,
      "審": 1052,
      "寮": 1053,
      "寵": 1054,
      "寸": 1055,
      "寺": 1056,
      "対": 1057,
      "寿": 1058,
      "封": 1059,
      "専": 1060,
      "射": 1061,
      "将": 1062,
      "尉": 1063,
      "尊": 1064,
      "尋": 1065,
      "導": 1066,
      "小": 1067,
      "少": 1068,
      "尖": 1069,
      "尚": 1070,
      "尤": 1071,
      "就": 1072,
      "尺": 1073,
      "尻": 1074,
      "尼": 1075,
      "尽": 1076,
      "尾": 1077,
      "尿": 1078,
      "局": 1079,
      "屁": 1080,
      "居": 1081,
      "屈": 1082,
      "届": 1083,
      "屋": 1084,
      "屍": 1085,
      "屑": 1086,
      "屓": 1087,
      "展": 1088,
      "属": 1089,
      "屠": 1090,
      "層": 1091,
      "履": 1092,
      "屯": 1093,
      "山": 1094,
      "屹": 1095,
      "岐": 1096,
      "岩": 1097,
      "岬": 1098,
      "岳": 1099,
      "岸": 1100,
      "峙": 1101,
      "峠": 1102,
      "峰": 1103,
      "島": 1104,
      "峻": 1105,
      "崇": 1106,
      "崖": 1107,
      "崗": 1108,
      "崩": 1109,
      "嵌": 1110,
      "嵐": 1111,
      "嵩": 1112,
      "嶺": 1113,
      "巌": 1114,
      "川": 1115,
      "州": 1116,
      "巡": 1117,
      "巣": 1118,
      "工": 1119,
      "左": 1120,
      "巧": 1121,
      "巨": 1122,
      "巫": 1123,
      "差": 1124,
      "己": 1125,
      "已": 1126,
      "巴": 1127,
      "巷": 1128,
      "巻": 1129,
      "巾": 1130,
      "市": 1131,
      "布": 1132,
      "帆": 1133,
      "希": 1134,
      "帛": 1135,
      "帝": 1136,
      "帥": 1137,
      "師": 1138,
      "席": 1139,
      "帯": 1140,
      "帰": 1141,
      "帳": 1142,
      "帷": 1143,
      "常": 1144,
      "帽": 1145,
      "幅": 1146,
      "幕": 1147,
      "幣": 1148,
      "干": 1149,
      "平": 1150,
      "年": 1151,
      "幸": 1152,
      "幹": 1153,
      "幻": 1154,
      "幼": 1155,
      "幽": 1156,
      "幾": 1157,
      "庁": 1158,
      "広": 1159,
      "庇": 1160,
      "床": 1161,
      "序": 1162,
      "底": 1163,
      "店": 1164,
      "府": 1165,
      "度": 1166,
      "座": 1167,
      "庫": 1168,
      "庭": 1169,
      "庶": 1170,
      "康": 1171,
      "庸": 1172,
      "廃": 1173,
      "廉": 1174,
      "廊": 1175,
      "延": 1176,
      "廷": 1177,
      "建": 1178,
      "廻": 1179,
      "弁": 1180,
      "弄": 1181,
      "弊": 1182,
      "式": 1183,
      "弐": 1184,
      "弓": 1185,
      "弔": 1186,
      "引": 1187,
      "弘": 1188,
      "弛": 1189,
      "弟": 1190,
      "弥": 1191,
      "弦": 1192,
      "弧": 1193,
      "弩": 1194,
      "弱": 1195,
      "張": 1196,
      "強": 1197,
      "弾": 1198,
      "当": 1199,
      "彙": 1200,
      "形": 1201,
      "彩": 1202,
      "彫": 1203,
      "影": 1204,
      "彷": 1205,
      "役": 1206,
      "彼": 1207,
      "彿": 1208,
      "往": 1209,
      "征": 1210,
      "径": 1211,
      "待": 1212,
      "徊": 1213,
      "律": 1214,
      "後": 1215,
      "徐": 1216,
      "徒": 1217,
      "従": 1218,
      "得": 1219,
      "徘": 1220,
      "御": 1221,
      "徨": 1222,
      "復": 1223,
      "循": 1224,
      "微": 1225,
      "徳": 1226,
      "徴": 1227,
      "徹": 1228,
      "徽": 1229,
      "心": 1230,
      "必": 1231,
      "忌": 1232,
      "忍": 1233,
      "忖": 1234,
      "志": 1235,
      "忘": 1236,
      "忙": 1237,
      "応": 1238,
      "忠": 1239,
      "快": 1240,
      "念": 1241,
      "忸": 1242,
      "忽": 1243,
      "怒": 1244,
      "怖": 1245,
      "怙": 1246,
      "怜": 1247,
      "思": 1248,
      "怠": 1249,
      "急": 1250,
      "性": 1251,
      "怨": 1252,
      "怩": 1253,
      "怪": 1254,
      "怯": 1255,
      "恃": 1256,
      "恋": 1257,
      "恍": 1258,
      "恐": 1259,
      "恒": 1260,
      "恕": 1261,
      "恙": 1262,
      "恥": 1263,
      "恨": 1264,
      "恩": 1265,
      "恫": 1266,
      "恭": 1267,
      "息": 1268,
      "恰": 1269,
      "恵": 1270,
      "悉": 1271,
      "悍": 1272,
      "悔": 1273,
      "悟": 1274,
      "悠": 1275,
      "患": 1276,
      "悦": 1277,
      "悧": 1278,
      "悩": 1279,
      "悪": 1280,
      "悲": 1281,
      "悴": 1282,
      "悶": 1283,
      "悸": 1284,
      "悼": 1285,
      "情": 1286,
      "惑": 1287,
      "惚": 1288,
      "惜": 1289,
      "惧": 1290,
      "惨": 1291,
      "惰": 1292,
      "想": 1293,
      "惹": 1294,
      "愁": 1295,
      "愉": 1296,
      "意": 1297,
      "愕": 1298,
      "愚": 1299,
      "愛": 1300,
      "感": 1301,
      "愾": 1302,
      "慄": 1303,
      "慇": 1304,
      "慈": 1305,
      "態": 1306,
      "慌": 1307,
      "慎": 1308,
      "慕": 1309,
      "慟": 1310,
      "慢": 1311,
      "慣": 1312,
      "慧": 1313,
      "慨": 1314,
      "慮": 1315,
      "慰": 1316,
      "憂": 1317,
      "憊": 1318,
      "憎": 1319,
      "憐": 1320,
      "憑": 1321,
      "憔": 1322,
      "憚": 1323,
      "憤": 1324,
      "憧": 1325,
      "憩": 1326,
      "憫": 1327,
      "憬": 1328,
      "憮": 1329,
      "憲": 1330,
      "憶": 1331,
      "憺": 1332,
      "憾": 1333,
      "懃": 1334,
      "懇": 1335,
      "懐": 1336,
      "懣": 1337,
      "懲": 1338,
      "懸": 1339,
      "懺": 1340,
      "懼": 1341,
      "成": 1342,
      "我": 1343,
      "戒": 1344,
      "或": 1345,
      "戚": 1346,
      "戟": 1347,
      "戦": 1348,
      "截": 1349,
      "戮": 1350,
      "戯": 1351,
      "戴": 1352,
      "戸": 1353,
      "戻": 1354,
      "房": 1355,
      "所": 1356,
      "扇": 1357,
      "扈": 1358,
      "扉": 1359,
      "手": 1360,
      "才": 1361,
      "打": 1362,
      "払": 1363,
      "托": 1364,
      "扮": 1365,
      "扱": 1366,
      "扶": 1367,
      "批": 1368,
      "承": 1369,
      "技": 1370,
      "抉": 1371,
      "把": 1372,
      "抑": 1373,
      "抓": 1374,
      "投": 1375,
      "抗": 1376,
      "折": 1377,
      "抜": 1378,
      "択": 1379,
      "披": 1380,
      "抱": 1381,
      "抵": 1382,
      "抹": 1383,
      "押": 1384,
      "抽": 1385,
      "担": 1386,
      "拉": 1387,
      "拌": 1388,
      "拍": 1389,
      "拐": 1390,
      "拒": 1391,
      "拓": 1392,
      "拗": 1393,
      "拘": 1394,
      "拙": 1395,
      "招": 1396,
      "拝": 1397,
      "拠": 1398,
      "拡": 1399,
      "括": 1400,
      "拭": 1401,
      "拮": 1402,
      "拱": 1403,
      "拳": 1404,
      "拵": 1405,
      "拶": 1406,
      "拷": 1407,
      "拾": 1408,
      "持": 1409,
      "指": 1410,
      "挑": 1411,
      "挙": 1412,
      "挟": 1413,
      "挨": 1414,
      "挫": 1415,
      "振": 1416,
      "挺": 1417,
      "挽": 1418,
      "挿": 1419,
      "捉": 1420,
      "捌": 1421,
      "捏": 1422,
      "捕": 1423,
      "捗": 1424,
      "捜": 1425,
      "捥": 1426,
      "捧": 1427,
      "捨": 1428,
      "捩": 1429,
      "据": 1430,
      "捲": 1431,
      "捻": 1432,
      "掃": 1433,
      "授": 1434,
      "掌": 1435,
      "排": 1436,
      "掘": 1437,
      "掛": 1438,
      "掟": 1439,
      "掠": 1440,
      "採": 1441,
      "探": 1442,
      "接": 1443,
      "控": 1444,
      "推": 1445,
      "措": 1446,
      "掬": 1447,
      "掲": 1448,
      "掴": 1449,
      "掻": 1450,
      "揃": 1451,
      "揄": 1452,
      "揉": 1453,
      "描": 1454,
      "提": 1455,
      "揚": 1456,
      "換": 1457,
      "握": 1458,
      "揮": 1459,
      "援": 1460,
      "揶": 1461,
      "揺": 1462,
      "損": 1463,
      "搔": 1464,
      "搦": 1465,
      "搬": 1466,
      "搭": 1467,
      "携": 1468,
      "搾": 1469,
      "摂": 1470,
      "摑": 1471,
      "摘": 1472,
      "摩": 1473,
      "摯": 1474,
      "摺": 1475,
      "撃": 1476,
      "撒": 1477,
      "撓": 1478,
      "撚": 1479,
      "撤": 1480,
      "撥": 1481,
      "撫": 1482,
      "播": 1483,
      "撮": 1484,
      "撰": 1485,
      "撲": 1486,
      "撹": 1487,
      "撼": 1488,
      "擁": 1489,
      "擅": 1490,
      "操": 1491,
      "擡": 1492,
      "擦": 1493,
      "擬": 1494,
      "擲": 1495,
      "擽": 1496,
      "攀": 1497,
      "攣": 1498,
      "攪": 1499,
      "攫": 1500,
      "支": 1501,
      "改": 1502,
      "攻": 1503,
      "放": 1504,
      "政": 1505,
      "故": 1506,
      "敏": 1507,
      "救": 1508,
      "敗": 1509,
      "教": 1510,
      "敢": 1511,
      "散": 1512,
      "敬": 1513,
      "数": 1514,
      "整": 1515,
      "敵": 1516,
      "敷": 1517,
      "文": 1518,
      "斉": 1519,
      "斎": 1520,
      "斐": 1521,
      "斑": 1522,
      "斗": 1523,
      "料": 1524,
      "斜": 1525,
      "斟": 1526,
      "斡": 1527,
      "斤": 1528,
      "斥": 1529,
      "斧": 1530,
      "斬": 1531,
      "断": 1532,
      "斯": 1533,
      "新": 1534,
      "方": 1535,
      "於": 1536,
      "施": 1537,
      "旅": 1538,
      "旋": 1539,
      "族": 1540,
      "旗": 1541,
      "既": 1542,
      "日": 1543,
      "旦": 1544,
      "旧": 1545,
      "旨": 1546,
      "早": 1547,
      "旬": 1548,
      "旺": 1549,
      "昂": 1550,
      "昆": 1551,
      "昇": 1552,
      "明": 1553,
      "昏": 1554,
      "易": 1555,
      "昔": 1556,
      "星": 1557,
      "映": 1558,
      "春": 1559,
      "昧": 1560,
      "昨": 1561,
      "昭": 1562,
      "是": 1563,
      "昼": 1564,
      "時": 1565,
      "晒": 1566,
      "晦": 1567,
      "晩": 1568,
      "普": 1569,
      "景": 1570,
      "晰": 1571,
      "晴": 1572,
      "晶": 1573,
      "智": 1574,
      "暁": 1575,
      "暇": 1576,
      "暈": 1577,
      "暑": 1578,
      "暖": 1579,
      "暗": 1580,
      "暢": 1581,
      "暦": 1582,
      "暫": 1583,
      "暮": 1584,
      "暴": 1585,
      "曇": 1586,
      "曖": 1587,
      "曜": 1588,
      "曝": 1589,
      "曰": 1590,
      "曲": 1591,
      "曳": 1592,
      "更": 1593,
      "書": 1594,
      "曹": 1595,
      "曽": 1596,
      "曾": 1597,
      "替": 1598,
      "最": 1599,
      "月": 1600,
      "有": 1601,
      "服": 1602,
      "朗": 1603,
      "望": 1604,
      "朝": 1605,
      "期": 1606,
      "朦": 1607,
      "朧": 1608,
      "木": 1609,
      "未": 1610,
      "末": 1611,
      "本": 1612,
      "札": 1613,
      "朱": 1614,
      "朴": 1615,
      "朶": 1616,
      "机": 1617,
      "朽": 1618,
      "杏": 1619,
      "材": 1620,
      "村": 1621,
      "杓": 1622,
      "杖": 1623,
      "杜": 1624,
      "杞": 1625,
      "束": 1626,
      "条": 1627,
      "来": 1628,
      "杭": 1629,
      "杯": 1630,
      "東": 1631,
      "杵": 1632,
      "松": 1633,
      "板": 1634,
      "析": 1635,
      "枕": 1636,
      "林": 1637,
      "枚": 1638,
      "果": 1639,
      "枝": 1640,
      "枠": 1641,
      "枢": 1642,
      "枯": 1643,
      "架": 1644,
      "枷": 1645,
      "柄": 1646,
      "某": 1647,
      "柑": 1648,
      "染": 1649,
      "柔": 1650,
      "柘": 1651,
      "柱": 1652,
      "柳": 1653,
      "柵": 1654,
      "査": 1655,
      "柿": 1656,
      "栄": 1657,
      "栓": 1658,
      "栗": 1659,
      "栞": 1660,
      "校": 1661,
      "株": 1662,
      "核": 1663,
      "根": 1664,
      "格": 1665,
      "栽": 1666,
      "桁": 1667,
      "桂": 1668,
      "桃": 1669,
      "案": 1670,
      "桜": 1671,
      "桶": 1672,
      "桿": 1673,
      "梁": 1674,
      "梅": 1675,
      "梢": 1676,
      "梨": 1677,
      "梯": 1678,
      "械": 1679,
      "梳": 1680,
      "棄": 1681,
      "棋": 1682,
      "棍": 1683,
      "棒": 1684,
      "棘": 1685,
      "棚": 1686,
      "棟": 1687,
      "森": 1688,
      "棲": 1689,
      "棹": 1690,
      "棺": 1691,
      "椀": 1692,
      "椅": 1693,
      "植": 1694,
      "椎": 1695,
      "椒": 1696,
      "検": 1697,
      "楓": 1698,
      "楔": 1699,
      "楕": 1700,
      "楚": 1701,
      "業": 1702,
      "楯": 1703,
      "極": 1704,
      "楼": 1705,
      "楽": 1706,
      "概": 1707,
      "榊": 1708,
      "榴": 1709,
      "構": 1710,
      "槌": 1711,
      "槍": 1712,
      "様": 1713,
      "槽": 1714,
      "標": 1715,
      "模": 1716,
      "権": 1717,
      "横": 1718,
      "樫": 1719,
      "樹": 1720,
      "樺": 1721,
      "樽": 1722,
      "橇": 1723,
      "橋": 1724,
      "橘": 1725,
      "橙": 1726,
      "機": 1727,
      "檄": 1728,
      "檎": 1729,
      "檻": 1730,
      "櫂": 1731,
      "櫃": 1732,
      "櫓": 1733,
      "櫛": 1734,
      "欄": 1735,
      "欒": 1736,
      "欠": 1737,
      "次": 1738,
      "欧": 1739,
      "欲": 1740,
      "欺": 1741,
      "歌": 1742,
      "歎": 1743,
      "歓": 1744,
      "止": 1745,
      "正": 1746,
      "此": 1747,
      "武": 1748,
      "歩": 1749,
      "歪": 1750,
      "歯": 1751,
      "歳": 1752,
      "歴": 1753,
      "死": 1754,
      "殆": 1755,
      "殉": 1756,
      "殊": 1757,
      "残": 1758,
      "殖": 1759,
      "殲": 1760,
      "殴": 1761,
      "段": 1762,
      "殺": 1763,
      "殻": 1764,
      "殿": 1765,
      "毅": 1766,
      "母": 1767,
      "毎": 1768,
      "毒": 1769,
      "比": 1770,
      "毛": 1771,
      "毟": 1772,
      "毬": 1773,
      "毯": 1774,
      "氏": 1775,
      "民": 1776,
      "気": 1777,
      "水": 1778,
      "氷": 1779,
      "永": 1780,
      "氾": 1781,
      "汁": 1782,
      "求": 1783,
      "汎": 1784,
      "汗": 1785,
      "汚": 1786,
      "汝": 1787,
      "江": 1788,
      "池": 1789,
      "汰": 1790,
      "汲": 1791,
      "決": 1792,
      "沁": 1793,
      "沈": 1794,
      "沌": 1795,
      "沖": 1796,
      "沙": 1797,
      "没": 1798,
      "沢": 1799,
      "沫": 1800,
      "沱": 1801,
      "河": 1802,
      "沸": 1803,
      "油": 1804,
      "治": 1805,
      "沼": 1806,
      "沽": 1807,
      "沿": 1808,
      "況": 1809,
      "泄": 1810,
      "泉": 1811,
      "泊": 1812,
      "泌": 1813,
      "法": 1814,
      "泡": 1815,
      "波": 1816,
      "泣": 1817,
      "泥": 1818,
      "注": 1819,
      "泰": 1820,
      "泳": 1821,
      "洋": 1822,
      "洒": 1823,
      "洗": 1824,
      "洞": 1825,
      "洟": 1826,
      "津": 1827,
      "洩": 1828,
      "洪": 1829,
      "活": 1830,
      "派": 1831,
      "流": 1832,
      "浄": 1833,
      "浅": 1834,
      "浚": 1835,
      "浜": 1836,
      "浦": 1837,
      "浩": 1838,
      "浪": 1839,
      "浮": 1840,
      "浴": 1841,
      "海": 1842,
      "浸": 1843,
      "消": 1844,
      "涎": 1845,
      "涙": 1846,
      "涛": 1847,
      "涜": 1848,
      "涯": 1849,
      "液": 1850,
      "涼": 1851,
      "淀": 1852,
      "淑": 1853,
      "淘": 1854,
      "淡": 1855,
      "淫": 1856,
      "深": 1857,
      "淵": 1858,
      "混": 1859,
      "淹": 1860,
      "添": 1861,
      "清": 1862,
      "渇": 1863,
      "済": 1864,
      "渉": 1865,
      "渋": 1866,
      "渓": 1867,
      "減": 1868,
      "渡": 1869,
      "渦": 1870,
      "温": 1871,
      "測": 1872,
      "港": 1873,
      "渾": 1874,
      "湖": 1875,
      "湛": 1876,
      "湧": 1877,
      "湯": 1878,
      "湾": 1879,
      "湿": 1880,
      "満": 1881,
      "溌": 1882,
      "源": 1883,
      "準": 1884,
      "溜": 1885,
      "溝": 1886,
      "溢": 1887,
      "溯": 1888,
      "溶": 1889,
      "溺": 1890,
      "滂": 1891,
      "滅": 1892,
      "滋": 1893,
      "滑": 1894,
      "滓": 1895,
      "滝": 1896,
      "滞": 1897,
      "滲": 1898,
      "滴": 1899,
      "滸": 1900,
      "滾": 1901,
      "漁": 1902,
      "漂": 1903,
      "漆": 1904,
      "漉": 1905,
      "漏": 1906,
      "漑": 1907,
      "演": 1908,
      "漕": 1909,
      "漠": 1910,
      "漢": 1911,
      "漫": 1912,
      "漬": 1913,
      "漲": 1914,
      "漸": 1915,
      "漿": 1916,
      "潔": 1917,
      "潜": 1918,
      "潤": 1919,
      "潮": 1920,
      "潰": 1921,
      "澄": 1922,
      "澱": 1923,
      "澹": 1924,
      "激": 1925,
      "濁": 1926,
      "濃": 1927,
      "濘": 1928,
      "濡": 1929,
      "濤": 1930,
      "濫": 1931,
      "濯": 1932,
      "濾": 1933,
      "瀉": 1934,
      "瀕": 1935,
      "瀟": 1936,
      "瀬": 1937,
      "瀾": 1938,
      "灌": 1939,
      "火": 1940,
      "灯": 1941,
      "灰": 1942,
      "灸": 1943,
      "灼": 1944,
      "災": 1945,
      "炉": 1946,
      "炊": 1947,
      "炎": 1948,
      "炒": 1949,
      "炙": 1950,
      "炭": 1951,
      "炸": 1952,
      "点": 1953,
      "為": 1954,
      "烈": 1955,
      "烏": 1956,
      "烙": 1957,
      "焉": 1958,
      "焔": 1959,
      "焙": 1960,
      "焚": 1961,
      "無": 1962,
      "焦": 1963,
      "焰": 1964,
      "然": 1965,
      "焼": 1966,
      "煉": 1967,
      "煌": 1968,
      "煎": 1969,
      "煙": 1970,
      "煤": 1971,
      "照": 1972,
      "煩": 1973,
      "煮": 1974,
      "煽": 1975,
      "熊": 1976,
      "熟": 1977,
      "熱": 1978,
      "熾": 1979,
      "燃": 1980,
      "燈": 1981,
      "燐": 1982,
      "燥": 1983,
      "燦": 1984,
      "燭": 1985,
      "燻": 1986,
      "燼": 1987,
      "爆": 1988,
      "爛": 1989,
      "爪": 1990,
      "爬": 1991,
      "爵": 1992,
      "父": 1993,
      "爺": 1994,
      "爽": 1995,
      "片": 1996,
      "版": 1997,
      "牌": 1998,
      "牒": 1999,
      "牙": 2000,
      "牛": 2001,
      "牡": 2002,
      "牢": 2003,
      "牧": 2004,
      "物": 2005,
      "牲": 2006,
      "特": 2007,
      "牽": 2008,
      "犠": 2009,
      "犬": 2010,
      "犯": 2011,
      "状": 2012,
      "狂": 2013,
      "狐": 2014,
      "狗": 2015,
      "狙": 2016,
      "狡": 2017,
      "狢": 2018,
      "狩": 2019,
      "独": 2020,
      "狭": 2021,
      "狸": 2022,
      "狼": 2023,
      "狽": 2024,
      "猊": 2025,
      "猛": 2026,
      "猜": 2027,
      "猟": 2028,
      "猥": 2029,
      "猩": 2030,
      "猪": 2031,
      "猫": 2032,
      "献": 2033,
      "猶": 2034,
      "猾": 2035,
      "猿": 2036,
      "獄": 2037,
      "獅": 2038,
      "獏": 2039,
      "獣": 2040,
      "獪": 2041,
      "獰": 2042,
      "獲": 2043,
      "玄": 2044,
      "率": 2045,
      "玉": 2046,
      "王": 2047,
      "玩": 2048,
      "玲": 2049,
      "珀": 2050,
      "珍": 2051,
      "珠": 2052,
      "班": 2053,
      "現": 2054,
      "球": 2055,
      "理": 2056,
      "琢": 2057,
      "琥": 2058,
      "琴": 2059,
      "瑕": 2060,
      "瑞": 2061,
      "瑠": 2062,
      "璃": 2063,
      "璧": 2064,
      "環": 2065,
      "璽": 2066,
      "瓏": 2067,
      "瓜": 2068,
      "瓦": 2069,
      "瓶": 2070,
      "甘": 2071,
      "甚": 2072,
      "生": 2073,
      "産": 2074,
      "甥": 2075,
      "甦": 2076,
      "用": 2077,
      "田": 2078,
      "由": 2079,
      "甲": 2080,
      "申": 2081,
      "男": 2082,
      "町": 2083,
      "画": 2084,
      "界": 2085,
      "畏": 2086,
      "畑": 2087,
      "畔": 2088,
      "留": 2089,
      "畜": 2090,
      "略": 2091,
      "番": 2092,
      "異": 2093,
      "畳": 2094,
      "畿": 2095,
      "疇": 2096,
      "疎": 2097,
      "疑": 2098,
      "疫": 2099,
      "疲": 2100,
      "疵": 2101,
      "疹": 2102,
      "疼": 2103,
      "疾": 2104,
      "病": 2105,
      "症": 2106,
      "痍": 2107,
      "痒": 2108,
      "痕": 2109,
      "痙": 2110,
      "痛": 2111,
      "痣": 2112,
      "痩": 2113,
      "痰": 2114,
      "痴": 2115,
      "痺": 2116,
      "痾": 2117,
      "瘴": 2118,
      "療": 2119,
      "癇": 2120,
      "癒": 2121,
      "癖": 2122,
      "癪": 2123,
      "発": 2124,
      "登": 2125,
      "白": 2126,
      "百": 2127,
      "的": 2128,
      "皆": 2129,
      "皇": 2130,
      "皮": 2131,
      "皴": 2132,
      "皺": 2133,
      "皿": 2134,
      "盃": 2135,
      "盆": 2136,
      "益": 2137,
      "盗": 2138,
      "盛": 2139,
      "盟": 2140,
      "監": 2141,
      "盤": 2142,
      "盪": 2143,
      "目": 2144,
      "盲": 2145,
      "直": 2146,
      "相": 2147,
      "盾": 2148,
      "省": 2149,
      "眇": 2150,
      "眈": 2151,
      "眉": 2152,
      "看": 2153,
      "県": 2154,
      "真": 2155,
      "眠": 2156,
      "眦": 2157,
      "眩": 2158,
      "眷": 2159,
      "眸": 2160,
      "眺": 2161,
      "眼": 2162,
      "着": 2163,
      "睡": 2164,
      "督": 2165,
      "睥": 2166,
      "睦": 2167,
      "睨": 2168,
      "睫": 2169,
      "瞋": 2170,
      "瞑": 2171,
      "瞞": 2172,
      "瞠": 2173,
      "瞥": 2174,
      "瞬": 2175,
      "瞭": 2176,
      "瞰": 2177,
      "瞳": 2178,
      "瞼": 2179,
      "矛": 2180,
      "矜": 2181,
      "矢": 2182,
      "知": 2183,
      "短": 2184,
      "矮": 2185,
      "矯": 2186,
      "石": 2187,
      "砂": 2188,
      "研": 2189,
      "砕": 2190,
      "砦": 2191,
      "砲": 2192,
      "破": 2193,
      "硝": 2194,
      "硬": 2195,
      "碌": 2196,
      "碍": 2197,
      "碧": 2198,
      "確": 2199,
      "磁": 2200,
      "磋": 2201,
      "磔": 2202,
      "磨": 2203,
      "礁": 2204,
      "礎": 2205,
      "礫": 2206,
      "示": 2207,
      "礼": 2208,
      "社": 2209,
      "祀": 2210,
      "祈": 2211,
      "祉": 2212,
      "祐": 2213,
      "祓": 2214,
      "祖": 2215,
      "祝": 2216,
      "神": 2217,
      "祟": 2218,
      "祥": 2219,
      "票": 2220,
      "祭": 2221,
      "祷": 2222,
      "禁": 2223,
      "禄": 2224,
      "禊": 2225,
      "禍": 2226,
      "福": 2227,
      "禿": 2228,
      "秀": 2229,
      "私": 2230,
      "秋": 2231,
      "科": 2232,
      "秒": 2233,
      "秘": 2234,
      "秤": 2235,
      "秩": 2236,
      "称": 2237,
      "移": 2238,
      "稀": 2239,
      "程": 2240,
      "税": 2241,
      "稚": 2242,
      "稟": 2243,
      "種": 2244,
      "稲": 2245,
      "稼": 2246,
      "稽": 2247,
      "稿": 2248,
      "穀": 2249,
      "穂": 2250,
      "積": 2251,
      "穏": 2252,
      "穢": 2253,
      "穣": 2254,
      "穫": 2255,
      "穴": 2256,
      "究": 2257,
      "空": 2258,
      "穿": 2259,
      "突": 2260,
      "窃": 2261,
      "窄": 2262,
      "窒": 2263,
      "窓": 2264,
      "窘": 2265,
      "窟": 2266,
      "窩": 2267,
      "窪": 2268,
      "窮": 2269,
      "窯": 2270,
      "窶": 2271,
      "窺": 2272,
      "竄": 2273,
      "竈": 2274,
      "立": 2275,
      "站": 2276,
      "竜": 2277,
      "章": 2278,
      "童": 2279,
      "竦": 2280,
      "端": 2281,
      "競": 2282,
      "竹": 2283,
      "竿": 2284,
      "笊": 2285,
      "笑": 2286,
      "笛": 2287,
      "笠": 2288,
      "符": 2289,
      "第": 2290,
      "笹": 2291,
      "筆": 2292,
      "筈": 2293,
      "等": 2294,
      "筋": 2295,
      "筍": 2296,
      "筒": 2297,
      "答": 2298,
      "策": 2299,
      "筵": 2300,
      "箇": 2301,
      "箋": 2302,
      "箒": 2303,
      "箔": 2304,
      "算": 2305,
      "箝": 2306,
      "管": 2307,
      "箱": 2308,
      "箸": 2309,
      "節": 2310,
      "範": 2311,
      "築": 2312,
      "篝": 2313,
      "篤": 2314,
      "篩": 2315,
      "篭": 2316,
      "簀": 2317,
      "簒": 2318,
      "簡": 2319,
      "簾": 2320,
      "簿": 2321,
      "籃": 2322,
      "籍": 2323,
      "籠": 2324,
      "籤": 2325,
      "米": 2326,
      "粉": 2327,
      "粋": 2328,
      "粒": 2329,
      "粗": 2330,
      "粘": 2331,
      "粛": 2332,
      "粟": 2333,
      "粥": 2334,
      "粧": 2335,
      "精": 2336,
      "糖": 2337,
      "糞": 2338,
      "糠": 2339,
      "糧": 2340,
      "糸": 2341,
      "系": 2342,
      "糾": 2343,
      "紀": 2344,
      "約": 2345,
      "紅": 2346,
      "紆": 2347,
      "紋": 2348,
      "納": 2349,
      "紐": 2350,
      "純": 2351,
      "紗": 2352,
      "紙": 2353,
      "級": 2354,
      "紛": 2355,
      "素": 2356,
      "紡": 2357,
      "索": 2358,
      "紫": 2359,
      "累": 2360,
      "細": 2361,
      "紳": 2362,
      "紹": 2363,
      "紺": 2364,
      "終": 2365,
      "組": 2366,
      "絆": 2367,
      "経": 2368,
      "結": 2369,
      "絞": 2370,
      "絡": 2371,
      "絢": 2372,
      "給": 2373,
      "絨": 2374,
      "統": 2375,
      "絵": 2376,
      "絶": 2377,
      "絹": 2378,
      "継": 2379,
      "続": 2380,
      "綜": 2381,
      "維": 2382,
      "綱": 2383,
      "網": 2384,
      "綴": 2385,
      "綺": 2386,
      "綻": 2387,
      "綽": 2388,
      "綾": 2389,
      "綿": 2390,
      "緊": 2391,
      "緋": 2392,
      "総": 2393,
      "緑": 2394,
      "緒": 2395,
      "緘": 2396,
      "線": 2397,
      "締": 2398,
      "編": 2399,
      "緩": 2400,
      "緯": 2401,
      "練": 2402,
      "緻": 2403,
      "縁": 2404,
      "縄": 2405,
      "縊": 2406,
      "縋": 2407,
      "縛": 2408,
      "縞": 2409,
      "縦": 2410,
      "縫": 2411,
      "縮": 2412,
      "縷": 2413,
      "縺": 2414,
      "績": 2415,
      "繁": 2416,
      "繊": 2417,
      "繋": 2418,
      "繍": 2419,
      "織": 2420,
      "繕": 2421,
      "繝": 2422,
      "繡": 2423,
      "繫": 2424,
      "繭": 2425,
      "繰": 2426,
      "繹": 2427,
      "纂": 2428,
      "纏": 2429,
      "缶": 2430,
      "罅": 2431,
      "罠": 2432,
      "罪": 2433,
      "置": 2434,
      "罰": 2435,
      "署": 2436,
      "罵": 2437,
      "罷": 2438,
      "罹": 2439,
      "羅": 2440,
      "羊": 2441,
      "美": 2442,
      "羞": 2443,
      "群": 2444,
      "羨": 2445,
      "義": 2446,
      "羹": 2447,
      "羽": 2448,
      "翅": 2449,
      "翌": 2450,
      "習": 2451,
      "翔": 2452,
      "翠": 2453,
      "翡": 2454,
      "翳": 2455,
      "翻": 2456,
      "翼": 2457,
      "耀": 2458,
      "老": 2459,
      "考": 2460,
      "耄": 2461,
      "者": 2462,
      "耐": 2463,
      "耕": 2464,
      "耗": 2465,
      "耳": 2466,
      "耶": 2467,
      "耽": 2468,
      "聖": 2469,
      "聘": 2470,
      "聞": 2471,
      "聡": 2472,
      "聳": 2473,
      "聴": 2474,
      "職": 2475,
      "聾": 2476,
      "肉": 2477,
      "肋": 2478,
      "肌": 2479,
      "肖": 2480,
      "肘": 2481,
      "肛": 2482,
      "肝": 2483,
      "股": 2484,
      "肢": 2485,
      "肥": 2486,
      "肩": 2487,
      "肪": 2488,
      "肯": 2489,
      "育": 2490,
      "肴": 2491,
      "肺": 2492,
      "胃": 2493,
      "胆": 2494,
      "背": 2495,
      "胎": 2496,
      "胞": 2497,
      "胡": 2498,
      "胱": 2499,
      "胴": 2500,
      "胸": 2501,
      "能": 2502,
      "脂": 2503,
      "脅": 2504,
      "脆": 2505,
      "脇": 2506,
      "脈": 2507,
      "脊": 2508,
      "脚": 2509,
      "脛": 2510,
      "脱": 2511,
      "脳": 2512,
      "脹": 2513,
      "腋": 2514,
      "腐": 2515,
      "腑": 2516,
      "腔": 2517,
      "腕": 2518,
      "腫": 2519,
      "腰": 2520,
      "腱": 2521,
      "腸": 2522,
      "腹": 2523,
      "腺": 2524,
      "腿": 2525,
      "膀": 2526,
      "膂": 2527,
      "膏": 2528,
      "膚": 2529,
      "膜": 2530,
      "膝": 2531,
      "膠": 2532,
      "膣": 2533,
      "膨": 2534,
      "膳": 2535,
      "膾": 2536,
      "膿": 2537,
      "臀": 2538,
      "臆": 2539,
      "臍": 2540,
      "臓": 2541,
      "臣": 2542,
      "臥": 2543,
      "臨": 2544,
      "自": 2545,
      "臭": 2546,
      "至": 2547,
      "致": 2548,
      "臼": 2549,
      "興": 2550,
      "舌": 2551,
      "舎": 2552,
      "舐": 2553,
      "舗": 2554,
      "舜": 2555,
      "舞": 2556,
      "舟": 2557,
      "航": 2558,
      "般": 2559,
      "舳": 2560,
      "舵": 2561,
      "舶": 2562,
      "舷": 2563,
      "船": 2564,
      "艇": 2565,
      "艤": 2566,
      "艦": 2567,
      "良": 2568,
      "色": 2569,
      "艶": 2570,
      "艸": 2571,
      "芋": 2572,
      "芒": 2573,
      "芝": 2574,
      "芥": 2575,
      "芯": 2576,
      "花": 2577,
      "芳": 2578,
      "芸": 2579,
      "芻": 2580,
      "芽": 2581,
      "苔": 2582,
      "苗": 2583,
      "苛": 2584,
      "若": 2585,
      "苦": 2586,
      "英": 2587,
      "苺": 2588,
      "茂": 2589,
      "茎": 2590,
      "茜": 2591,
      "茨": 2592,
      "茫": 2593,
      "茶": 2594,
      "茸": 2595,
      "茹": 2596,
      "草": 2597,
      "荒": 2598,
      "荘": 2599,
      "荷": 2600,
      "莉": 2601,
      "莫": 2602,
      "菅": 2603,
      "菊": 2604,
      "菌": 2605,
      "菓": 2606,
      "菜": 2607,
      "華": 2608,
      "菱": 2609,
      "萄": 2610,
      "萌": 2611,
      "萎": 2612,
      "落": 2613,
      "葉": 2614,
      "著": 2615,
      "葛": 2616,
      "葡": 2617,
      "董": 2618,
      "葫": 2619,
      "葬": 2620,
      "葱": 2621,
      "葺": 2622,
      "蒙": 2623,
      "蒸": 2624,
      "蒼": 2625,
      "蓄": 2626,
      "蓋": 2627,
      "蓑": 2628,
      "蓮": 2629,
      "蔑": 2630,
      "蔓": 2631,
      "蔦": 2632,
      "蔵": 2633,
      "蔽": 2634,
      "蕁": 2635,
      "蕩": 2636,
      "蕾": 2637,
      "薄": 2638,
      "薇": 2639,
      "薔": 2640,
      "薙": 2641,
      "薦": 2642,
      "薪": 2643,
      "薫": 2644,
      "薬": 2645,
      "藁": 2646,
      "藉": 2647,
      "藍": 2648,
      "藤": 2649,
      "藪": 2650,
      "藻": 2651,
      "蘆": 2652,
      "蘇": 2653,
      "蘊": 2654,
      "虎": 2655,
      "虐": 2656,
      "虔": 2657,
      "虚": 2658,
      "虜": 2659,
      "虫": 2660,
      "虱": 2661,
      "虹": 2662,
      "蚊": 2663,
      "蚓": 2664,
      "蚕": 2665,
      "蚤": 2666,
      "蚯": 2667,
      "蛆": 2668,
      "蛇": 2669,
      "蛙": 2670,
      "蛛": 2671,
      "蛞": 2672,
      "蛭": 2673,
      "蛮": 2674,
      "蛸": 2675,
      "蛹": 2676,
      "蛾": 2677,
      "蜂": 2678,
      "蜃": 2679,
      "蜈": 2680,
      "蜘": 2681,
      "蜜": 2682,
      "蜥": 2683,
      "蜴": 2684,
      "蝉": 2685,
      "蝋": 2686,
      "蝎": 2687,
      "蝓": 2688,
      "蝕": 2689,
      "蝗": 2690,
      "蝙": 2691,
      "蝠": 2692,
      "蝦": 2693,
      "蝶": 2694,
      "蝸": 2695,
      "蝿": 2696,
      "螂": 2697,
      "融": 2698,
      "螺": 2699,
      "蟇": 2700,
      "蟒": 2701,
      "蟲": 2702,
      "蟷": 2703,
      "蟹": 2704,
      "蟻": 2705,
      "蠅": 2706,
      "蠍": 2707,
      "蠕": 2708,
      "蠟": 2709,
      "蠢": 2710,
      "蠣": 2711,
      "蠱": 2712,
      "血": 2713,
      "衆": 2714,
      "行": 2715,
      "術": 2716,
      "街": 2717,
      "衛": 2718,
      "衝": 2719,
      "衡": 2720,
      "衣": 2721,
      "表": 2722,
      "衰": 2723,
      "衷": 2724,
      "衾": 2725,
      "袂": 2726,
      "袈": 2727,
      "袋": 2728,
      "袖": 2729,
      "袢": 2730,
      "被": 2731,
      "袴": 2732,
      "裁": 2733,
      "裂": 2734,
      "装": 2735,
      "裏": 2736,
      "裔": 2737,
      "裕": 2738,
      "補": 2739,
      "裟": 2740,
      "裡": 2741,
      "裸": 2742,
      "製": 2743,
      "裾": 2744,
      "褄": 2745,
      "複": 2746,
      "褐": 2747,
      "褒": 2748,
      "褪": 2749,
      "褸": 2750,
      "襞": 2751,
      "襟": 2752,
      "襤": 2753,
      "襦": 2754,
      "襲": 2755,
      "西": 2756,
      "要": 2757,
      "覆": 2758,
      "覇": 2759,
      "見": 2760,
      "規": 2761,
      "視": 2762,
      "覗": 2763,
      "覚": 2764,
      "覧": 2765,
      "親": 2766,
      "観": 2767,
      "覿": 2768,
      "角": 2769,
      "解": 2770,
      "触": 2771,
      "言": 2772,
      "訂": 2773,
      "訃": 2774,
      "計": 2775,
      "訊": 2776,
      "討": 2777,
      "訓": 2778,
      "託": 2779,
      "記": 2780,
      "訛": 2781,
      "訝": 2782,
      "訣": 2783,
      "訪": 2784,
      "設": 2785,
      "許": 2786,
      "訳": 2787,
      "訴": 2788,
      "訶": 2789,
      "診": 2790,
      "証": 2791,
      "詈": 2792,
      "詐": 2793,
      "評": 2794,
      "詛": 2795,
      "詞": 2796,
      "詠": 2797,
      "詣": 2798,
      "試": 2799,
      "詩": 2800,
      "詫": 2801,
      "詭": 2802,
      "詮": 2803,
      "詰": 2804,
      "話": 2805,
      "該": 2806,
      "詳": 2807,
      "誂": 2808,
      "誅": 2809,
      "誇": 2810,
      "誉": 2811,
      "誌": 2812,
      "認": 2813,
      "誑": 2814,
      "誓": 2815,
      "誕": 2816,
      "誘": 2817,
      "語": 2818,
      "誠": 2819,
      "誤": 2820,
      "説": 2821,
      "読": 2822,
      "誰": 2823,
      "課": 2824,
      "誹": 2825,
      "誼": 2826,
      "調": 2827,
      "諄": 2828,
      "談": 2829,
      "請": 2830,
      "諌": 2831,
      "諍": 2832,
      "論": 2833,
      "諜": 2834,
      "諤": 2835,
      "諦": 2836,
      "諫": 2837,
      "諭": 2838,
      "諮": 2839,
      "諸": 2840,
      "諺": 2841,
      "諾": 2842,
      "謀": 2843,
      "謁": 2844,
      "謂": 2845,
      "謎": 2846,
      "謐": 2847,
      "謗": 2848,
      "謙": 2849,
      "講": 2850,
      "謝": 2851,
      "謡": 2852,
      "謬": 2853,
      "謳": 2854,
      "謹": 2855,
      "識": 2856,
      "譚": 2857,
      "譜": 2858,
      "警": 2859,
      "議": 2860,
      "譲": 2861,
      "護": 2862,
      "讃": 2863,
      "讐": 2864,
      "谷": 2865,
      "谿": 2866,
      "豆": 2867,
      "豊": 2868,
      "豚": 2869,
      "象": 2870,
      "豪": 2871,
      "豹": 2872,
      "貌": 2873,
      "貝": 2874,
      "貞": 2875,
      "負": 2876,
      "財": 2877,
      "貢": 2878,
      "貧": 2879,
      "貨": 2880,
      "販": 2881,
      "貪": 2882,
      "貫": 2883,
      "責": 2884,
      "貯": 2885,
      "貰": 2886,
      "貴": 2887,
      "貶": 2888,
      "買": 2889,
      "貸": 2890,
      "費": 2891,
      "貼": 2892,
      "貿": 2893,
      "賂": 2894,
      "賃": 2895,
      "賄": 2896,
      "資": 2897,
      "賊": 2898,
      "賑": 2899,
      "賓": 2900,
      "賛": 2901,
      "賜": 2902,
      "賞": 2903,
      "賠": 2904,
      "賢": 2905,
      "賤": 2906,
      "賦": 2907,
      "質": 2908,
      "賭": 2909,
      "賺": 2910,
      "購": 2911,
      "賽": 2912,
      "贄": 2913,
      "贅": 2914,
      "贈": 2915,
      "贋": 2916,
      "贔": 2917,
      "贖": 2918,
      "赤": 2919,
      "赦": 2920,
      "走": 2921,
      "赴": 2922,
      "起": 2923,
      "超": 2924,
      "越": 2925,
      "趣": 2926,
      "趨": 2927,
      "足": 2928,
      "跋": 2929,
      "距": 2930,
      "跡": 2931,
      "跨": 2932,
      "跪": 2933,
      "路": 2934,
      "跳": 2935,
      "践": 2936,
      "踊": 2937,
      "踏": 2938,
      "踪": 2939,
      "踵": 2940,
      "蹂": 2941,
      "蹄": 2942,
      "蹙": 2943,
      "蹲": 2944,
      "蹴": 2945,
      "躇": 2946,
      "躊": 2947,
      "躍": 2948,
      "躓": 2949,
      "躙": 2950,
      "身": 2951,
      "躯": 2952,
      "躱": 2953,
      "躾": 2954,
      "軀": 2955,
      "車": 2956,
      "軋": 2957,
      "軌": 2958,
      "軍": 2959,
      "軒": 2960,
      "軛": 2961,
      "軟": 2962,
      "転": 2963,
      "軸": 2964,
      "軽": 2965,
      "較": 2966,
      "載": 2967,
      "輝": 2968,
      "輩": 2969,
      "輪": 2970,
      "輸": 2971,
      "轄": 2972,
      "轍": 2973,
      "轟": 2974,
      "轡": 2975,
      "轢": 2976,
      "辛": 2977,
      "辜": 2978,
      "辞": 2979,
      "辟": 2980,
      "辣": 2981,
      "辱": 2982,
      "農": 2983,
      "辺": 2984,
      "辻": 2985,
      "込": 2986,
      "辿": 2987,
      "迂": 2988,
      "迅": 2989,
      "迎": 2990,
      "近": 2991,
      "返": 2992,
      "迫": 2993,
      "述": 2994,
      "迷": 2995,
      "迸": 2996,
      "追": 2997,
      "退": 2998,
      "送": 2999,
      "逃": 3000,
      "逅": 3001,
      "逆": 3002,
      "透": 3003,
      "逐": 3004,
      "途": 3005,
      "逗": 3006,
      "這": 3007,
      "通": 3008,
      "逝": 3009,
      "逞": 3010,
      "速": 3011,
      "造": 3012,
      "逡": 3013,
      "逢": 3014,
      "連": 3015,
      "逮": 3016,
      "週": 3017,
      "進": 3018,
      "逸": 3019,
      "逼": 3020,
      "遁": 3021,
      "遂": 3022,
      "遅": 3023,
      "遇": 3024,
      "遊": 3025,
      "運": 3026,
      "遍": 3027,
      "過": 3028,
      "道": 3029,
      "達": 3030,
      "違": 3031,
      "遙": 3032,
      "遜": 3033,
      "遠": 3034,
      "遡": 3035,
      "遣": 3036,
      "遥": 3037,
      "適": 3038,
      "遭": 3039,
      "遮": 3040,
      "遵": 3041,
      "遷": 3042,
      "選": 3043,
      "遺": 3044,
      "遽": 3045,
      "避": 3046,
      "邁": 3047,
      "邂": 3048,
      "還": 3049,
      "邏": 3050,
      "那": 3051,
      "邦": 3052,
      "邨": 3053,
      "邪": 3054,
      "邸": 3055,
      "郊": 3056,
      "郎": 3057,
      "部": 3058,
      "郭": 3059,
      "郵": 3060,
      "郷": 3061,
      "都": 3062,
      "鄙": 3063,
      "酊": 3064,
      "酋": 3065,
      "酌": 3066,
      "配": 3067,
      "酒": 3068,
      "酔": 3069,
      "酢": 3070,
      "酩": 3071,
      "酪": 3072,
      "酬": 3073,
      "酵": 3074,
      "酷": 3075,
      "酸": 3076,
      "醇": 3077,
      "醍": 3078,
      "醐": 3079,
      "醒": 3080,
      "醜": 3081,
      "醸": 3082,
      "采": 3083,
      "釈": 3084,
      "里": 3085,
      "重": 3086,
      "野": 3087,
      "量": 3088,
      "金": 3089,
      "釘": 3090,
      "釜": 3091,
      "針": 3092,
      "釣": 3093,
      "鈍": 3094,
      "鈎": 3095,
      "鈴": 3096,
      "鉄": 3097,
      "鉈": 3098,
      "鉛": 3099,
      "鉢": 3100,
      "鉤": 3101,
      "鉱": 3102,
      "鉾": 3103,
      "銀": 3104,
      "銃": 3105,
      "銅": 3106,
      "銘": 3107,
      "銛": 3108,
      "銭": 3109,
      "鋏": 3110,
      "鋤": 3111,
      "鋭": 3112,
      "鋲": 3113,
      "鋳": 3114,
      "鋸": 3115,
      "鋼": 3116,
      "錆": 3117,
      "錐": 3118,
      "錘": 3119,
      "錚": 3120,
      "錠": 3121,
      "錨": 3122,
      "錫": 3123,
      "錬": 3124,
      "錯": 3125,
      "録": 3126,
      "鍋": 3127,
      "鍔": 3128,
      "鍛": 3129,
      "鍬": 3130,
      "鍵": 3131,
      "鎌": 3132,
      "鎖": 3133,
      "鎚": 3134,
      "鎧": 3135,
      "鎬": 3136,
      "鎮": 3137,
      "鎺": 3138,
      "鏃": 3139,
      "鏑": 3140,
      "鏖": 3141,
      "鏡": 3142,
      "鐘": 3143,
      "鐙": 3144,
      "鑑": 3145,
      "鑢": 3146,
      "鑷": 3147,
      "鑼": 3148,
      "鑽": 3149,
      "長": 3150,
      "門": 3151,
      "閂": 3152,
      "閃": 3153,
      "閉": 3154,
      "開": 3155,
      "閑": 3156,
      "間": 3157,
      "関": 3158,
      "閣": 3159,
      "閥": 3160,
      "閲": 3161,
      "閾": 3162,
      "闇": 3163,
      "闊": 3164,
      "闖": 3165,
      "闘": 3166,
      "闢": 3167,
      "防": 3168,
      "阻": 3169,
      "阿": 3170,
      "陀": 3171,
      "降": 3172,
      "限": 3173,
      "陛": 3174,
      "院": 3175,
      "陣": 3176,
      "除": 3177,
      "陥": 3178,
      "陰": 3179,
      "陳": 3180,
      "陵": 3181,
      "陶": 3182,
      "陸": 3183,
      "険": 3184,
      "陽": 3185,
      "隅": 3186,
      "隆": 3187,
      "隈": 3188,
      "隊": 3189,
      "階": 3190,
      "随": 3191,
      "隔": 3192,
      "隕": 3193,
      "隙": 3194,
      "際": 3195,
      "障": 3196,
      "隠": 3197,
      "隣": 3198,
      "隷": 3199,
      "隻": 3200,
      "隼": 3201,
      "雀": 3202,
      "雁": 3203,
      "雄": 3204,
      "雅": 3205,
      "集": 3206,
      "雇": 3207,
      "雌": 3208,
      "雑": 3209,
      "雛": 3210,
      "離": 3211,
      "難": 3212,
      "雨": 3213,
      "雪": 3214,
      "雫": 3215,
      "雰": 3216,
      "雲": 3217,
      "零": 3218,
      "雷": 3219,
      "電": 3220,
      "需": 3221,
      "霄": 3222,
      "霆": 3223,
      "震": 3224,
      "霊": 3225,
      "霜": 3226,
      "霞": 3227,
      "霧": 3228,
      "露": 3229,
      "靄": 3230,
      "青": 3231,
      "静": 3232,
      "非": 3233,
      "靠": 3234,
      "靡": 3235,
      "面": 3236,
      "革": 3237,
      "靭": 3238,
      "靱": 3239,
      "靴": 3240,
      "鞄": 3241,
      "鞍": 3242,
      "鞘": 3243,
      "鞠": 3244,
      "鞣": 3245,
      "鞭": 3246,
      "音": 3247,
      "韻": 3248,
      "響": 3249,
      "頁": 3250,
      "頂": 3251,
      "頃": 3252,
      "項": 3253,
      "順": 3254,
      "須": 3255,
      "預": 3256,
      "頑": 3257,
      "頓": 3258,
      "領": 3259,
      "頤": 3260,
      "頬": 3261,
      "頭": 3262,
      "頷": 3263,
      "頸": 3264,
      "頻": 3265,
      "頼": 3266,
      "頽": 3267,
      "題": 3268,
      "額": 3269,
      "顎": 3270,
      "顔": 3271,
      "顕": 3272,
      "願": 3273,
      "顛": 3274,
      "類": 3275,
      "顧": 3276,
      "顰": 3277,
      "風": 3278,
      "颯": 3279,
      "飄": 3280,
      "飛": 3281,
      "食": 3282,
      "飢": 3283,
      "飯": 3284,
      "飲": 3285,
      "飴": 3286,
      "飼": 3287,
      "飽": 3288,
      "飾": 3289,
      "餃": 3290,
      "餅": 3291,
      "餉": 3292,
      "養": 3293,
      "餌": 3294,
      "餓": 3295,
      "館": 3296,
      "饅": 3297,
      "饉": 3298,
      "饐": 3299,
      "饒": 3300,
      "饗": 3301,
      "首": 3302,
      "香": 3303,
      "馬": 3304,
      "馳": 3305,
      "馴": 3306,
      "駁": 3307,
      "駄": 3308,
      "駅": 3309,
      "駆": 3310,
      "駈": 3311,
      "駐": 3312,
      "駒": 3313,
      "駕": 3314,
      "駿": 3315,
      "騎": 3316,
      "騒": 3317,
      "験": 3318,
      "騙": 3319,
      "騰": 3320,
      "驕": 3321,
      "驚": 3322,
      "骨": 3323,
      "骶": 3324,
      "骸": 3325,
      "髄": 3326,
      "髏": 3327,
      "髑": 3328,
      "高": 3329,
      "髪": 3330,
      "髭": 3331,
      "髯": 3332,
      "鬣": 3333,
      "鬨": 3334,
      "鬩": 3335,
      "鬱": 3336,
      "鬼": 3337,
      "魁": 3338,
      "魂": 3339,
      "魄": 3340,
      "魅": 3341,
      "魍": 3342,
      "魎": 3343,
      "魑": 3344,
      "魔": 3345,
      "魚": 3346,
      "鮊": 3347,
      "鮫": 3348,
      "鮭": 3349,
      "鮮": 3350,
      "鯉": 3351,
      "鯨": 3352,
      "鰊": 3353,
      "鰐": 3354,
      "鰭": 3355,
      "鱈": 3356,
      "鱗": 3357,
      "鳥": 3358,
      "鳩": 3359,
      "鳳": 3360,
      "鳴": 3361,
      "鴉": 3362,
      "鴨": 3363,
      "鵜": 3364,
      "鵠": 3365,
      "鶏": 3366,
      "鶴": 3367,
      "鷲": 3368,
      "鷹": 3369,
      "鹵": 3370,
      "鹸": 3371,
      "鹿": 3372,
      "麒": 3373,
      "麓": 3374,
      "麗": 3375,
      "麟": 3376,
      "麦": 3377,
      "麺": 3378,
      "麻": 3379,
      "黄": 3380,
      "黎": 3381,
      "黒": 3382,
      "黙": 3383,
      "鼎": 3384,
      "鼓": 3385,
      "鼠": 3386,
      "鼬": 3387,
      "鼻": 3388,
      "齎": 3389,
      "齟": 3390,
      "齢": 3391,
      "齧": 3392,
      "齬": 3393,
      "龍": 3394,
      "꒨": 3395,
      "꒳": 3396,
      "︎": 3397,
      "️": 3398,
      "！": 3399,
      "％": 3400,
      "＆": 3401,
      "（": 3402,
      "）": 3403,
      "＊": 3404,
      "＋": 3405,
      "，": 3406,
      "－": 3407,
      "．": 3408,
      "／": 3409,
      "０": 3410,
      "１": 3411,
      "２": 3412,
      "３": 3413,
      "４": 3414,
      "５": 3415,
      "６": 3416,
      "７": 3417,
      "８": 3418,
      "９": 3419,
      "：": 3420,
      "＜": 3421,
      "＝": 3422,
      "＞": 3423,
      "？": 3424,
      "＠": 3425,
      "Ａ": 3426,
      "Ｂ": 3427,
      "Ｃ": 3428,
      "Ｄ": 3429,
      "Ｅ": 3430,
      "Ｆ": 3431,
      "Ｇ": 3432,
      "Ｈ": 3433,
      "Ｉ": 3434,
      "Ｊ": 3435,
      "Ｋ": 3436,
      "Ｌ": 3437,
      "Ｍ": 3438,
      "Ｎ": 3439,
      "Ｏ": 3440,
      "Ｐ": 3441,
      "Ｑ": 3442,
      "Ｒ": 3443,
      "Ｓ": 3444,
      "Ｔ": 3445,
      "Ｕ": 3446,
      "Ｖ": 3447,
      "Ｗ": 3448,
      "Ｘ": 3449,
      "Ｙ": 3450,
      "Ｚ": 3451,
      "［": 3452,
      "］": 3453,
      "｀": 3454,
      "ａ": 3455,
      "ｂ": 3456,
      "ｅ": 3457,
      "ｇ": 3458,
      "ｋ": 3459,
      "ｍ": 3460,
      "ｎ": 3461,
      "ｏ": 3462,
      "ｒ": 3463,
      "ｓ": 3464,
      "ｔ": 3465,
      "ｙ": 3466,
      "ｚ": 3467,
      "｜": 3468,
      "｝": 3469,
      "～": 3470,
      "｟": 3471,
      "｠": 3472,
      "･": 3473,
      "ｨ": 3474,
      "ｫ": 3475,
      "ｶ": 3476,
      "ｺ": 3477,
      "ｼ": 3478,
      "ｾ": 3479,
      "ﾃ": 3480,
      "ﾒ": 3481,
      "ﾔ": 3482,
      "ﾟ": 3483,
      "￣": 3484,
      "。\\": 3485,
      "」\\": 3486,
      "った": 3487,
      "てい": 3488,
      "ない": 3489,
      "……": 3490,
      "して": 3491,
      "って": 3492,
      "から": 3493,
      "した": 3494,
      "その": 3495,
      "よう": 3496,
      "ている": 3497,
      "する": 3498,
      "それ": 3499,
      "――": 3500,
      "こと": 3501,
      "ていた": 3502,
      "そう": 3503,
      "れた": 3504,
      "ある": 3505,
      "◆◆": 3506,
      "かった": 3507,
      "れる": 3508,
      "ウル": 3509,
      "んだ": 3510,
      "いう": 3511,
      "！！": 3512,
      "いた": 3513,
      "彼女": 3514,
      "では": 3515,
      "？」\\": 3516,
      "だった": 3517,
      "でも": 3518,
      "だけ": 3519,
      "には": 3520,
      "という": 3521,
      "のは": 3522,
      "ろう": 3523,
      "しい": 3524,
      "のだ": 3525,
      "ように": 3526,
      "この": 3527,
      "れば": 3528,
      "なら": 3529,
      "なく": 3530,
      "なかった": 3531,
      "です": 3532,
      "ＡＡ": 3533,
      "んな": 3534,
      "しか": 3535,
      "なる": 3536,
      "「……": 3537,
      "しま": 3538,
      "だが": 3539,
      "そして": 3540,
      "がら": 3541,
      "っている": 3542,
      "もの": 3543,
      "える": 3544,
      "まで": 3545,
      "ような": 3546,
      "んで": 3547,
      "ながら": 3548,
      "◆◆◆◆": 3549,
      "を見": 3550,
      "している": 3551,
      "自分": 3552,
      "どう": 3553,
      "のか": 3554,
      "いて": 3555,
      "れて": 3556,
      "ける": 3557,
      "ほど": 3558,
      "っていた": 3559,
      "にも": 3560,
      "きた": 3561,
      "っと": 3562,
      "じゃ": 3563,
      "だろう": 3564,
      "！」\\": 3565,
      "ジグ": 3566,
      "ーク": 3567,
      "として": 3568,
      "なん": 3569,
      "にな": 3570,
      "ため": 3571,
      "\":": 3572,
      "していた": 3573,
      "である": 3574,
      "これ": 3575,
      "――――": 3576,
      "とは": 3577,
      "ウルは": 3578,
      "でき": 3579,
      "あった": 3580,
      "たち": 3581,
      "める": 3582,
      "しかし": 3583,
      "いい": 3584,
      "の中": 3585,
      "そんな": 3586,
      "せる": 3587,
      "けた": 3588,
      "より": 3589,
      "』\\": 3590,
      "言葉": 3591,
      "しく": 3592,
      "ます": 3593,
      "へと": 3594,
      "えた": 3595,
      "された": 3596,
      "られ": 3597,
      "まり": 3598,
      "あり": 3599,
      "それは": 3600,
      "とも": 3601,
      "いる": 3602,
      "ディ": 3603,
      "少し": 3604,
      "ちゃ": 3605,
      "かに": 3606,
      "ではない": 3607,
      "俊介": 3608,
      "ギーク": 3609,
      "ことは": 3610,
      "まま": 3611,
      "彼女の": 3612,
      "ああ": 3613,
      "けて": 3614,
      "冒険": 3615,
      "ＡＡＡＡ": 3616,
      "そこ": 3617,
      "めた": 3618,
      "身体": 3619,
      "魔術": 3620,
      "nその": 3621,
      "めて": 3622,
      "冒険者": 3623,
      "えて": 3624,
      "され": 3625,
      "ック": 3626,
      "それを": 3627,
      "られた": 3628,
      "リス": 3629,
      "かな": 3630,
      "出来": 3631,
      "クレ": 3632,
      "ので": 3633,
      "シズ": 3634,
      "りと": 3635,
      "人の": 3636,
      "ta": 3637,
      "がある": 3638,
      "アイ": 3639,
      "シズク": 3640,
      "力を": 3641,
      "あの": 3642,
      "{\"": 3643,
      "くる": 3644,
      "」「": 3645,
      "上げ": 3646,
      "リー": 3647,
      "彼女は": 3648,
      "……」\\": 3649,
      "られる": 3650,
      "大き": 3651,
      "と思": 3652,
      "ころ": 3653,
      "けど": 3654,
      "クレア": 3655,
      "イン": 3656,
      "らい": 3657,
      "ってい": 3658,
      "手を": 3659,
      "ルド": 3660,
      "言う": 3661,
      "ことを": 3662,
      "前に": 3663,
      "アイリス": 3664,
      "だから": 3665,
      "もう": 3666,
      "シャ": 3667,
      "無い": 3668,
      "都市": 3669,
      "ると": 3670,
      "される": 3671,
      "さん": 3672,
      "シア": 3673,
      "ディズ": 3674,
      "とか": 3675,
      "わけ": 3676,
      "いつ": 3677,
      "良い": 3678,
      "場所": 3679,
      "ただ": 3680,
      "など": 3681,
      "―――": 3682,
      "顔を": 3683,
      "かり": 3684,
      "になる": 3685,
      "全て": 3686,
      "らしい": 3687,
      "れない": 3688,
      "ちら": 3689,
      "ませ": 3690,
      "しょ": 3691,
      "ェル": 3692,
      "もし": 3693,
      "感じ": 3694,
      "彼ら": 3695,
      "世界": 3696,
      "持ち": 3697,
      "手に": 3698,
      "こう": 3699,
      "nだが": 3700,
      "のように": 3701,
      "いや": 3702,
      "自分の": 3703,
      "のに": 3704,
      "言って": 3705,
      "させ": 3706,
      "ところ": 3707,
      "ちゃん": 3708,
      "！！」\\": 3709,
      "なんだ": 3710,
      "たい": 3711,
      "なった": 3712,
      "出す": 3713,
      "ここ": 3714,
      "まだ": 3715,
      "取り": 3716,
      "彼の": 3717,
      "迷宮": 3718,
      "nそして": 3719,
      "まる": 3720,
      "ねえ": 3721,
      "シェル": 3722,
      "達の": 3723,
      "のが": 3724,
      "エシェル": 3725,
      "何か": 3726,
      "本当": 3727,
      "とした": 3728,
      "振り": 3729,
      "らない": 3730,
      "時間": 3731,
      "ても": 3732,
      "視線": 3733,
      "してい": 3734,
      "ければ": 3735,
      "ことが": 3736,
      "的に": 3737,
      "それが": 3738,
      "の一": 3739,
      "あまり": 3740,
      "必要": 3741,
      "出した": 3742,
      "ーガ": 3743,
      "なんて": 3744,
      "の方": 3745,
      "お前": 3746,
      "ター": 3747,
      "できる": 3748,
      "によ": 3749,
      "理解": 3750,
      "ーシャ": 3751,
      "引き": 3752,
      "のだろう": 3753,
      "同じ": 3754,
      "はず": 3755,
      "じゃない": 3756,
      "はい": 3757,
      "ウーガ": 3758,
      "のような": 3759,
      "魔物": 3760,
      "よりも": 3761,
      "声を": 3762,
      "なり": 3763,
      "まあ": 3764,
      "すら": 3765,
      "っても": 3766,
      "かる": 3767,
      "であ": 3768,
      "ール": 3769,
      "以上": 3770,
      "彼は": 3771,
      "すぐ": 3772,
      "しょう": 3773,
      "気に": 3774,
      "的な": 3775,
      "間に": 3776,
      "ジャ": 3777,
      "達が": 3778,
      "仕事": 3779,
      "上が": 3780,
      "nそう": 3781,
      "また": 3782,
      "思い": 3783,
      "しない": 3784,
      "しまった": 3785,
      "目を": 3786,
      "自身": 3787,
      "ならない": 3788,
      "ウルの": 3789,
      "小さ": 3790,
      "に対": 3791,
      "考え": 3792,
      "存在": 3793,
      "くらい": 3794,
      "シアーシャ": 3795,
      "よく": 3796,
      "達は": 3797,
      "しながら": 3798,
      "えば": 3799,
      "になった": 3800,
      "わり": 3801,
      "人が": 3802,
      "ません": 3803,
      "はない": 3804,
      "ってる": 3805,
      "本当に": 3806,
      "❤」\\": 3807,
      "リア": 3808,
      "動き": 3809,
      "ちょ": 3810,
      "一つ": 3811,
      "すぎ": 3812,
      "起こ": 3813,
      "部屋": 3814,
      "◆◆◆◆◆◆◆◆": 3815,
      "ために": 3816,
      "◆◆\\": 3817,
      "◆◆◆◆◆◆◆◆◆◆\\": 3818,
      "it": 3819,
      "me": 3820,
      "リーネ": 3821,
      "それに": 3822,
      "いか": 3823,
      "もない": 3824,
      "こちら": 3825,
      "子供": 3826,
      "言葉を": 3827,
      "te": 3828,
      "le": 3829,
      "だけで": 3830,
      "ll": 3831,
      "受け": 3832,
      "\",": 3833,
      "ata": 3834,
      "data": 3835,
      "nu": 3836,
      "tit": 3837,
      "xt": 3838,
      "}}": 3839,
      "tadata": 3840,
      "metadata": 3841,
      "text": 3842,
      "null": 3843,
      "title": 3844,
      "れている": 3845,
      "夜桜": 3846,
      "目の": 3847,
      "ました": 3848,
      "しても": 3849,
      "nしかし": 3850,
      "ギルド": 3851,
      "違い": 3852,
      "すると": 3853,
      "します": 3854,
      "そも": 3855,
      "なければ": 3856,
      "気が": 3857,
      "時に": 3858,
      "それでも": 3859,
      "表情": 3860,
      "こんな": 3861,
      "浮か": 3862,
      "ＯＯ": 3863,
      "ルイ": 3864,
      "状況": 3865,
      "そうだ": 3866,
      "えない": 3867,
      "と言": 3868,
      "ならば": 3869,
      "げる": 3870,
      "わせ": 3871,
      "立ち": 3872,
      "のも": 3873,
      "しまう": 3874,
      "さい": 3875,
      "そうな": 3876,
      "スー": 3877,
      "攻撃": 3878,
      "の人": 3879,
      "相手": 3880,
      "問題": 3881,
      "落ち": 3882,
      "女性": 3883,
      "しよう": 3884,
      "情報": 3885,
      "わず": 3886,
      "可能": 3887,
      "「【": 3888,
      "精霊": 3889,
      "騎士": 3890,
      "ほどの": 3891,
      "いで": 3892,
      "体を": 3893,
      "魔力": 3894,
      "首を": 3895,
      "方が": 3896,
      "ことに": 3897,
      "「…………": 3898,
      "つも": 3899,
      "に向": 3900,
      "りの": 3901,
      "、\\": 3902,
      "ナイ": 3903,
      "来た": 3904,
      "黒炎": 3905,
      "ート": 3906,
      "ことも": 3907,
      "様子": 3908,
      "周囲": 3909,
      "ＡＡＡＡＡＡＡＡ": 3910,
      "との": 3911,
      "そのまま": 3912,
      "ース": 3913,
      "グレ": 3914,
      "大罪": 3915,
      "リと": 3916,
      "頭を": 3917,
      "魔獣": 3918,
      "があった": 3919,
      "人は": 3920,
      "変わ": 3921,
      "飛び": 3922,
      "いている": 3923,
      "込ま": 3924,
      "どこ": 3925,
      "彼女が": 3926,
      "突き": 3927,
      "全く": 3928,
      "言い": 3929,
      "っち": 3930,
      "につ": 3931,
      "とする": 3932,
      "にと": 3933,
      "ですか": 3934,
      "アカ": 3935,
      "切り": 3936,
      "！？」\\": 3937,
      "こそ": 3938,
      "まった": 3939,
      "アカネ": 3940,
      "がない": 3941,
      "瞬間": 3942,
      "いの": 3943,
      "ていく": 3944,
      "当然": 3945,
      "ギークの": 3946,
      "いを": 3947,
      "からない": 3948,
      "べき": 3949,
      "込む": 3950,
      "大きな": 3951,
      "n今": 3952,
      "を持": 3953,
      "込んで": 3954,
      "レイ": 3955,
      "事を": 3956,
      "息を": 3957,
      "すれば": 3958,
      "っく": 3959,
      "への": 3960,
      "かない": 3961,
      "されて": 3962,
      "なあ": 3963,
      "そうに": 3964,
      "大な": 3965,
      "ハハ": 3966,
      "違う": 3967,
      "強く": 3968,
      "らく": 3969,
      "らず": 3970,
      "ジグは": 3971,
      "強い": 3972,
      "いていた": 3973,
      "真っ": 3974,
      "前の": 3975,
      "更に": 3976,
      "みを": 3977,
      "共に": 3978,
      "だと": 3979,
      "？」": 3980,
      "ロック": 3981,
      "意味": 3982,
      "とき": 3983,
      "ラン": 3984,
      "りを": 3985,
      "アル": 3986,
      "せた": 3987,
      "視線を": 3988,
      "くれ": 3989,
      "押し": 3990,
      "ってきた": 3991,
      "のを": 3992,
      "身を": 3993,
      "いが": 3994,
      "させる": 3995,
      "やる": 3996,
      "竜の": 3997,
      "身体を": 3998,
      "によって": 3999,
      "nウルは": 4000,
      "生き": 4001,
      "つけ": 4002,
      "……。": 4003,
      "ちょっと": 4004,
      "であり": 4005,
      "通り": 4006,
      "にして": 4007,
      "あっ": 4008,
      "気づ": 4009,
      "とい": 4010,
      "ていない": 4011,
      "地面": 4012,
      "逃げ": 4013,
      "あれ": 4014,
      "ード": 4015,
      "確認": 4016,
      "のだが": 4017,
      "フィ": 4018,
      "付け": 4019,
      "剣を": 4020,
      "一人": 4021,
      "理由": 4022,
      "確かに": 4023,
      "カル": 4024,
      "再び": 4025,
      "既に": 4026,
      "いは": 4027,
      "】」\\": 4028,
      "すぐに": 4029,
      "ハン": 4030,
      "程度": 4031,
      "出て": 4032,
      "立て": 4033,
      "話を": 4034,
      "もしれない": 4035,
      "ラウ": 4036,
      "ですね": 4037,
      "わない": 4038,
      "他の": 4039,
      "結果": 4040,
      "ユー": 4041,
      "気を": 4042,
      "に入": 4043,
      "の上": 4044,
      "武器": 4045,
      "声が": 4046,
      "何も": 4047,
      "まるで": 4048,
      "いく": 4049,
      "ンは": 4050,
      "なに": 4051,
      "多く": 4052,
      "人格": 4053,
      "全員": 4054,
      "完全": 4055,
      "られて": 4056,
      "後の": 4057,
      "大きく": 4058,
      "悪い": 4059,
      "みたい": 4060,
      "！！！": 4061,
      "此処": 4062,
      "出来る": 4063,
      "危険": 4064,
      "イス": 4065,
      "ンと": 4066,
      "からの": 4067,
      "ではなく": 4068,
      "ユーリ": 4069,
      "なって": 4070,
      "俊介は": 4071,
      "おお": 4072,
      "であった": 4073,
      "いに": 4074,
      "今日": 4075,
      "スト": 4076,
      "口を": 4077,
      "人間": 4078,
      "無かった": 4079,
      "げた": 4080,
      "やら": 4081,
      "ット": 4082,
      "の大": 4083,
      "！！！」\\": 4084,
      "にとって": 4085,
      "ッド": 4086,
      "んだよ": 4087,
      "もなく": 4088,
      "仲間": 4089,
      "終わ": 4090,
      "やり": 4091,
      "意識": 4092,
      "続ける": 4093,
      "を見て": 4094,
      "くれる": 4095,
      "ばかり": 4096,
      "一度": 4097,
      "力が": 4098,
      "続け": 4099,
      "～～": 4100,
      "だけの": 4101,
      "ずに": 4102,
      "と共に": 4103,
      "振る": 4104,
      "これは": 4105,
      "おり": 4106,
      "スタ": 4107,
      "、【": 4108,
      "おか": 4109,
      "やって": 4110,
      "状態": 4111,
      "ディア": 4112,
      "地下": 4113,
      "できない": 4114,
      "無く": 4115,
      "ヒト": 4116,
      "と思う": 4117,
      "一瞬": 4118,
      "それで": 4119,
      "かって": 4120,
      "だけど": 4121,
      "殺し": 4122,
      "われる": 4123,
      "同時に": 4124,
      "れていた": 4125,
      "ロー": 4126,
      "叩き": 4127,
      "を使": 4128,
      "でもない": 4129,
      "イスラ": 4130,
      "魔女": 4131,
      "イスラリア": 4132,
      "ヴィ": 4133,
      "出し": 4134,
      "nそんな": 4135,
      "…」\\": 4136,
      "合わせ": 4137,
      "にある": 4138,
      "距離": 4139,
      "っか": 4140,
      "当た": 4141,
      "たちの": 4142,
      "の中で": 4143,
      "達を": 4144,
      "かれた": 4145,
      "だよ": 4146,
      "勇者": 4147,
      "っぱ": 4148,
      "まず": 4149,
      "……」": 4150,
      "スーア": 4151,
      "まさ": 4152,
      "父ちゃん": 4153,
      "黒い": 4154,
      "いえ": 4155,
      "りに": 4156,
      "われた": 4157,
      "気持ち": 4158,
      "魔王": 4159,
      "！？": 4160,
      "浮かべ": 4161,
      "だって": 4162,
      "ようだ": 4163,
      "ジグの": 4164,
      "人を": 4165,
      "中に": 4166,
      "見た": 4167,
      "物を": 4168,
      "々と": 4169,
      "はその": 4170,
      "nこの": 4171,
      "になって": 4172,
      "どれ": 4173,
      "言葉に": 4174,
      "トール": 4175,
      "ええ": 4176,
      "以外": 4177,
      "パン": 4178,
      "言った": 4179,
      "先ほど": 4180,
      "ジグが": 4181,
      "なのか": 4182,
      "そういう": 4183,
      "だな": 4184,
      "打ち": 4185,
      "かも": 4186,
      "破壊": 4187,
      "自身の": 4188,
      "今の": 4189,
      "nそれ": 4190,
      "でしょう": 4191,
      "無理": 4192,
      "聞こ": 4193,
      "だろ": 4194,
      "ウルが": 4195,
      "シズクは": 4196,
      "ための": 4197,
      "そこに": 4198,
      "をする": 4199,
      "くれた": 4200,
      "依頼": 4201,
      "近づ": 4202,
      "と同じ": 4203,
      "らす": 4204,
      "男の": 4205,
      "つまり": 4206,
      "込んだ": 4207,
      "行く": 4208,
      "を見る": 4209,
      "色の": 4210,
      "ディズは": 4211,
      "グリー": 4212,
      "）\\": 4213,
      "に対して": 4214,
      "故に": 4215,
      "無し": 4216,
      "ンの": 4217,
      "飛ば": 4218,
      "分からない": 4219,
      "。\",": 4220,
      "人形": 4221,
      "少女": 4222,
      "流石": 4223,
      "かの": 4224,
      "のだから": 4225,
      "々に": 4226,
      "もっと": 4227,
      "戦士": 4228,
      "足を": 4229,
      "つもり": 4230,
      "れど": 4231,
      "神官": 4232,
      "上げる": 4233,
      "ベル": 4234,
      "てる": 4235,
      "腕を": 4236,
      "ショ": 4237,
      "始めた": 4238,
      "グラ": 4239,
      "後に": 4240,
      "グリード": 4241,
      "ング": 4242,
      "間違い": 4243,
      "結界": 4244,
      "者が": 4245,
      "高い": 4246,
      "らの": 4247,
      "事実": 4248,
      "ッズ": 4249,
      "ついた": 4250,
      "ことで": 4251,
      "けない": 4252,
      "クレアの": 4253,
      "口に": 4254,
      "者の": 4255,
      "込み": 4256,
      "おう": 4257,
      "今は": 4258,
      "出して": 4259,
      "さを": 4260,
      "せて": 4261,
      "とう": 4262,
      "先に": 4263,
      "「――――": 4264,
      "姿を": 4265,
      "動か": 4266,
      "たちが": 4267,
      "完全に": 4268,
      "？\\": 4269,
      "？」「": 4270,
      "使い": 4271,
      "音が": 4272,
      "どうか": 4273,
      "やは": 4274,
      "…………": 4275,
      "んでいる": 4276,
      "からは": 4277,
      "アイリスは": 4278,
      "彼が": 4279,
      "られない": 4280,
      "巨大な": 4281,
      "にか": 4282,
      "大変": 4283,
      "早く": 4284,
      "ジャイン": 4285,
      "好き": 4286,
      "にいる": 4287,
      "つつ": 4288,
      "分か": 4289,
      "後ろ": 4290,
      "関係": 4291,
      "ああああ": 4292,
      "やはり": 4293,
      "いない": 4294,
      "食べ": 4295,
      "に見": 4296,
      "』「": 4297,
      "がる": 4298,
      "今回": 4299,
      "体が": 4300,
      "反応": 4301,
      "クレアは": 4302,
      "われ": 4303,
      "ント": 4304,
      "説明": 4305,
      "俺の": 4306,
      "覚え": 4307,
      "ですが": 4308,
      "願い": 4309,
      "ハンター": 4310,
      "あら": 4311,
      "ヘッズ": 4312,
      "ーレ": 4313,
      "っくりと": 4314,
      "ヘッズハンター": 4315,
      "丈夫": 4316,
      "つく": 4317,
      "まれた": 4318,
      "聞いた": 4319,
      "可能性": 4320,
      "カラ": 4321,
      "プラウ": 4322,
      "プラウディア": 4323,
      "アイリスの": 4324,
      "らし": 4325,
      "出る": 4326,
      "ようにして": 4327,
      "過ぎ": 4328,
      "までの": 4329,
      "ものだ": 4330,
      "戦闘": 4331,
      "が一": 4332,
      "小さな": 4333,
      "魔法": 4334,
      "手で": 4335,
      "かもしれない": 4336,
      "自分が": 4337,
      "村長": 4338,
      "聞き": 4339,
      "あまりにも": 4340,
      "そもそも": 4341,
      "大丈夫": 4342,
      "力は": 4343,
      "技術": 4344,
      "くだ": 4345,
      "をか": 4346,
      "良く": 4347,
      "されている": 4348,
      "絶対": 4349,
      "死ぬ": 4350,
      "小さく": 4351,
      "ですよ": 4352,
      "方の": 4353,
      "体の": 4354,
      "めていた": 4355,
      "俺は": 4356,
      "実際": 4357,
      "からだ": 4358,
      "んでいた": 4359,
      "うん": 4360,
      "事は": 4361,
      "ござ": 4362,
      "太陽": 4363,
      "者は": 4364,
      "の外": 4365,
      "飲み": 4366,
      "としても": 4367,
      "ティ": 4368,
      "榊浦": 4369,
      "僕は": 4370,
      "について": 4371,
      "踏み": 4372,
      "います": 4373,
      "神の": 4374,
      "の中に": 4375,
      "何故": 4376,
      "思った": 4377,
      "準備": 4378,
      "私は": 4379,
      "よろ": 4380,
      "グレーレ": 4381,
      "になり": 4382,
      "想像": 4383,
      "ラック": 4384,
      "さえ": 4385,
      "彼女を": 4386,
      "しろ": 4387,
      "最初": 4388,
      "nそれは": 4389,
      "やす": 4390,
      "ドル": 4391,
      "ライ": 4392,
      "巻き": 4393,
      "ながらも": 4394,
      "わざ": 4395,
      "たちは": 4396,
      "数の": 4397,
      "んと": 4398,
      "何を": 4399,
      "お願い": 4400,
      "なのだ": 4401,
      "移動": 4402,
      "が見": 4403,
      "実に": 4404,
      "ッキ": 4405,
      "来る": 4406,
      "もある": 4407,
      "手の": 4408,
      "であれば": 4409,
      "と言う": 4410,
      "り返": 4411,
      "すぎる": 4412,
      "というのは": 4413,
      "！」": 4414,
      "かい": 4415,
      "止め": 4416,
      "達に": 4417,
      "上げた": 4418,
      "ッと": 4419,
      "村の": 4420,
      "とはいえ": 4421,
      "二人": 4422,
      "を見た": 4423,
      "現在": 4424,
      "ほどに": 4425,
      "っていない": 4426,
      "ものを": 4427,
      "ありが": 4428,
      "彼らは": 4429,
      "力で": 4430,
      "勿論": 4431,
      "考える": 4432,
      "いった": 4433,
      "となる": 4434,
      "を取り": 4435,
      "カカ": 4436,
      "ンが": 4437,
      "多い": 4438,
      "つか": 4439,
      "魔眼": 4440,
      "ＯＯＯＯ": 4441,
      "ゆっくりと": 4442,
      "感情": 4443,
      "全てを": 4444,
      "にお": 4445,
      "ごと": 4446,
      "ずっと": 4447,
      "名無し": 4448,
      "死に": 4449,
      "ところで": 4450,
      "n一": 4451,
      "常に": 4452,
      "による": 4453,
      "エン": 4454,
      "深く": 4455,
      "をした": 4456,
      "感覚": 4457,
      "nと": 4458,
      "できた": 4459,
      "決して": 4460,
      "落と": 4461,
      "警戒": 4462,
      "出来ない": 4463,
      "の魔術": 4464,
      "分かる": 4465,
      "差し": 4466,
      "ってくる": 4467,
      "あん": 4468,
      "最も": 4469,
      "物の": 4470,
      "神殿": 4471,
      "しに": 4472,
      "ーム": 4473,
      "はある": 4474,
      "普通": 4475,
      "ゼロ": 4476,
      "上手": 4477,
      "じゃあ": 4478,
      "俊介の": 4479,
      "合う": 4480,
      "向け": 4481,
      "られている": 4482,
      "立つ": 4483,
      "を作": 4484,
      "ぁっ": 4485,
      "恐らく": 4486,
      "aa": 4487,
      "下ろ": 4488,
      "男が": 4489,
      "カルカラ": 4490,
      "んだけど": 4491,
      "流石に": 4492,
      "楽し": 4493,
      "を開": 4494,
      "くない": 4495,
      "日高": 4496,
      "。……": 4497,
      "光景": 4498,
      "普段": 4499,
      "かし": 4500,
      "比べ": 4501,
      "っていく": 4502,
      "がり": 4503,
      "彼女に": 4504,
      "イト": 4505,
      "何度": 4506,
      "聞いて": 4507,
      "されていた": 4508,
      "であろう": 4509,
      "とは思": 4510,
      "えていた": 4511,
      "ことだ": 4512,
      "での": 4513,
      "のある": 4514,
      "ブラック": 4515,
      "速度": 4516,
      "私の": 4517,
      "さない": 4518,
      "わせる": 4519,
      "っき": 4520,
      "とても": 4521,
      "一緒": 4522,
      "初めて": 4523,
      "白い": 4524,
      "長い": 4525,
      "していく": 4526,
      "ベッド": 4527,
      "入り": 4528,
      "判断": 4529,
      "別に": 4530,
      "経験": 4531,
      "うち": 4532,
      "してる": 4533,
      "のない": 4534,
      "ください": 4535,
      "特に": 4536,
      "王の": 4537,
      "研究": 4538,
      "となった": 4539,
      "エシェルは": 4540,
      "』『": 4541,
      "えている": 4542,
      "を放": 4543,
      "用意": 4544,
      "思わず": 4545,
      "肩を": 4546,
      "……❤」\\": 4547,
      "いだ": 4548,
      "目的": 4549,
      "ありません": 4550,
      "アホ": 4551,
      "ップ": 4552,
      "おい": 4553,
      "知っている": 4554,
      "音を": 4555,
      "グラドル": 4556,
      "死霊": 4557,
      "！\\": 4558,
      "！！」": 4559,
      "ダヴィ": 4560,
      "なるほど": 4561,
      "なければならない": 4562,
      "ダヴィネ": 4563,
      "つける": 4564,
      "目の前の": 4565,
      "出た": 4566,
      "当て": 4567,
      "……❤": 4568,
      "なんとか": 4569,
      "事に": 4570,
      "力の": 4571,
      "吐き": 4572,
      "地面に": 4573,
      "nジグは": 4574,
      "誰も": 4575,
      "だったが": 4576,
      "あるいは": 4577,
      "なんで": 4578,
      "までも": 4579,
      "明ら": 4580,
      "笑う": 4581,
      "させた": 4582,
      "つけた": 4583,
      "なの": 4584,
      "続けた": 4585,
      "行動": 4586,
      "かけ": 4587,
      "かと": 4588,
      "nだから": 4589,
      "こっち": 4590,
      "エル": 4591,
      "作業": 4592,
      "物が": 4593,
      "別の": 4594,
      "騎士団": 4595,
      "ソレ": 4596,
      "前で": 4597,
      "トル": 4598,
      "俊介が": 4599,
      "みに": 4600,
      "利用": 4601,
      "かなり": 4602,
      "上がる": 4603,
      "笑みを": 4604,
      "降り": 4605,
      "……！」\\": 4606,
      "しゃ": 4607,
      "は一": 4608,
      "焼き": 4609,
      "体は": 4610,
      "と思った": 4611,
      "取る": 4612,
      "くと": 4613,
      "声で": 4614,
      "だけだ": 4615,
      "シャナイ": 4616,
      "シャナイア": 4617,
      "入れ": 4618,
      "してきた": 4619,
      "次の": 4620,
      "相手に": 4621,
      "魔力を": 4622,
      "殺人": 4623,
      "としての": 4624,
      "さに": 4625,
      "ギークが": 4626,
      "きて": 4627,
      "なのに": 4628,
      "キュ": 4629,
      "めている": 4630,
      "悲鳴": 4631,
      "男は": 4632,
      "何の": 4633,
      "知雫": 4634,
      "合い": 4635,
      "しば": 4636,
      "張り": 4637,
      "訓練": 4638,
      "随分": 4639,
      "がいた": 4640,
      "十分": 4641,
      "笑った": 4642,
      "達も": 4643,
      "ダメ": 4644,
      "ピュ": 4645,
      "心配": 4646,
      "われて": 4647,
      "近く": 4648,
      "顔で": 4649,
      "ウーガの": 4650,
      "シン": 4651,
      "評価": 4652,
      "身に": 4653,
      "んじゃ": 4654,
      "リン": 4655,
      "七天": 4656,
      "よろしく": 4657,
      "指示": 4658,
      "空間": 4659,
      "の竜": 4660,
      "抜け": 4661,
      "目に": 4662,
      "なぜ": 4663,
      "女の": 4664,
      "直接": 4665,
      "としている": 4666,
      "始める": 4667,
      "しき": 4668,
      "つき": 4669,
      "方を": 4670,
      "きゃ": 4671,
      "ラース": 4672,
      "二つ": 4673,
      "ついて": 4674,
      "？』\\": 4675,
      "とん": 4676,
      "かれる": 4677,
      "場に": 4678,
      "だけは": 4679,
      "だろうか": 4680,
      "りゃ": 4681,
      "シズクの": 4682,
      "宝石": 4683,
      "術式": 4684,
      "そこまで": 4685,
      "ここまで": 4686,
      "リーネは": 4687,
      "場合": 4688,
      "ベー": 4689,
      "伸び": 4690,
      "ものが": 4691,
      "彼らの": 4692,
      "お願いします": 4693,
      "アレ": 4694,
      "大量": 4695,
      "しかも": 4696,
      "を受け": 4697,
      "したら": 4698,
      "向ける": 4699,
      "投げ": 4700,
      "ワイト": 4701,
      "上手く": 4702,
      "所に": 4703,
      "シアーシャが": 4704,
      "nそれを": 4705,
      "に手を": 4706,
      "付き": 4707,
      "動く": 4708,
      "日の": 4709,
      "本来": 4710,
      "疑問": 4711,
      "ーの": 4712,
      "生み": 4713,
      "タイ": 4714,
      "少年": 4715,
      "連中": 4716,
      "馬鹿": 4717,
      "られていた": 4718,
      "レイク": 4719,
      "たら": 4720,
      "駆け": 4721,
      "感じる": 4722,
      "振り返": 4723,
      "あって": 4724,
      "妙な": 4725,
      "アホワイト": 4726,
      "ピュアホワイト": 4727,
      "代わり": 4728,
      "ザイン": 4729,
      "横に": 4730,
      "なので": 4731,
      "厭勝": 4732,
      "少なく": 4733,
      "背中": 4734,
      "何処": 4735,
      "殺す": 4736,
      "けれど": 4737,
      "を行": 4738,
      "私が": 4739,
      "繰り返": 4740,
      "助け": 4741,
      "答え": 4742,
      "■■": 4743,
      "しなかった": 4744,
      "回復": 4745,
      "未来": 4746,
      "……！": 4747,
      "じる": 4748,
      "りは": 4749,
      "守る": 4750,
      "座に": 4751,
      "捨て": 4752,
      "最悪": 4753,
      "サナ": 4754,
      "怪我": 4755,
      "恐ろ": 4756,
      "払い": 4757,
      "それも": 4758,
      "の内": 4759,
      "らう": 4760,
      "クナ": 4761,
      "正直": 4762,
      "部分": 4763,
      "面倒": 4764,
      "イサナ": 4765,
      "呼び": 4766,
      "少ない": 4767,
      "トルレイク": 4768,
      "クナトルレイク": 4769,
      "余裕": 4770,
      "名前": 4771,
      "気配": 4772,
      "知ら": 4773,
      "人に": 4774,
      "人類": 4775,
      "出現": 4776,
      "大罪都市": 4777,
      "突然": 4778,
      "管理": 4779,
      "軽く": 4780,
      "黄金": 4781,
      "かつ": 4782,
      "かれ": 4783,
      "チュ": 4784,
      "見える": 4785,
      "ではなかった": 4786,
      "時の": 4787,
      "わけではない": 4788,
      "していない": 4789,
      "に戻": 4790,
      "心を": 4791,
      "の方が": 4792,
      "フィア": 4793,
      "まさか": 4794,
      "ウィ": 4795,
      "笑い": 4796,
      "全ての": 4797,
      "2人の": 4798,
      "突っ": 4799,
      "っちゃ": 4800,
      "居る": 4801,
      "考えて": 4802,
      "難しい": 4803,
      "しな": 4804,
      "不死": 4805,
      "彼等": 4806,
      "戦い": 4807,
      "握り": 4808,
      "止める": 4809,
      "ＧＧ": 4810,
      "ものの": 4811,
      "夜桜さん": 4812,
      "あと": 4813,
      "ブル": 4814,
      "無視": 4815,
      "キス": 4816,
      "手が": 4817,
      "響く": 4818,
      "しかった": 4819,
      "ゆる": 4820,
      "を受": 4821,
      "を得": 4822,
      "様に": 4823,
      "一緒に": 4824,
      "あれば": 4825,
      "としては": 4826,
      "。【": 4827,
      "マオ": 4828,
      "エク": 4829,
      "尽く": 4830,
      "指先": 4831,
      "というか": 4832,
      "どんな": 4833,
      "命を": 4834,
      "変化": 4835,
      "かは": 4836,
      "中で": 4837,
      "からね": 4838,
      "世界の": 4839,
      "ートル": 4840,
      "nそれが": 4841,
      "までは": 4842,
      "以上に": 4843,
      "さて": 4844,
      "落ち着": 4845,
      "俺が": 4846,
      "分かった": 4847,
      "呼ば": 4848,
      "犯罪": 4849,
      "しまっていた": 4850,
      "思う": 4851,
      "ーは": 4852,
      "したい": 4853,
      "殺人鬼": 4854,
      "知らない": 4855,
      "簡単": 4856,
      "にする": 4857,
      "まれ": 4858,
      "らが": 4859,
      "一番": 4860,
      "事が": 4861,
      "々の": 4862,
      "っぽ": 4863,
      "天賢": 4864,
      "足り": 4865,
      "自然": 4866,
      "々な": 4867,
      "」『": 4868,
      "方に": 4869,
      "！！』\\": 4870,
      "魔術の": 4871,
      "nこれ": 4872,
      "撫で": 4873,
      "欲しい": 4874,
      "腰を": 4875,
      "衝撃": 4876,
      "距離を": 4877,
      "n彼女は": 4878,
      "は無い": 4879,
      "ージ": 4880,
      "向こう": 4881,
      "場の": 4882,
      "頷いた": 4883,
      "の姿": 4884,
      "マス": 4885,
      "一体": 4886,
      "無論": 4887,
      "精霊の": 4888,
      "ロン": 4889,
      "伸ば": 4890,
      "即座に": 4891,
      "どこか": 4892,
      "エリン": 4893,
      "取った": 4894,
      "視界": 4895,
      "りが": 4896,
      "外に": 4897,
      "情報を": 4898,
      "はっ": 4899,
      "魔術師": 4900,
      "ルー": 4901,
      "討伐": 4902,
      "はぁ": 4903,
      "殆ど": 4904,
      "無茶": 4905,
      "はずだ": 4906,
      "かく": 4907,
      "せず": 4908,
      "はどう": 4909,
      "アナ": 4910,
      "納得": 4911,
      "装備": 4912,
      "メートル": 4913,
      "傭兵": 4914,
      "刑務": 4915,
      "まと": 4916,
      "確か": 4917,
      "少しだけ": 4918,
      "「…": 4919,
      "さら": 4920,
      "をして": 4921,
      "ダーク": 4922,
      "兵士": 4923,
      "引っ": 4924,
      "文字": 4925,
      "来て": 4926,
      "追い": 4927,
      "ＥＥ": 4928,
      "！！\\": 4929,
      "なくて": 4930,
      "ねぇ": 4931,
      "のみ": 4932,
      "やっぱ": 4933,
      "向か": 4934,
      "かが": 4935,
      "ぐらい": 4936,
      "つけて": 4937,
      "興味": 4938,
      "シズクが": 4939,
      "ナイト": 4940,
      "ダークナイト": 4941,
      "おく": 4942,
      "まい": 4943,
      "良かった": 4944,
      "終わった": 4945,
      "一切": 4946,
      "すらも": 4947,
      "尋ね": 4948,
      "放た": 4949,
      "爆発": 4950,
      "ちゃんと": 4951,
      "を引き": 4952,
      "屋敷": 4953,
      "最後": 4954,
      "なんか": 4955,
      "すと": 4956,
      "けば": 4957,
      "バベル": 4958,
      "何が": 4959,
      "からな": 4960,
      "せない": 4961,
      "白王": 4962,
      "背後": 4963,
      "見て": 4964,
      "ものだった": 4965,
      "々しい": 4966,
      "るように": 4967,
      "回避": 4968,
      "記憶": 4969,
      "起き": 4970,
      "関わ": 4971,
      "やく": 4972,
      "ＩＩ": 4973,
      "なります": 4974,
      "ものは": 4975,
      "んの": 4976,
      "んじゃない": 4977,
      "思考": 4978,
      "用の": 4979,
      "魔石": 4980,
      "いな": 4981,
      "と比べ": 4982,
      "限り": 4983,
      "静かに": 4984,
      "ではある": 4985,
      "絶対に": 4986,
      "そろ": 4987,
      "ボルド": 4988,
      "モノ": 4989,
      "乗り": 4990,
      "するように": 4991,
      "出された": 4992,
      "混乱": 4993,
      "ことはない": 4994,
      "何度も": 4995,
      "n大": 4996,
      "手段": 4997,
      "ありがとう": 4998,
      "ボロ": 4999,
      "未だ": 5000,
      "をしている": 5001,
      "白の": 5002,
      "聖女": 5003,
      "しかない": 5004,
      "まって": 5005,
      "場所に": 5006,
      "スタイン": 5007,
      "エクスタイン": 5008,
      "nウル": 5009,
      "一気に": 5010,
      "ただの": 5011,
      "上がった": 5012,
      "がった": 5013,
      "っかり": 5014,
      "を抱": 5015,
      "思議": 5016,
      "終わり": 5017,
      "んだろう": 5018,
      "明らかに": 5019,
      "まじ": 5020,
      "ましい": 5021,
      "するのは": 5022,
      "なくなった": 5023,
      "いつも": 5024,
      "不死鳥": 5025,
      "意に": 5026,
      "ックス": 5027,
      "エリン姉": 5028,
      "グリ": 5029,
      "様の": 5030,
      "のだろうか": 5031,
      "あな": 5032,
      "ーん": 5033,
      "天陽": 5034,
      "スタシア": 5035,
      "アナスタシア": 5036,
      "よね": 5037,
      "んです": 5038,
      "二人の": 5039,
      "どれだけ": 5040,
      "10": 5041,
      "抵抗": 5042,
      "確信": 5043,
      "道具": 5044,
      "いたします": 5045,
      "～～～～": 5046,
      "とな": 5047,
      "不安": 5048,
      "聞く": 5049,
      "見る": 5050,
      "出来た": 5051,
      "の間": 5052,
      "ギリ": 5053,
      "一方": 5054,
      "輝き": 5055,
      "そうか": 5056,
      "と言って": 5057,
      "マーク": 5058,
      "そこで": 5059,
      "らせる": 5060,
      "をも": 5061,
      "以上の": 5062,
      "笑みを浮かべ": 5063,
      "を変": 5064,
      "〉\\": 5065,
      "ザード": 5066,
      "なさ": 5067,
      "上に": 5068,
      "ウィザード": 5069,
      "められた": 5070,
      "感謝": 5071,
      "邪魔": 5072,
      "ハハハハ": 5073,
      "たく": 5074,
      "を向": 5075,
      "下に": 5076,
      "キュウ": 5077,
      "えず": 5078,
      "わか": 5079,
      "ニン": 5080,
      "ンッ": 5081,
      "ようと": 5082,
      "ＡＡＡＡＡＡＡＡＡＡＡＡＡＡＡＡ": 5083,
      "あッ": 5084,
      "剣の": 5085,
      "吹き": 5086,
      "自分を": 5087,
      "カルメ": 5088,
      "もまた": 5089,
      "全部": 5090,
      "戦う": 5091,
      "支配": 5092,
      "流れ": 5093,
      "組織": 5094,
      "脅威": 5095,
      "地下牢": 5096,
      "らせ": 5097,
      "二人は": 5098,
      "込まれた": 5099,
      "キュウビ": 5100,
      "だし": 5101,
      "参加": 5102,
      "んだが": 5103,
      "時間が": 5104,
      "nそう言って": 5105,
      "ラスト": 5106,
      "彼に": 5107,
      "新た": 5108,
      "不思議": 5109,
      "恐怖": 5110,
      "機関": 5111,
      "返す": 5112,
      "集中": 5113,
      "冒険者ギルド": 5114,
      "ユーリは": 5115,
      "よろしくお願いします": 5116,
      "ねば": 5117,
      "はは": 5118,
      "体に": 5119,
      "使う": 5120,
      "じて": 5121,
      "どちら": 5122,
      "モチ": 5123,
      "光が": 5124,
      "分から": 5125,
      "目で": 5126,
      "させて": 5127,
      "とて": 5128,
      "見えた": 5129,
      "貴方": 5130,
      "！\",": 5131,
      "ＲＲ": 5132,
      "白王陣": 5133,
      "なお": 5134,
      "の間に": 5135,
      "ましょう": 5136,
      "やや": 5137,
      "グル": 5138,
      "満ち": 5139,
      "発生": 5140,
      "あげ": 5141,
      "今度": 5142,
      "相手の": 5143,
      "いくら": 5144,
      "あなた": 5145,
      "最近": 5146,
      "様々な": 5147,
      "継続": 5148,
      "ギークは": 5149,
      "に対する": 5150,
      "アルノ": 5151,
      "n彼女の": 5152,
      "、“": 5153,
      "地獄": 5154,
      "食い": 5155,
      "ディズの": 5156,
      "どころ": 5157,
      "らした": 5158,
      "るのは": 5159,
      "安全": 5160,
      "正面": 5161,
      "重ね": 5162,
      "女性の": 5163,
      "あんな": 5164,
      "多分": 5165,
      "手伝": 5166,
      "気の": 5167,
      "ゼロツ": 5168,
      "アルノルド": 5169,
      "を失": 5170,
      "組み": 5171,
      "全てが": 5172,
      "地の": 5173,
      "サイ": 5174,
      "からも": 5175,
      "――――\\": 5176,
      "できなかった": 5177,
      "迷宮の": 5178,
      "周囲の": 5179,
      "宝石人形": 5180,
      "元々": 5181,
      "知識": 5182,
      "話し": 5183,
      "風に": 5184,
      "果た": 5185,
      "申し": 5186,
      "ども": 5187,
      "を探": 5188,
      "マジ": 5189,
      "付いた": 5190,
      "強化": 5191,
      "料理": 5192,
      "護衛": 5193,
      "ってた": 5194,
      "身体が": 5195,
      "あらゆる": 5196,
      "囚人": 5197,
      "！！！』\\": 5198,
      "らを": 5199,
      "アア": 5200,
      "回り": 5201,
      "時は": 5202,
      "ようやく": 5203,
      "ナイフ": 5204,
      "さと": 5205,
      "んっ": 5206,
      "予想": 5207,
      "仕方": 5208,
      "場で": 5209,
      "落下": 5210,
      "襲撃": 5211,
      "部隊": 5212,
      "ーが": 5213,
      "事情": 5214,
      "回る": 5215,
      "母ちゃん": 5216,
      "美味": 5217,
      "なし": 5218,
      "期待": 5219,
      "果て": 5220,
      "限界": 5221,
      "ことになる": 5222,
      "ルイは": 5223,
      "頭を下": 5224,
      "バカ": 5225,
      "単純": 5226,
      "方舟": 5227,
      "行った": 5228,
      "どういう": 5229,
      "あた": 5230,
      "かける": 5231,
      "ハッキ": 5232,
      "位置": 5233,
      "椅子": 5234,
      "が無い": 5235,
      "竜牙": 5236,
      "随分と": 5237,
      "ファ": 5238,
      "安心": 5239,
      "容易": 5240,
      "持つ": 5241,
      "綺麗": 5242,
      "当たり": 5243,
      "イツ": 5244,
      "表情を": 5245,
      "げに": 5246,
      "ンタ": 5247,
      "掛け": 5248,
      "機能": 5249,
      "笑み": 5250,
      "いいね": 5251,
      "に向かって": 5252,
      "あー": 5253,
      "を前に": 5254,
      "協力": 5255,
      "結局": 5256,
      "維持": 5257,
      "において": 5258,
      "ニンジャ": 5259,
      "なのは": 5260,
      "るような": 5261,
      "基本": 5262,
      "美優": 5263,
      "バク": 5264,
      "僕の": 5265,
      "物に": 5266,
      "――\\": 5267,
      "になっている": 5268,
      "ここに": 5269,
      "「……」\\": 5270,
      "かわ": 5271,
      "グロン": 5272,
      "ッチ": 5273,
      "意思": 5274,
      "直結": 5275,
      "行き": 5276,
      "ったら": 5277,
      "この世界": 5278,
      "グロンゾ": 5279,
      "を睨": 5280,
      "美しい": 5281,
      "被害": 5282,
      "冒険者の": 5283,
      "いかない": 5284,
      "日高君": 5285,
      "ブック": 5286,
      "多少": 5287,
      "私も": 5288,
      "結構": 5289,
      "調べ": 5290,
      "なくなる": 5291,
      "間違いなく": 5292,
      "バクダ": 5293,
      "姿は": 5294,
      "身体は": 5295,
      "上げて": 5296,
      "動きを": 5297,
      "気づいた": 5298,
      "様は": 5299,
      "覚悟": 5300,
      "認識": 5301,
      "だければ": 5302,
      "多くの": 5303,
      "かつて": 5304,
      "だね": 5305,
      "を指": 5306,
      "ジース": 5307,
      "スカ": 5308,
      "規模": 5309,
      "試合": 5310,
      "開いた": 5311,
      "村長婦": 5312,
      "とり": 5313,
      "らは": 5314,
      "計画": 5315,
      "話は": 5316,
      "しました": 5317,
      "はいない": 5318,
      "ベーショ": 5319,
      "モチベーショ": 5320,
      "のなら": 5321,
      "セックス": 5322,
      "事態": 5323,
      "巨大": 5324,
      "深い": 5325,
      "異常": 5326,
      "ジースター": 5327,
      "マフィア": 5328,
      "家族": 5329,
      "……、": 5330,
      "ため息を": 5331,
      "上がり": 5332,
      "表情で": 5333,
      "今回の": 5334,
      "まれる": 5335,
      "コレ": 5336,
      "力にも": 5337,
      "意を": 5338,
      "n今後の": 5339,
      "竜牙槍": 5340,
      "きながら": 5341,
      "ガザ": 5342,
      "命の": 5343,
      "者も": 5344,
      "榊浦美優": 5345,
      "ブックマーク": 5346,
      "はなかった": 5347,
      "与え": 5348,
      "力に": 5349,
      "圧倒": 5350,
      "報告": 5351,
      "外の": 5352,
      "せば": 5353,
      "酷く": 5354,
      "高く": 5355,
      "……」「": 5356,
      "加護": 5357,
      "双刃": 5358,
      "心の": 5359,
      "感を": 5360,
      "無数の": 5361,
      "選択": 5362,
      "頭部": 5363,
      "の人間": 5364,
      "n評価": 5365,
      "そりゃ": 5366,
      "みる": 5367,
      "もち": 5368,
      "崩壊": 5369,
      "無事": 5370,
      "真似": 5371,
      "者を": 5372,
      "部下": 5373,
      "どうした": 5374,
      "のでどうか": 5375,
      "理解した": 5376,
      "といった": 5377,
      "のこと": 5378,
      "イカ": 5379,
      "上で": 5380,
      "気分": 5381,
      "目が": 5382,
      "◯\\": 5383,
      "勝手に": 5384,
      "たちを": 5385,
      "大きい": 5386,
      "クレアが": 5387,
      "聞こえて": 5388,
      "かのように": 5389,
      "つい": 5390,
      "無駄": 5391,
      "感じた": 5392,
      "大きなモチベーショ": 5393,
      "少なくとも": 5394,
      "のでどうかよろしくお願いします": 5395,
      "nただ": 5396,
      "たた": 5397,
      "のです": 5398,
      "失敗": 5399,
      "頷く": 5400,
      "けてきた": 5401,
      "ンとなります": 5402,
      "大変大きなモチベーショ": 5403,
      "がいただければ": 5404,
      "いたしますのでどうかよろしくお願いします": 5405,
      "継続力にも": 5406,
      "いいねがいただければ": 5407,
      "直結いたしますのでどうかよろしくお願いします": 5408,
      "n今後の継続力にも": 5409,
      "大変大きなモチベーションとなります": 5410,
      "いいねがいただければ大変大きなモチベーションとなります": 5411,
      "n今後の継続力にも直結いたしますのでどうかよろしくお願いします": 5412,
      "にて": 5413,
      "冷静": 5414,
      "読み": 5415,
      "非常に": 5416,
      "パー": 5417,
      "付ける": 5418,
      "構え": 5419,
      "正確": 5420,
      "を見つ": 5421,
      "っぷ": 5422,
      "のために": 5423,
      "ほう": 5424,
      "ガス": 5425,
      "元の": 5426,
      "飛んで": 5427,
      "そうだな": 5428,
      "攻撃を": 5429,
      "は大": 5430,
      "入れる": 5431,
      "魔物の": 5432,
      "クソ": 5433,
      "家の": 5434,
      "精神": 5435,
      "続く": 5436,
      "驚き": 5437,
      "いたい": 5438,
      "どうする": 5439,
      "夜桜は": 5440,
      "しばらく": 5441,
      "n僕は": 5442,
      "すご": 5443,
      "わかる": 5444,
      "チャ": 5445,
      "跳ね": 5446,
      "アイリスが": 5447,
      "あまりに": 5448,
      "首を傾": 5449,
      "\\\"": 5450,
      "さっき": 5451,
      "ようで": 5452,
      "ウルに": 5453,
      "だけでも": 5454,
      "お前の": 5455,
      "がいる": 5456,
      "気で": 5457,
      "転移": 5458,
      "どうして": 5459,
      "言うと": 5460,
      "えに": 5461,
      "住民": 5462,
      "範囲": 5463,
      "頭が": 5464,
      "というのに": 5465,
      "何かを": 5466,
      "魔獣の": 5467,
      "かせる": 5468,
      "わかった": 5469,
      "向き": 5470,
      "否定": 5471,
      "問う": 5472,
      "魔具": 5473,
      "どうやら": 5474,
      "かね": 5475,
      "も無い": 5476,
      "凄まじ": 5477,
      "対処": 5478,
      "激しい": 5479,
      "知る": 5480,
      "腕が": 5481,
      "……？": 5482,
      "こちらの": 5483,
      "カーク": 5484,
      "厄介": 5485,
      "報酬": 5486,
      "心に": 5487,
      "長く": 5488,
      "躊躇": 5489,
      "であっても": 5490,
      "目の前に": 5491,
      "いき": 5492,
      "ぶり": 5493,
      "交わ": 5494,
      "当な": 5495,
      "影響": 5496,
      "為に": 5497,
      "眉を": 5498,
      "でもある": 5499,
      "魔術を": 5500,
      "仕事を": 5501,
      "nあの": 5502,
      "らしく": 5503,
      "ライン": 5504,
      "中の": 5505,
      "自らの": 5506,
      "これで": 5507,
      "―――\\": 5508,
      "大罪竜": 5509,
      "やすい": 5510,
      "抱き": 5511,
      "指を": 5512,
      "逃げる": 5513,
      "そこには": 5514,
      "「…………」": 5515,
      "刑務所": 5516,
      "ぶん": 5517,
      "ヴァ": 5518,
      "我が": 5519,
      "自由": 5520,
      "近い": 5521,
      "ギークに": 5522,
      "みたいな": 5523,
      "今日は": 5524,
      "代わりに": 5525,
      "でござ": 5526,
      "事件": 5527,
      "化け": 5528,
      "頑張": 5529,
      "ウルも": 5530,
      "もちろ": 5531,
      "ほとん": 5532,
      "やれ": 5533,
      "止めた": 5534,
      "満足": 5535,
      "だけれど": 5536,
      "次の瞬間": 5537,
      "ほとんど": 5538,
      "「―――": 5539,
      "なさい": 5540,
      "声に": 5541,
      "……？」\\": 5542,
      "ウルと": 5543,
      "理由は": 5544,
      "ごめ": 5545,
      "ぶつ": 5546,
      "先の": 5547,
      "改めて": 5548,
      "確実に": 5549,
      "酷い": 5550,
      "だろうが": 5551,
      "と呼ば": 5552,
      "叫んだ": 5553,
      "怪鳥": 5554,
      "物は": 5555,
      "を持つ": 5556,
      "を狙": 5557,
      "一歩": 5558,
      "内に": 5559,
      "態度": 5560,
      "道を": 5561,
      "これから": 5562,
      "2人": 5563,
      "いと": 5564,
      "げな": 5565,
      "ロウ": 5566,
      "以前": 5567,
      "銀の": 5568,
      "エンヴィ": 5569,
      "恐ろしい": 5570,
      "切れ": 5571,
      "斬り": 5572,
      "考えた": 5573,
      "身の": 5574,
      "やった": 5575,
      "やかな": 5576,
      "だけが": 5577,
      "まして": 5578,
      "感が": 5579,
      "最早": 5580,
      "蜂蜜": 5581,
      "あります": 5582,
      "以外の": 5583,
      "払う": 5584,
      "知り": 5585,
      "ことがある": 5586,
      "必要な": 5587,
      "大罪迷宮": 5588,
      "様が": 5589,
      "様な": 5590,
      "ここで": 5591,
      "存在する": 5592,
      "に座": 5593,
      "の手": 5594,
      "カー": 5595,
      "刺さ": 5596,
      "最高": 5597,
      "満た": 5598,
      "竜が": 5599,
      "質問": 5600,
      "金を": 5601,
      "雰囲": 5602,
      "ロックは": 5603,
      "◇◇": 5604,
      "のため": 5605,
      "のまま": 5606,
      "俺も": 5607,
      "困難": 5608,
      "間もなく": 5609,
      "の一つ": 5610,
      "？」『": 5611,
      "背負": 5612,
      "響き": 5613,
      "その時": 5614,
      "不意に": 5615,
      "会話": 5616,
      "壁に": 5617,
      "変わり": 5618,
      "合わせて": 5619,
      "クウ": 5620,
      "バス": 5621,
      "分かり": 5622,
      "女が": 5623,
      "竜は": 5624,
      "、『": 5625,
      "えなかった": 5626,
      "わからない": 5627,
      "徐々に": 5628,
      "どうしよう": 5629,
      "nが": 5630,
      "一応": 5631,
      "効果": 5632,
      "口から": 5633,
      "場を": 5634,
      "映像": 5635,
      "血を": 5636,
      "見つ": 5637,
      "進む": 5638,
      "そしてその": 5639,
      "都市民": 5640,
      "ディズが": 5641,
      "全員が": 5642,
      "此処に": 5643,
      "の先": 5644,
      "侵入": 5645,
      "大陸": 5646,
      "条件": 5647,
      "死んで": 5648,
      "それだけ": 5649,
      "こうして": 5650,
      "チラ": 5651,
      "ラー": 5652,
      "ンに": 5653,
      "勢い": 5654,
      "大人": 5655,
      "彼を": 5656,
      "昨日": 5657,
      "ウルを": 5658,
      "価値": 5659,
      "勢を": 5660,
      "開く": 5661,
      "身体に": 5662,
      "マスク": 5663,
      "たった": 5664,
      "完成": 5665,
      "したが": 5666,
      "さは": 5667,
      "ビク": 5668,
      "残る": 5669,
      "触れ": 5670,
      "革命": 5671,
      "これが": 5672,
      "危険な": 5673,
      "続けていた": 5674,
      "かせ": 5675,
      "ンっ": 5676,
      "地に": 5677,
      "痛み": 5678,
      "してお": 5679,
      "ようだった": 5680,
      "エシェルの": 5681,
      "べく": 5682,
      "深層": 5683,
      "現れた": 5684,
      "血が": 5685,
      "ものではない": 5686,
      "までに": 5687,
      "身体の": 5688,
      "あく": 5689,
      "きっと": 5690,
      "展開": 5691,
      "指輪": 5692,
      "の上に": 5693,
      "僕が": 5694,
      "切った": 5695,
      "地を": 5696,
      "役割": 5697,
      "空を": 5698,
      "賞金": 5699,
      "エンジ": 5700,
      "かす": 5701,
      "を振り": 5702,
      "事も": 5703,
      "戦争": 5704,
      "抑え": 5705,
      "王は": 5706,
      "程度の": 5707,
      "じた": 5708,
      "付く": 5709,
      "悪く": 5710,
      "教えて": 5711,
      "はずの": 5712,
      "込まれる": 5713,
      "続けている": 5714,
      "ほぼ": 5715,
      "まとも": 5716,
      "げて": 5717,
      "ンス": 5718,
      "苦労": 5719,
      "――――――――": 5720,
      "リスク": 5721,
      "わざわざ": 5722,
      "n彼は": 5723,
      "でしょ": 5724,
      "みた": 5725,
      "り着": 5726,
      "緊張": 5727,
      "ていなかった": 5728,
      "大量の": 5729,
      "もちろん": 5730,
      "】\\": 5731,
      "なっている": 5732,
      "ひた": 5733,
      "を確認": 5734,
      "唯一": 5735,
      "心臓": 5736,
      "消し": 5737,
      "続き": 5738,
      "重要": 5739,
      "鋭い": 5740,
      "防御": 5741,
      "ってしまった": 5742,
      "ストリ": 5743,
      "こぼ": 5744,
      "エイ": 5745,
      "オオ": 5746,
      "バラ": 5747,
      "男に": 5748,
      "蹴り": 5749,
      "連れて": 5750,
      "の時": 5751,
      "作り": 5752,
      "方向": 5753,
      "見えない": 5754,
      "走り": 5755,
      "馬車": 5756,
      "しては": 5757,
      "たちに": 5758,
      "部屋の": 5759,
      "ガスマスク": 5760,
      "ッッ": 5761,
      "マシ": 5762,
      "下の": 5763,
      "咆吼": 5764,
      "混じ": 5765,
      "貴族": 5766,
      "ないと": 5767,
      "したのは": 5768,
      "の中でも": 5769,
      "ティア": 5770,
      "死霊兵": 5771,
      "エルシア": 5772,
      "申し訳": 5773,
      "うる": 5774,
      "わなかった": 5775,
      "ダー": 5776,
      "切る": 5777,
      "大麦": 5778,
      "方法": 5779,
      "するような": 5780,
      "では無い": 5781,
      "未来革命": 5782,
      "やっぱり": 5783,
      "天陽騎士": 5784,
      "未来革命機関": 5785,
      "性を": 5786,
      "間違": 5787,
      "世界を": 5788,
      "を起こ": 5789,
      "ステ": 5790,
      "強引": 5791,
      "後は": 5792,
      "放つ": 5793,
      "明確": 5794,
      "気味": 5795,
      "相手を": 5796,
      "離れた": 5797,
      "になっていた": 5798,
      "くらいの": 5799,
      "榊浦豊": 5800,
      "使用": 5801,
      "側に": 5802,
      "従者": 5803,
      "死んだ": 5804,
      "比較": 5805,
      "消え": 5806,
      "出される": 5807,
      "抜き": 5808,
      "知れない": 5809,
      "ていった": 5810,
      "このまま": 5811,
      "「…………」\\": 5812,
      "nそれに": 5813,
      "さず": 5814,
      "の冒険者": 5815,
      "わね": 5816,
      "予定": 5817,
      "交易": 5818,
      "容赦": 5819,
      "怖い": 5820,
      "現象": 5821,
      "生活": 5822,
      "都合": 5823,
      "ろうと": 5824,
      "自分で": 5825,
      "もう少し": 5826,
      "魔力の": 5827,
      "うう": 5828,
      "かれて": 5829,
      "つの": 5830,
      "と同": 5831,
      "合った": 5832,
      "声は": 5833,
      "のお": 5834,
      "不明": 5835,
      "立った": 5836,
      "場所は": 5837,
      "彼らが": 5838,
      "まずは": 5839,
      "パンク": 5840,
      "しそうに": 5841,
      "められる": 5842,
      "僅かに": 5843,
      "同士": 5844,
      "形で": 5845,
      "至る": 5846,
      "観察": 5847,
      "してくれる": 5848,
      "すること": 5849,
      "しまい": 5850,
      "すぎて": 5851,
      "おかしい": 5852,
      "】【": 5853,
      "てきた": 5854,
      "ひと": 5855,
      "教え": 5856,
      "方は": 5857,
      "お前は": 5858,
      "かかる": 5859,
      "アラン": 5860,
      "マッド": 5861,
      "沈黙": 5862,
      "痛い": 5863,
      "っす": 5864,
      "に乗": 5865,
      "兵器": 5866,
      "危機": 5867,
      "喰らい": 5868,
      "必死に": 5869,
      "揺ら": 5870,
      "現状": 5871,
      "魔導": 5872,
      "っては": 5873,
      "ジャインは": 5874,
      "たたき": 5875,
      "となって": 5876,
      "なっていた": 5877,
      "まっている": 5878,
      "を解": 5879,
      "ミング": 5880,
      "施設": 5881,
      "周囲に": 5882,
      "悲鳴を": 5883,
      "どころか": 5884,
      "エンジェル": 5885,
      "吹っ": 5886,
      "拘束": 5887,
      "生まれた": 5888,
      "わけには": 5889,
      "マッドパンク": 5890,
      "\"「": 5891,
      "さが": 5892,
      "冗談": 5893,
      "避け": 5894,
      "髪の": 5895,
      "ウル様": 5896,
      "自分は": 5897,
      "じゃないか": 5898,
      "向かう": 5899,
      "ちゅ": 5900,
      "作戦": 5901,
      "北方": 5902,
      "最後の": 5903,
      "残った": 5904,
      "立場": 5905,
      "スーラ": 5906,
      "イカザ": 5907,
      "ひたすら": 5908,
      "エイスーラ": 5909,
      "あえず": 5910,
      "らった": 5911,
      "形を": 5912,
      "成長": 5913,
      "早い": 5914,
      "竜殺し": 5915,
      "若い": 5916,
      "時間を": 5917,
      "シアーシャは": 5918,
      "しが": 5919,
      "つま": 5920,
      "なぁ": 5921,
      "待ち": 5922,
      "アカネは": 5923,
      "となく": 5924,
      "剣が": 5925,
      "子を": 5926,
      "教徒": 5927,
      "書き": 5928,
      "無言": 5929,
      "苦茶": 5930,
      "出てきた": 5931,
      "まさに": 5932,
      "ストリゴ": 5933,
      "かけた": 5934,
      "が起こ": 5935,
      "くなる": 5936,
      "わかり": 5937,
      "名を": 5938,
      "点で": 5939,
      "責任": 5940,
      "迫る": 5941,
      "髪を": 5942,
      "っていった": 5943,
      "魔力が": 5944,
      "一瞬で": 5945,
      "を求": 5946,
      "人も": 5947,
      "呼吸": 5948,
      "ていて": 5949,
      "そう言って": 5950,
      "制御": 5951,
      "居た": 5952,
      "成功": 5953,
      "爆弾": 5954,
      "術を": 5955,
      "ジグに": 5956,
      "を持った": 5957,
      "ずつ": 5958,
      "ガント": 5959,
      "溢れ": 5960,
      "してくる": 5961,
      "ということ": 5962,
      "もしれ": 5963,
      "nそれでも": 5964,
      "うように": 5965,
      "こいつ": 5966,
      "バル": 5967,
      "立た": 5968,
      "置いて": 5969,
      "すぎた": 5970,
      "黒炎払い": 5971,
      "変わる": 5972,
      "切り裂": 5973,
      "なのだろう": 5974,
      "にした": 5975,
      "アンタ": 5976,
      "内容": 5977,
      "文句": 5978,
      "血の": 5979,
      "黒炎鬼": 5980,
      "グレーレは": 5981,
      "ＯＯＯＯＯＯＯＯ": 5982,
      "のだった": 5983,
      "再生": 5984,
      "化した": 5985,
      "珍しい": 5986,
      "耐え": 5987,
      "しくない": 5988,
      "タイミング": 5989,
      "天賢王": 5990,
      "まれて": 5991,
      "われている": 5992,
      "叫ぶ": 5993,
      "社会": 5994,
      "話が": 5995,
      "込め": 5996,
      "ていると": 5997,
      "に向か": 5998,
      "凄まじい": 5999,
      "スの": 6000,
      "入った": 6001,
      "酒を": 6002,
      "するが": 6003,
      "いつの間に": 6004,
      "くて": 6005,
      "のう": 6006,
      "先ほどの": 6007,
      "意見": 6008,
      "警察": 6009,
      "ＡＨ": 6010,
      "られなかった": 6011,
      "首を横に": 6012,
      "うーん": 6013,
      "上の": 6014,
      "日は": 6015,
      "過去": 6016,
      "きたい": 6017,
      "ヒトの": 6018,
      "あんた": 6019,
      "❤』\\": 6020,
      "優秀": 6021,
      "所で": 6022,
      "渡す": 6023,
      "っかりと": 6024,
      "分かっている": 6025,
      "ああああああああ": 6026,
      "わから": 6027,
      "ナは": 6028,
      "入れた": 6029,
      "己の": 6030,
      "必ず": 6031,
      "攻略": 6032,
      "頭に": 6033,
      "頼む": 6034,
      "足りない": 6035,
      "を一": 6036,
      "信仰": 6037,
      "処理": 6038,
      "実力": 6039,
      "感想": 6040,
      "新しい": 6041,
      "目は": 6042,
      "詠唱": 6043,
      "連絡": 6044,
      "顔が": 6045,
      "！」「": 6046,
      "したのか": 6047,
      "ようとした": 6048,
      "しまっている": 6049,
      "さんが": 6050,
      "何かが": 6051,
      "込まれ": 6052,
      "ございます": 6053,
      "お互": 6054,
      "が悪い": 6055,
      "ぶち": 6056,
      "シグリ": 6057,
      "優しく": 6058,
      "慌て": 6059,
      "拳を": 6060,
      "数が": 6061,
      "魔界": 6062,
      "場所で": 6063,
      "場所を": 6064,
      "おおおお": 6065,
      "おかげ": 6066,
      "正面から": 6067,
      "シグリズ": 6068,
      "たど": 6069,
      "先を": 6070,
      "向けた": 6071,
      "天井": 6072,
      "行為": 6073,
      "言えば": 6074,
      "詰め": 6075,
      "銀級": 6076,
      "お前が": 6077,
      "ルイの": 6078,
      "落ちる": 6079,
      "周囲を": 6080,
      "奇妙な": 6081,
      "斉に": 6082,
      "柔ら": 6083,
      "構える": 6084,
      "砕け": 6085,
      "調査": 6086,
      "逆に": 6087,
      "離れ": 6088,
      "こちらに": 6089,
      "aaaa": 6090,
      "簡単に": 6091,
      "の奥": 6092,
      "の前に": 6093,
      "めに": 6094,
      "やが": 6095,
      "やつ": 6096,
      "りながら": 6097,
      "人と": 6098,
      "低い": 6099,
      "幾つ": 6100,
      "最大": 6101,
      "等級": 6102,
      "遠く": 6103,
      "馴染": 6104,
      "ってしまう": 6105,
      "の人格": 6106,
      "何故か": 6107,
      "n彼の": 6108,
      "nウルの": 6109,
      "ギュ": 6110,
      "ダル": 6111,
      "吐く": 6112,
      "押さえ": 6113,
      "正しい": 6114,
      "汗を": 6115,
      "舌を": 6116,
      "通信": 6117,
      "してしまう": 6118,
      "るとる": 6119,
      "状況を": 6120,
      "と言った": 6121,
      "変わらない": 6122,
      "ブラックは": 6123,
      "さらに": 6124,
      "いえば": 6125,
      "光の": 6126,
      "半分": 6127,
      "工房": 6128,
      "幸せ": 6129,
      "心が": 6130,
      "意図": 6131,
      "際に": 6132,
      "それなり": 6133,
      "のだと": 6134,
      "そんなに": 6135,
      "意識を": 6136,
      "間違いない": 6137,
      "でござる": 6138,
      "そっと": 6139,
      "なよ": 6140,
      "よかった": 6141,
      "動作": 6142,
      "掛ける": 6143,
      "牙殻": 6144,
      "生物": 6145,
      "胸を": 6146,
      "身が": 6147,
      "言葉が": 6148,
      "変わった": 6149,
      "姿を現": 6150,
      "がな": 6151,
      "ざる": 6152,
      "すように": 6153,
      "主の": 6154,
      "回収": 6155,
      "大事": 6156,
      "消耗": 6157,
      "鍛錬": 6158,
      "じゃねえ": 6159,
      "都市の": 6160,
      "先ほどまで": 6161,
      "勢いよく": 6162,
      "まう": 6163,
      "ヤバ": 6164,
      "今まで": 6165,
      "残念": 6166,
      "知った": 6167,
      "絶頂": 6168,
      "頬を": 6169,
      "自分たちの": 6170,
      "であると": 6171,
      "アイツ": 6172,
      "こういう": 6173,
      "っつ": 6174,
      "どの": 6175,
      "よし": 6176,
      "りで": 6177,
      "ンを": 6178,
      "天才": 6179,
      "微笑": 6180,
      "性の": 6181,
      "端に": 6182,
      "走る": 6183,
      "食料": 6184,
      "――」\\": 6185,
      "もので": 6186,
      "レイライン": 6187,
      "やろう": 6188,
      "わよ": 6189,
      "幾度": 6190,
      "能力": 6191,
      "起動": 6192,
      "通常": 6193,
      "それと": 6194,
      "であるが": 6195,
      "出来なかった": 6196,
      "の力を": 6197,
      "フォ": 6198,
      "交渉": 6199,
      "任せ": 6200,
      "当に": 6201,
      "此方": 6202,
      "途中": 6203,
      "してしまった": 6204,
      "しながらも": 6205,
      "n何": 6206,
      "かなかった": 6207,
      "の意味": 6208,
      "人物": 6209,
      "元に": 6210,
      "肉を": 6211,
      "そこは": 6212,
      "さま": 6213,
      "っこ": 6214,
      "イク": 6215,
      "中央": 6216,
      "叫び": 6217,
      "学園": 6218,
      "寄せ": 6219,
      "最後に": 6220,
      "機会": 6221,
      "治療": 6222,
      "顔に": 6223,
      "ウル達の": 6224,
      "っていたが": 6225,
      "なんだよ": 6226,
      "仕方ない": 6227,
      "どのような": 6228,
      "の類": 6229,
      "フライ": 6230,
      "ラビ": 6231,
      "レベル": 6232,
      "内部": 6233,
      "原因": 6234,
      "接触": 6235,
      "格好": 6236,
      "者達": 6237,
      "見れば": 6238,
      "言っている": 6239,
      "んだから": 6240,
      "ならなかった": 6241,
      "音を立て": 6242,
      "スター": 6243,
      "凄い": 6244,
      "動いた": 6245,
      "困る": 6246,
      "指摘": 6247,
      "特別": 6248,
      "苦し": 6249,
      "話す": 6250,
      "邪教徒": 6251,
      "これ以上": 6252,
      "さんの": 6253,
      "を感じ": 6254,
      "信頼": 6255,
      "合わせる": 6256,
      "吐いた": 6257,
      "安堵": 6258,
      "性が": 6259,
      "放った": 6260,
      "次第": 6261,
      "肉棒": 6262,
      "自信": 6263,
      "蜥蜴": 6264,
      "してた": 6265,
      "そこから": 6266,
      "エシェルが": 6267,
      "武器を": 6268,
      "そっち": 6269,
      "ふむ": 6270,
      "ほら": 6271,
      "わる": 6272,
      "倒れ": 6273,
      "天剣": 6274,
      "弱い": 6275,
      "ってお": 6276,
      "の中心": 6277,
      "自身が": 6278,
      "突き刺さ": 6279,
      "んだよね": 6280,
      "たと": 6281,
      "の下": 6282,
      "イル": 6283,
      "取引": 6284,
      "水を": 6285,
      "活動": 6286,
      "腹を": 6287,
      "通路": 6288,
      "そうだった": 6289,
      "のかもしれない": 6290,
      "いても": 6291,
      "nそしてその": 6292,
      "。」\\": 6293,
      "が必要": 6294,
      "けている": 6295,
      "さっ": 6296,
      "出会": 6297,
      "振った": 6298,
      "探索": 6299,
      "気は": 6300,
      "現実": 6301,
      "輝く": 6302,
      "響いた": 6303,
      "ことなく": 6304,
      "！！！！』\\": 6305,
      "ルイが": 6306,
      "かのような": 6307,
      "そちら": 6308,
      "ーー": 6309,
      "信じ": 6310,
      "国の": 6311,
      "恥ず": 6312,
      "敵対": 6313,
      "暫く": 6314,
      "者に": 6315,
      "必要がある": 6316,
      "理解している": 6317,
      "nそうして": 6318,
      "にとっては": 6319,
      "n父ちゃん": 6320,
      "さす": 6321,
      "たっぷ": 6322,
      "ラと": 6323,
      "一人の": 6324,
      "動揺": 6325,
      "孤児": 6326,
      "建設": 6327,
      "竜吞": 6328,
      "防具": 6329,
      "ちょう": 6330,
      "子供の": 6331,
      "一人で": 6332,
      "いつの間にか": 6333,
      "により": 6334,
      "を出": 6335,
      "アニ": 6336,
      "油断": 6337,
      "竜を": 6338,
      "きゃるとる": 6339,
      "…。\\": 6340,
      "まない": 6341,
      "んですか": 6342,
      "付いて": 6343,
      "付けた": 6344,
      "全力で": 6345,
      "冬の": 6346,
      "周辺": 6347,
      "強欲": 6348,
      "服を": 6349,
      "紛れ": 6350,
      "解放": 6351,
      "過ご": 6352,
      "間の": 6353,
      "しまえば": 6354,
      "いつもの": 6355,
      "うちに": 6356,
      "二つの": 6357,
      "かけて": 6358,
      "すべき": 6359,
      "らせた": 6360,
      "全然": 6361,
      "回す": 6362,
      "女は": 6363,
      "気な": 6364,
      "疲れ": 6365,
      "相応": 6366,
      "ウル達": 6367,
      "んだろ": 6368,
      "実際に": 6369,
      "とりあえず": 6370,
      "nお": 6371,
      "ほんの": 6372,
      "機械": 6373,
      "騒動": 6374,
      "ようとする": 6375,
      "るところ": 6376,
      "の方に": 6377,
      "エンヴィー": 6378,
      "nジグの": 6379,
      "あいつ": 6380,
      "しつつ": 6381,
      "のよ": 6382,
      "やかに": 6383,
      "対象": 6384,
      "手は": 6385,
      "決めた": 6386,
      "環境": 6387,
      "生徒": 6388,
      "直ぐ": 6389,
      "解決": 6390,
      "起きた": 6391,
      "防壁": 6392,
      "１０": 6393,
      "そうなる": 6394,
      "ですから": 6395,
      "と言えば": 6396,
      "こともある": 6397,
      "nシズクは": 6398,
      "nつまり": 6399,
      "つぶ": 6400,
      "つかない": 6401,
      "らぬ": 6402,
      "を思い": 6403,
      "一般": 6404,
      "借り": 6405,
      "散ら": 6406,
      "止めて": 6407,
      "浮遊": 6408,
      "疲労": 6409,
      "的には": 6410,
      "答える": 6411,
      "魔の": 6412,
      "してくれ": 6413,
      "そう言った": 6414,
      "スーアは": 6415,
      "きている": 6416,
      "けに": 6417,
      "なのだが": 6418,
      "に関": 6419,
      "をしていた": 6420,
      "ネル": 6421,
      "不可": 6422,
      "奴は": 6423,
      "店員": 6424,
      "提案": 6425,
      "眷属": 6426,
      "約束": 6427,
      "聞いていた": 6428,
      "自体は": 6429,
      "誰かが": 6430,
      "――――」\\": 6431,
      "たちも": 6432,
      "っていう": 6433,
      "リーネの": 6434,
      "気がする": 6435,
      "状態で": 6436,
      "握りし": 6437,
      "と呼ばれる": 6438,
      "しの": 6439,
      "スが": 6440,
      "不可能": 6441,
      "二人が": 6442,
      "想定": 6443,
      "最低": 6444,
      "灰の": 6445,
      "隊長": 6446,
      "ッキング": 6447,
      "なぜか": 6448,
      "グルフィ": 6449,
      "ぶっ": 6450,
      "を突": 6451,
      "島喰": 6452,
      "幸い": 6453,
      "広い": 6454,
      "目を見": 6455,
      "相談": 6456,
      "素材": 6457,
      "することは": 6458,
      "自分に": 6459,
      "一つの": 6460,
      "でしょうか": 6461,
      "2人は": 6462,
      "メン": 6463,
      "ーを": 6464,
      "入る": 6465,
      "嫌な": 6466,
      "対応": 6467,
      "槍を": 6468,
      "歩き": 6469,
      "殺した": 6470,
      "特殊": 6471,
      "地面を": 6472,
      "太陽神": 6473,
      "nウルが": 6474,
      "」「……": 6475,
      "めながら": 6476,
      "バレ": 6477,
      "不満": 6478,
      "命令": 6479,
      "子が": 6480,
      "支援": 6481,
      "終えた": 6482,
      "自覚": 6483,
      "だろうと": 6484,
      "だからこそ": 6485,
      "真っ黒": 6486,
      "後ろに": 6487,
      "かしい": 6488,
      "ねー": 6489,
      "はまだ": 6490,
      "チーム": 6491,
      "何とか": 6492,
      "先程": 6493,
      "咄嗟": 6494,
      "学校": 6495,
      "対策": 6496,
      "本気で": 6497,
      "触れる": 6498,
      "重い": 6499,
      "長船": 6500,
      "クレアと": 6501,
      "出てくる": 6502,
      "あぁ": 6503,
      "もん": 6504,
      "両断": 6505,
      "回し": 6506,
      "木の": 6507,
      "発動": 6508,
      "職員": 6509,
      "英雄": 6510,
      "陽喰らい": 6511,
      "騒ぎ": 6512,
      "これを": 6513,
      "ではないが": 6514,
      "と言っても": 6515,
      "こな": 6516,
      "とる": 6517,
      "分の": 6518,
      "創り": 6519,
      "取って": 6520,
      "殴り": 6521,
      "溜息を": 6522,
      "色々": 6523,
      "複雑": 6524,
      "誘拐": 6525,
      "誰が": 6526,
      "では無かった": 6527,
      "言葉は": 6528,
      "振るう": 6529,
      "放たれた": 6530,
      "アニーシャ": 6531,
      "カティア": 6532,
      "テー": 6533,
      "ベイツ": 6534,
      "契約": 6535,
      "恐る": 6536,
      "激しく": 6537,
      "知らず": 6538,
      "そうと": 6539,
      "そう言う": 6540,
      "マジで": 6541,
      "強引に": 6542,
      "いち": 6543,
      "がその": 6544,
      "しさ": 6545,
      "の男": 6546,
      "ひそ": 6547,
      "むしろ": 6548,
      "も無く": 6549,
      "守り": 6550,
      "飛ぶ": 6551,
      "って来た": 6552,
      "わずかに": 6553,
      "今回は": 6554,
      "一方で": 6555,
      "パーティ": 6556,
      "かを": 6557,
      "くい": 6558,
      "の話": 6559,
      "らなかった": 6560,
      "を超": 6561,
      "開き": 6562,
      "面に": 6563,
      "ています": 6564,
      "なくても": 6565,
      "ですら": 6566,
      "部屋の中": 6567,
      "ダメージ": 6568,
      "自然と": 6569,
      "らん": 6570,
      "一杯": 6571,
      "上から": 6572,
      "困惑": 6573,
      "感に": 6574,
      "最終": 6575,
      "看守": 6576,
      "連れ": 6577,
      "ハンガ": 6578,
      "太陽の": 6579,
      "考えると": 6580,
      "■■■■": 6581,
      "nディズは": 6582,
      "『……": 6583,
      "くれて": 6584,
      "だら": 6585,
      "でない": 6586,
      "の主": 6587,
      "のではない": 6588,
      "もしか": 6589,
      "両手を": 6590,
      "付けて": 6591,
      "効率": 6592,
      "掛けた": 6593,
      "示す": 6594,
      "買い": 6595,
      "避難": 6596,
      "集団": 6597,
      "黙って": 6598,
      "それほど": 6599,
      "だけに": 6600,
      "を見せ": 6601,
      "などと": 6602,
      "視線が": 6603,
      "に対し": 6604,
      "落ちた": 6605,
      "ＧＧＧＧ": 6606,
      "を受けた": 6607,
      "サイズ": 6608,
      "ＡＨＡＨ": 6609,
      "の精霊": 6610,
      "メダル": 6611,
      "割り": 6612,
      "回転": 6613,
      "思いつ": 6614,
      "敵の": 6615,
      "本能": 6616,
      "然と": 6617,
      "甘い": 6618,
      "直撃": 6619,
      "砂漠": 6620,
      "していると": 6621,
      "カルカラは": 6622,
      "黄金級": 6623,
      "さっさと": 6624,
      "島喰亀": 6625,
      "n無論": 6626,
      "あげる": 6627,
      "かもしれ": 6628,
      "はしない": 6629,
      "ゆえに": 6630,
      "ィア": 6631,
      "フェ": 6632,
      "ーツ": 6633,
      "一本": 6634,
      "優先": 6635,
      "干渉": 6636,
      "意外": 6637,
      "手紙": 6638,
      "まったく": 6639,
      "々が": 6640,
      "うむ": 6641,
      "けていた": 6642,
      "は見": 6643,
      "ふっ": 6644,
      "を繰り返": 6645,
      "ツィア": 6646,
      "ラクレ": 6647,
      "傷を": 6648,
      "変な": 6649,
      "締め": 6650,
      "苦笑": 6651,
      "魔族": 6652,
      "してくれた": 6653,
      "だけを": 6654,
      "よりは": 6655,
      "冒険者が": 6656,
      "問題は": 6657,
      "変わらず": 6658,
      "っくり": 6659,
      "真っ直ぐ": 6660,
      "ハッキリ": 6661,
      "ひたすらに": 6662,
      "ラクレツィア": 6663,
      "n少し": 6664,
      "こない": 6665,
      "だぞ": 6666,
      "よい": 6667,
      "を守る": 6668,
      "ンチ": 6669,
      "使える": 6670,
      "型の": 6671,
      "子の": 6672,
      "後で": 6673,
      "最中": 6674,
      "っていると": 6675,
      "わけで": 6676,
      "しようと": 6677,
      "の上で": 6678,
      "何もかも": 6679,
      "落とす": 6680,
      "らわ": 6681,
      "会議": 6682,
      "何でも": 6683,
      "どうにも": 6684,
      "ともかく": 6685,
      "nそこに": 6686,
      "々しく": 6687,
      "が良い": 6688,
      "クロ": 6689,
      "人で": 6690,
      "強力": 6691,
      "盗賊": 6692,
      "覆い": 6693,
      "くらいは": 6694,
      "表情は": 6695,
      "グレンは": 6696,
      "近づいて": 6697,
      "背後から": 6698,
      "ラビィ": 6699,
      "いろ": 6700,
      "に染": 6701,
      "に来た": 6702,
      "んでも": 6703,
      "オイ": 6704,
      "加減": 6705,
      "勝利": 6706,
      "嫌悪": 6707,
      "抜く": 6708,
      "残された": 6709,
      "炎の": 6710,
      "稼ぎ": 6711,
      "軽い": 6712,
      "のかは": 6713,
      "ジグさん": 6714,
      "りとした": 6715,
      "女性が": 6716,
      "終わる": 6717,
      "すごい": 6718,
      "テーブル": 6719,
      "ませる": 6720,
      "めない": 6721,
      "を持ち": 6722,
      "ーネ": 6723,
      "不味": 6724,
      "力も": 6725,
      "吸い": 6726,
      "問いか": 6727,
      "才能": 6728,
      "泣き": 6729,
      "色欲": 6730,
      "頭の": 6731,
      "そのもの": 6732,
      "シアーシャの": 6733,
      "を持って": 6734,
      "エクスタインは": 6735,
      "くなった": 6736,
      "と一緒に": 6737,
      "まっていた": 6738,
      "らに": 6739,
      "を纏": 6740,
      "カタ": 6741,
      "スロウ": 6742,
      "チン": 6743,
      "ーい": 6744,
      "下が": 6745,
      "不足": 6746,
      "創造": 6747,
      "印象": 6748,
      "図書": 6749,
      "崩れ": 6750,
      "折川": 6751,
      "暴れ": 6752,
      "部の": 6753,
      "長屋敷": 6754,
      "ことの": 6755,
      "だったら": 6756,
      "でもあった": 6757,
      "どうしても": 6758,
      "――――――": 6759,
      "もう一度": 6760,
      "相手が": 6761,
      "アカネの": 6762,
      "動かす": 6763,
      "ＥＥＥＥ": 6764,
      "そろそろ": 6765,
      "にならない": 6766,
      "わん": 6767,
      "ガキ": 6768,
      "クッキング": 6769,
      "作った": 6770,
      "実は": 6771,
      "機嫌": 6772,
      "爆散": 6773,
      "白戸": 6774,
      "積み": 6775,
      "というよりも": 6776,
      "ＩＩＩＩ": 6777,
      "にいた": 6778,
      "に行く": 6779,
      "幼い": 6780,
      "心地": 6781,
      "確保": 6782,
      "臭い": 6783,
      "証拠": 6784,
      "を見ると": 6785,
      "ヘッズハンターが": 6786,
      "ギリギリ": 6787,
      "ぐる": 6788,
      "に過ぎ": 6789,
      "みて": 6790,
      "今も": 6791,
      "年齢": 6792,
      "構えた": 6793,
      "耳を": 6794,
      "覚える": 6795,
      "食事": 6796,
      "するために": 6797,
      "そういった": 6798,
      "たどり着": 6799,
      "n自分の": 6800,
      "nすると": 6801,
      "でした": 6802,
      "を叩き": 6803,
      "コン": 6804,
      "入れて": 6805,
      "勘違い": 6806,
      "奪い": 6807,
      "子は": 6808,
      "必死": 6809,
      "望む": 6810,
      "案内": 6811,
      "絶望": 6812,
      "量の": 6813,
      "金貨": 6814,
      "食事を": 6815,
      "でもなく": 6816,
      "咄嗟に": 6817,
      "じっと": 6818,
      "せずに": 6819,
      "まく": 6820,
      "を与": 6821,
      "を突き": 6822,
      "ノート": 6823,
      "司令": 6824,
      "潜り": 6825,
      "瓦礫": 6826,
      "真面": 6827,
      "言っていた": 6828,
      "透明": 6829,
      "どうやって": 6830,
      "俊介に": 6831,
      "時間は": 6832,
      "目を覚": 6833,
      "無視して": 6834,
      "いていく": 6835,
      "が始": 6836,
      "くれない": 6837,
      "たる": 6838,
      "のですか": 6839,
      "みの": 6840,
      "を手に": 6841,
      "今更": 6842,
      "似た": 6843,
      "厳しい": 6844,
      "大した": 6845,
      "感触": 6846,
      "突如": 6847,
      "装置": 6848,
      "複数": 6849,
      "階段": 6850,
      "隠す": 6851,
      "その後": 6852,
      "なかったが": 6853,
      "魔王の": 6854,
      "飛ばす": 6855,
      "ほしい": 6856,
      "を進": 6857,
      "事前に": 6858,
      "戦車": 6859,
      "所の": 6860,
      "歩く": 6861,
      "空気を": 6862,
      "遠い": 6863,
      "魔獣が": 6864,
      "人格犯罪": 6865,
      "なきゃ": 6866,
      "やか": 6867,
      "呼ぶ": 6868,
      "指で": 6869,
      "時点で": 6870,
      "立っていた": 6871,
      "転が": 6872,
      "防衛": 6873,
      "驚く": 6874,
      "したのだ": 6875,
      "なんだけど": 6876,
      "リーネが": 6877,
      "こちらを": 6878,
      "近づく": 6879,
      "n確かに": 6880,
      "❤❤": 6881,
      "だと思": 6882,
      "のだけれど": 6883,
      "らと": 6884,
      "位の": 6885,
      "刺激": 6886,
      "壁を": 6887,
      "強さ": 6888,
      "捕ら": 6889,
      "放り": 6890,
      "背中に": 6891,
      "赤い": 6892,
      "違和": 6893,
      "震える": 6894,
      "ウル達は": 6895,
      "しましょう": 6896,
      "もっとも": 6897,
      "を行う": 6898,
      "今度は": 6899,
      "いきなり": 6900,
      "賞金首": 6901,
      "1つ": 6902,
      "さあ": 6903,
      "何時": 6904,
      "困った": 6905,
      "心底": 6906,
      "慣れ": 6907,
      "把握": 6908,
      "驚いた": 6909,
      "！』\\": 6910,
      "！！！！": 6911,
      "出現した": 6912,
      "n彼女": 6913,
      "グード": 6914,
      "ベグード": 6915,
      "仕方が": 6916,
      "反射": 6917,
      "完璧": 6918,
      "性は": 6919,
      "拒絶": 6920,
      "要塞": 6921,
      "身につ": 6922,
      "……\\": 6923,
      "目を細": 6924,
      "動きが": 6925,
      "引っ張": 6926,
      "きます": 6927,
      "グロー": 6928,
      "ドーム": 6929,
      "人対": 6930,
      "何人": 6931,
      "受付": 6932,
      "左右": 6933,
      "済ませ": 6934,
      "隠し": 6935,
      "飛んだ": 6936,
      "……』": 6937,
      "んだな": 6938,
      "されない": 6939,
      "考えれば": 6940,
      "様子で": 6941,
      "アカネが": 6942,
      "に入る": 6943,
      "速度で": 6944,
      "ねばならない": 6945,
      "せい": 6946,
      "べて": 6947,
      "みんな": 6948,
      "トラ": 6949,
      "倒す": 6950,
      "始め": 6951,
      "怒り": 6952,
      "抜いた": 6953,
      "真昼": 6954,
      "興奮": 6955,
      "衛星": 6956,
      "金属": 6957,
      "面白": 6958,
      "してから": 6959,
      "するための": 6960,
      "そうになる": 6961,
      "ウルには": 6962,
      "この状況": 6963,
      "ロックの": 6964,
      "ではあるが": 6965,
      "n彼女が": 6966,
      "代物": 6967,
      "倉庫": 6968,
      "守護": 6969,
      "性格": 6970,
      "慣れた": 6971,
      "掛けて": 6972,
      "特徴": 6973,
      "知ってる": 6974,
      "達と": 6975,
      "ったり": 6976,
      "そういえば": 6977,
      "ますか": 6978,
      "使い魔": 6979,
      "を開始": 6980,
      "つつも": 6981,
      "なれば": 6982,
      "もいる": 6983,
      "を通": 6984,
      "スを": 6985,
      "ペリ": 6986,
      "吐息": 6987,
      "焦牢": 6988,
      "許可": 6989,
      "えると": 6990,
      "の中から": 6991,
      "ときは": 6992,
      "を使って": 6993,
      "グラドルの": 6994,
      "しなければならない": 6995,
      "ずれ": 6996,
      "めき": 6997,
      "タリと": 6998,
      "ーズ": 6999,
      "中から": 7000,
      "操る": 7001,
      "放置": 7002,
      "権を": 7003,
      "残り": 7004,
      "瞬く": 7005,
      "群れ": 7006,
      "語り": 7007,
      "貴方の": 7008,
      "返した": 7009,
      "ったのは": 7010,
      "からか": 7011,
      "にはい": 7012,
      "とは違う": 7013,
      "浮かぶ": 7014,
      "べきか": 7015,
      "グリードの": 7016,
      "プラウディアの": 7017,
      "については": 7018,
      "普通の": 7019,
      "ちょうど": 7020,
      "n普段": 7021,
      "がいい": 7022,
      "しっかりと": 7023,
      "となり": 7024,
      "まん": 7025,
      "クリ": 7026,
      "可愛": 7027,
      "唇を": 7028,
      "始末": 7029,
      "弾き": 7030,
      "怪しい": 7031,
      "持って": 7032,
      "挨拶": 7033,
      "生産": 7034,
      "続けて": 7035,
      "の一部": 7036,
      "小さい": 7037,
      "あんまり": 7038,
      "ペリィ": 7039,
      "たび": 7040,
      "どん": 7041,
      "に行": 7042,
      "一斉に": 7043,
      "二度": 7044,
      "内心": 7045,
      "家畜": 7046,
      "思える": 7047,
      "消費": 7048,
      "炎が": 7049,
      "生まれ": 7050,
      "睨み": 7051,
      "辺り": 7052,
      "？』「": 7053,
      "れるように": 7054,
      "ウルバス": 7055,
      "考えていた": 7056,
      "方が良い": 7057,
      "気持ち良": 7058,
      "聞こえる": 7059,
      "ビクトール": 7060,
      "n自分": 7061,
      "n当然": 7062,
      "てめ": 7063,
      "に出": 7064,
      "はや": 7065,
      "ヨー": 7066,
      "余計": 7067,
      "内の": 7068,
      "分け": 7069,
      "剣は": 7070,
      "常識": 7071,
      "戻す": 7072,
      "書類": 7073,
      "極めて": 7074,
      "獲得": 7075,
      "目指": 7076,
      "誘導": 7077,
      "違った": 7078,
      "邪悪": 7079,
      "金の": 7080,
      "したように": 7081,
      "どうでも": 7082,
      "っていて": 7083,
      "振り下ろ": 7084,
      "ことができる": 7085,
      "現在の": 7086,
      "指示を": 7087,
      "nジグが": 7088,
      "に従": 7089,
      "もあった": 7090,
      "俺に": 7091,
      "性質": 7092,
      "暗い": 7093,
      "澄人": 7094,
      "由莉": 7095,
      "社交": 7096,
      "紗由莉": 7097,
      "語る": 7098,
      "遙かに": 7099,
      "そうして": 7100,
      "そうとした": 7101,
      "ということは": 7102,
      "のかも": 7103,
      "理解していた": 7104,
      "込まれて": 7105,
      "真っ赤": 7106,
      "ロックが": 7107,
      "ばかりに": 7108,
      "魔王は": 7109,
      "知らぬ": 7110,
      "ゼロツー": 7111,
      "nギークの": 7112,
      "があり": 7113,
      "きていた": 7114,
      "せいで": 7115,
      "の言葉に": 7116,
      "シュ": 7117,
      "ダン": 7118,
      "バー": 7119,
      "割と": 7120,
      "助けて": 7121,
      "承知": 7122,
      "捨てる": 7123,
      "製の": 7124,
      "話だ": 7125,
      "通りの": 7126,
      "……！！」\\": 7127,
      "そんなことを": 7128,
      "込んでいる": 7129,
      "ボルドーは": 7130,
      "ＲＲＲＲ": 7131,
      "nギークが": 7132,
      "なにも": 7133,
      "はこの": 7134,
      "久し": 7135,
      "倒した": 7136,
      "優しい": 7137,
      "反対": 7138,
      "度の": 7139,
      "抽送": 7140,
      "次に": 7141,
      "！！」「": 7142,
      "ろうとする": 7143,
      "とも言": 7144,
      "起こす": 7145,
      "部屋に": 7146,
      "ありがとうございます": 7147,
      "かわらず": 7148,
      "ヤバい": 7149,
      "n故に": 7150,
      "いけない": 7151,
      "っしゃ": 7152,
      "なこと": 7153,
      "ガルー": 7154,
      "使って": 7155,
      "口の": 7156,
      "奴が": 7157,
      "奴隷": 7158,
      "教室": 7159,
      "構わない": 7160,
      "歩ム": 7161,
      "男を": 7162,
      "階層": 7163,
      "可能な": 7164,
      "視線を向ける": 7165,
      "を睨み": 7166,
      "ガルーダ": 7167,
      "ちな": 7168,
      "は無かった": 7169,
      "ウラ": 7170,
      "何より": 7171,
      "力と": 7172,
      "告げ": 7173,
      "呟いた": 7174,
      "姿に": 7175,
      "得意": 7176,
      "握る": 7177,
      "構造": 7178,
      "死体": 7179,
      "繋がり": 7180,
      "腕は": 7181,
      "色が": 7182,
      "隙間": 7183,
      "……）\\": 7184,
      "その瞬間": 7185,
      "ことはなかった": 7186,
      "言ってる": 7187,
      "ギルドの": 7188,
      "問題ない": 7189,
      "様子を": 7190,
      "フィーネ": 7191,
      "此処は": 7192,
      "シャナイアが": 7193,
      "～～～～～～～～": 7194,
      "圧倒的な": 7195,
      "歩ム者": 7196,
      "n本当に": 7197,
      "々を": 7198,
      "たり": 7199,
      "だい": 7200,
      "はそう": 7201,
      "を鳴": 7202,
      "ビット": 7203,
      "冷や": 7204,
      "叩く": 7205,
      "安定": 7206,
      "家に": 7207,
      "年の": 7208,
      "挿入": 7209,
      "水晶": 7210,
      "消えた": 7211,
      "烈な": 7212,
      "競技": 7213,
      "粘魔": 7214,
      "言われて": 7215,
      "面を": 7216,
      "黒剣": 7217,
      "めると": 7218,
      "トールビット": 7219,
      "大量に": 7220,
      "ハッキリと": 7221,
      "容赦なく": 7222,
      "の良い": 7223,
      "シスター": 7224,
      "プル": 7225,
      "代の": 7226,
      "光を": 7227,
      "刃が": 7228,
      "拠点": 7229,
      "暴走": 7230,
      "殺意": 7231,
      "誰にも": 7232,
      "貴様": 7233,
      "追いか": 7234,
      "金色の": 7235,
      "驚愕": 7236,
      "？』": 7237,
      "グレン": 7238,
      "つけられた": 7239,
      "気づく": 7240,
      "と同じように": 7241,
      "最悪の": 7242,
      "カルメは": 7243,
      "無言で": 7244,
      "おかげで": 7245,
      "かか": 7246,
      "らせて": 7247,
      "るが": 7248,
      "ヨルド": 7249,
      "ラス": 7250,
      "亜人": 7251,
      "今から": 7252,
      "奇跡": 7253,
      "嫌い": 7254,
      "数は": 7255,
      "星野": 7256,
      "武装": 7257,
      "燃え": 7258,
      "生の": 7259,
      "短い": 7260,
      "蟒蛇": 7261,
      "街の": 7262,
      "遊び": 7263,
      "ここから": 7264,
      "はいなかった": 7265,
      "黒炎の": 7266,
      "フィヨルド": 7267,
      "魔女の": 7268,
      "を放つ": 7269,
      "新たな": 7270,
      "しなければ": 7271,
      "せめて": 7272,
      "そらく": 7273,
      "のならば": 7274,
      "まらない": 7275,
      "キャ": 7276,
      "直後": 7277,
      "突撃": 7278,
      "純粋": 7279,
      "者である": 7280,
      "背後に": 7281,
      "自在": 7282,
      "色々と": 7283,
      "調整": 7284,
      "顔は": 7285,
      "駄目": 7286,
      "にもか": 7287,
      "なんと": 7288,
      "シズクに": 7289,
      "ことがない": 7290,
      "だけでなく": 7291,
      "あれは": 7292,
      "魔法陣": 7293,
      "真っ黒な": 7294,
      "nジグ": 7295,
      "えられた": 7296,
      "きる": 7297,
      "しさを": 7298,
      "すく": 7299,
      "の声を": 7300,
      "グヴァ": 7301,
      "シグヴァ": 7302,
      "ジェ": 7303,
      "切って": 7304,
      "成果": 7305,
      "瞳が": 7306,
      "茶を": 7307,
      "足が": 7308,
      "適当に": 7309,
      "面白い": 7310,
      "したり": 7311,
      "なくとも": 7312,
      "魔物が": 7313,
      "夜桜の": 7314,
      "こそが": 7315,
      "込んでいた": 7316,
      "生きる": 7317,
      "浮かべる": 7318,
      "となると": 7319,
      "ボロボロ": 7320,
      "白の蟒蛇": 7321,
      "衛星都市": 7322,
      "瞬く間に": 7323,
      "シグヴァルド": 7324,
      "いっぱ": 7325,
      "なもの": 7326,
      "の前": 7327,
      "もって": 7328,
      "らして": 7329,
      "ハリア": 7330,
      "一族": 7331,
      "尻を": 7332,
      "排除": 7333,
      "権能": 7334,
      "浴び": 7335,
      "素晴": 7336,
      "腕に": 7337,
      "致命": 7338,
      "めるように": 7339,
      "起こる": 7340,
      "とは思えない": 7341,
      "ジースターは": 7342,
      "ずき": 7343,
      "ぬまま": 7344,
      "も同じ": 7345,
      "よな": 7346,
      "れの": 7347,
      "ろと": 7348,
      "を果た": 7349,
      "ハッ": 7350,
      "ハル": 7351,
      "僧兵": 7352,
      "先端": 7353,
      "取れる": 7354,
      "味方": 7355,
      "噛み": 7356,
      "実験": 7357,
      "広がる": 7358,
      "待て": 7359,
      "愛液": 7360,
      "本の": 7361,
      "発見": 7362,
      "相当": 7363,
      "絡め": 7364,
      "能力を": 7365,
      "薬を": 7366,
      "途中で": 7367,
      "するな": 7368,
      "えるように": 7369,
      "しているのは": 7370,
      "と思い": 7371,
      "ここは": 7372,
      "子供が": 7373,
      "気がついた": 7374,
      "ことにした": 7375,
      "背中を": 7376,
      "考えても": 7377,
      "ヨーグ": 7378,
      "々は": 7379,
      "っそ": 7380,
      "ろく": 7381,
      "ジュ": 7382,
      "スは": 7383,
      "一撃": 7384,
      "中を": 7385,
      "側から": 7386,
      "声色": 7387,
      "失礼": 7388,
      "注意": 7389,
      "知っていた": 7390,
      "素直": 7391,
      "素早く": 7392,
      "置き": 7393,
      "聞いている": 7394,
      "舞い": 7395,
      "若干": 7396,
      "行う": 7397,
      "言を": 7398,
      "運命の": 7399,
      "選んだ": 7400,
      "した後": 7401,
      "というもの": 7402,
      "しているが": 7403,
      "だろうな": 7404,
      "していたが": 7405,
      "仕事は": 7406,
      "立ち上がる": 7407,
      "かしら": 7408,
      "生み出した": 7409,
      "アナスタシアは": 7410,
      "ごめん": 7411,
      "竜吞ウーガ": 7412,
      "かれている": 7413,
      "すっ": 7414,
      "たない": 7415,
      "まっ": 7416,
      "トップ": 7417,
      "刃を": 7418,
      "口調": 7419,
      "嬉しい": 7420,
      "村に": 7421,
      "淡々と": 7422,
      "瞳を": 7423,
      "者達が": 7424,
      "遭遇": 7425,
      "闘技": 7426,
      "理解でき": 7427,
      "魔物を": 7428,
      "情報は": 7429,
      "方がいい": 7430,
      "ばかりの": 7431,
      "名無しの": 7432,
      "ソレは": 7433,
      "面倒く": 7434,
      "にもかかわらず": 7435,
      "20": 7436,
      "かかった": 7437,
      "だした": 7438,
      "っけ": 7439,
      "にでも": 7440,
      "の形": 7441,
      "はぁっ": 7442,
      "勢いで": 7443,
      "狭い": 7444,
      "級兵士": 7445,
      "送り": 7446,
      "音と共に": 7447,
      "その場": 7448,
      "それとも": 7449,
      "ウル達が": 7450,
      "ＡＡＡ": 7451,
      "なんだろう": 7452,
      "目の前で": 7453,
      "しようとした": 7454,
      "グリードは": 7455,
      "にかく": 7456,
      "うちの": 7457,
      "ザインは": 7458,
      "放たれる": 7459,
      "優秀な": 7460,
      "かき": 7461,
      "サウ": 7462,
      "ラル": 7463,
      "届く": 7464,
      "広げ": 7465,
      "時折": 7466,
      "毎日": 7467,
      "混沌": 7468,
      "空から": 7469,
      "空気が": 7470,
      "運営": 7471,
      "そうとする": 7472,
      "していった": 7473,
      "思い出": 7474,
      "口にした": 7475,
      "っきり": 7476,
      "眉をひそ": 7477,
      "澄人教": 7478,
      "n実際": 7479,
      "nとはいえ": 7480,
      "てた": 7481,
      "とウルは": 7482,
      "を迎": 7483,
      "事だ": 7484,
      "会話を": 7485,
      "利益": 7486,
      "受けた": 7487,
      "愉快": 7488,
      "数を": 7489,
      "異世界": 7490,
      "種族": 7491,
      "腹に": 7492,
      "話しか": 7493,
      "避ける": 7494,
      "顔を見": 7495,
      "ってのは": 7496,
      "からすれば": 7497,
      "ねえよ": 7498,
      "に向けて": 7499,
      "に入った": 7500,
      "を作り": 7501,
      "誰もが": 7502,
      "身に纏": 7503,
      "名前を": 7504,
      "孤児院": 7505,
      "せん": 7506,
      "なのだから": 7507,
      "半ば": 7508,
      "大なる": 7509,
      "扱い": 7510,
      "明日": 7511,
      "最強": 7512,
      "統合": 7513,
      "自ら": 7514,
      "複数の": 7515,
      "見え": 7516,
      "運び": 7517,
      "ある程度": 7518,
      "！！！！」\\": 7519,
      "とは言": 7520,
      "っていなかった": 7521,
      "彼らを": 7522,
      "可能性は": 7523,
      "普通に": 7524,
      "思考を": 7525,
      "基本的に": 7526,
      "nなに": 7527,
      "。“": 7528,
      "「「": 7529,
      "『【": 7530,
      "ぁあ": 7531,
      "しら": 7532,
      "やめ": 7533,
      "よそ": 7534,
      "アオイ": 7535,
      "保存": 7536,
      "側の": 7537,
      "加えて": 7538,
      "呆れた": 7539,
      "彼も": 7540,
      "気も": 7541,
      "流し": 7542,
      "珍しく": 7543,
      "生存": 7544,
      "脱獄": 7545,
      "腕の": 7546,
      "鳴り": 7547,
      "少しずつ": 7548,
      "けどね": 7549,
      "を使う": 7550,
      "をかき": 7551,
      "未だに": 7552,
      "あっても": 7553,
      "が出": 7554,
      "ビー": 7555,
      "事で": 7556,
      "咆哮": 7557,
      "噴き": 7558,
      "宿泊": 7559,
      "度が": 7560,
      "熱が": 7561,
      "背筋": 7562,
      "見せ": 7563,
      "彼女も": 7564,
      "魔術が": 7565,
      "わけにも": 7566,
      "してもら": 7567,
      "を持っている": 7568,
      "最初から": 7569,
      "肩を竦": 7570,
      "死霊術": 7571,
      "n天": 7572,
      "かよ": 7573,
      "しも": 7574,
      "まみ": 7575,
      "カスカ": 7576,
      "フル": 7577,
      "ワシ": 7578,
      "ージャ": 7579,
      "下さい": 7580,
      "初め": 7581,
      "商品": 7582,
      "官位": 7583,
      "思っていた": 7584,
      "戸惑": 7585,
      "指導": 7586,
      "王が": 7587,
      "禁忌": 7588,
      "聞か": 7589,
      "覗き": 7590,
      "覚えた": 7591,
      "詳細": 7592,
      "閉じ": 7593,
      "高校": 7594,
      "ことなど": 7595,
      "ではあった": 7596,
      "この場": 7597,
      "の中を": 7598,
      "くらいに": 7599,
      "情報が": 7600,
      "口にする": 7601,
      "ステイン": 7602,
      "きれ": 7603,
      "しそうな": 7604,
      "まぁ": 7605,
      "を破壊": 7606,
      "エネル": 7607,
      "フギ": 7608,
      "内で": 7609,
      "再現": 7610,
      "労働": 7611,
      "区画": 7612,
      "完了": 7613,
      "待つ": 7614,
      "憤怒": 7615,
      "手な": 7616,
      "抜けた": 7617,
      "掴む": 7618,
      "羽目": 7619,
      "足で": 7620,
      "部に": 7621,
      "鍛冶": 7622,
      "自分たち": 7623,
      "わけじゃない": 7624,
      "に向け": 7625,
      "ときに": 7626,
      "合わせた": 7627,
      "トールステイン": 7628,
      "突っ込んで": 7629,
      "ボルドー": 7630,
      "美味しい": 7631,
      "ラーレイ": 7632,
      "あくまで": 7633,
      "明確な": 7634,
      "比較的": 7635,
      "に向かう": 7636,
      "サウナ": 7637,
      "エネルギ": 7638,
      "n次の瞬間": 7639,
      "あとは": 7640,
      "いていない": 7641,
      "シェ": 7642,
      "ヘイル": 7643,
      "丁寧": 7644,
      "丁度": 7645,
      "仕草": 7646,
      "体勢": 7647,
      "僅かな": 7648,
      "制限": 7649,
      "大分": 7650,
      "振って": 7651,
      "旅館": 7652,
      "脚を": 7653,
      "落とした": 7654,
      "負け": 7655,
      "だけでは": 7656,
      "っているのは": 7657,
      "と思います": 7658,
      "ただただ": 7659,
      "させていた": 7660,
      "はずなのに": 7661,
      "意識が": 7662,
      "イスラリアの": 7663,
      "振り返る": 7664,
      "聞こえてきた": 7665,
      "聞こえてくる": 7666,
      "カスカベ": 7667,
      "n勿論": 7668,
      "】』\\": 7669,
      "と同時に": 7670,
      "みが": 7671,
      "れを": 7672,
      "レナ": 7673,
      "中心": 7674,
      "先が": 7675,
      "冷たい": 7676,
      "動かない": 7677,
      "吸収": 7678,
      "建造": 7679,
      "怪物": 7680,
      "揺れる": 7681,
      "滅ぼ": 7682,
      "礼を": 7683,
      "空に": 7684,
      "肉の": 7685,
      "調子": 7686,
      "………": 7687,
      "そうですね": 7688,
      "なんだか": 7689,
      "あまりの": 7690,
      "動きは": 7691,
      "相手は": 7692,
      "降り注": 7693,
      "笑みを浮かべた": 7694,
      "やがて": 7695,
      "たとえ": 7696,
      "n僕": 7697,
      "n冒険者": 7698,
      "いずれ": 7699,
      "だと思う": 7700,
      "に巻き": 7701,
      "の目": 7702,
      "もなかった": 7703,
      "一行": 7704,
      "偶然": 7705,
      "君の": 7706,
      "大会": 7707,
      "希望": 7708,
      "帰って": 7709,
      "底から": 7710,
      "性交": 7711,
      "所属": 7712,
      "扉が": 7713,
      "抜ける": 7714,
      "持った": 7715,
      "未知": 7716,
      "極まる": 7717,
      "火の": 7718,
      "穴が": 7719,
      "膨大な": 7720,
      "越しに": 7721,
      "風の": 7722,
      "それよりも": 7723,
      "まだまだ": 7724,
      "視線は": 7725,
      "周囲を見": 7726,
      "当たる": 7727,
      "聞こえた": 7728,
      "グラージャ": 7729,
      "ありがたい": 7730,
      "を作る": 7731,
      "響き渡": 7732,
      "やっと": 7733,
      "やってきた": 7734,
      "を押し": 7735,
      "サー": 7736,
      "何一つ": 7737,
      "味わ": 7738,
      "忘れ": 7739,
      "快楽": 7740,
      "答えた": 7741,
      "話の": 7742,
      "からこそ": 7743,
      "どうにか": 7744,
      "ジグを": 7745,
      "そんな風に": 7746,
      "迷宮に": 7747,
      "ウーガに": 7748,
      "落とし": 7749,
      "ルーン": 7750,
      "通常の": 7751,
      "素晴らしい": 7752,
      "nまあ": 7753,
      "n結果": 7754,
      "nアイリスは": 7755,
      "あげた": 7756,
      "すり": 7757,
      "だとか": 7758,
      "に包": 7759,
      "のでは": 7760,
      "を描": 7761,
      "んですよ": 7762,
      "リット": 7763,
      "両親": 7764,
      "事の": 7765,
      "人生": 7766,
      "例え": 7767,
      "始めていた": 7768,
      "引く": 7769,
      "数百": 7770,
      "理屈": 7771,
      "相対": 7772,
      "盾を": 7773,
      "肉体": 7774,
      "重量": 7775,
      "……！？」\\": 7776,
      "！！』": 7777,
      "というように": 7778,
      "どうなる": 7779,
      "れてる": 7780,
      "インツ": 7781,
      "ところに": 7782,
      "ええええ": 7783,
      "とんでもない": 7784,
      "AA": 7785,
      "n男": 7786,
      "nいや": 7787,
      "よって": 7788,
      "ハインツ": 7789,
      "ヨラン": 7790,
      "ロール": 7791,
      "刀を": 7792,
      "大体": 7793,
      "拒否": 7794,
      "数日": 7795,
      "有様": 7796,
      "繋が": 7797,
      "銀貨": 7798,
      "防ぐ": 7799,
      "青い": 7800,
      "どうぞ": 7801,
      "ギークと": 7802,
      "だからね": 7803,
      "さんは": 7804,
      "としたら": 7805,
      "カカカカ": 7806,
      "人類の": 7807,
      "ざるを得": 7808,
      "図書館": 7809,
      "nだけど": 7810,
      "、「": 7811,
      "かどうか": 7812,
      "しと": 7813,
      "なかな": 7814,
      "に顔を": 7815,
      "は少し": 7816,
      "は既に": 7817,
      "わぬ": 7818,
      "セツ": 7819,
      "下げ": 7820,
      "中には": 7821,
      "伏せ": 7822,
      "使った": 7823,
      "刻まれた": 7824,
      "扱う": 7825,
      "揺れ": 7826,
      "死の": 7827,
      "気になる": 7828,
      "私に": 7829,
      "竜呑": 7830,
      "茶苦茶": 7831,
      "誤魔": 7832,
      "頑丈": 7833,
      "頷き": 7834,
      "それぞ": 7835,
      "を見せる": 7836,
      "そんなこと": 7837,
      "ウーガを": 7838,
      "ジャン": 7839,
      "存在を": 7840,
      "言いながら": 7841,
      "サイコ": 7842,
      "慌てて": 7843,
      "クロコ": 7844,
      "強力な": 7845,
      "トラブル": 7846,
      "nエシェルは": 7847,
      "…？」\\": 7848,
      "ふぅ": 7849,
      "ふと": 7850,
      "を外": 7851,
      "合図": 7852,
      "夜の": 7853,
      "女を": 7854,
      "小屋": 7855,
      "怒りを": 7856,
      "業を": 7857,
      "死な": 7858,
      "決め": 7859,
      "細い": 7860,
      "赤ずき": 7861,
      "それ以上": 7862,
      "のかな": 7863,
      "いてる": 7864,
      "いいか": 7865,
      "神殿の": 7866,
      "伸びた": 7867,
      "クナトルレイクの": 7868,
      "当たり前": 7869,
      "不味い": 7870,
      "あろう": 7871,
      "さで": 7872,
      "しげな": 7873,
      "すっかり": 7874,
      "変貌": 7875,
      "座り": 7876,
      "掃除": 7877,
      "掛かる": 7878,
      "救助": 7879,
      "期間": 7880,
      "歴史": 7881,
      "気遣": 7882,
      "滅茶苦茶": 7883,
      "真人": 7884,
      "顔の": 7885,
      "ないが": 7886,
      "存在しない": 7887,
      "と言える": 7888,
      "といけない": 7889,
      "人間の": 7890,
      "スーアの": 7891,
      "最初に": 7892,
      "手のひ": 7893,
      "付き合": 7894,
      "幾つもの": 7895,
      "そこの": 7896,
      "とでも": 7897,
      "に満ち": 7898,
      "みれば": 7899,
      "われていた": 7900,
      "バイク": 7901,
      "便利": 7902,
      "全身": 7903,
      "同意": 7904,
      "呟く": 7905,
      "多かった": 7906,
      "妙に": 7907,
      "感心": 7908,
      "戦いの": 7909,
      "民会": 7910,
      "白銀の": 7911,
      "真正面から": 7912,
      "笑って": 7913,
      "簒奪": 7914,
      "護る": 7915,
      "追いつ": 7916,
      "隣の": 7917,
      "面の": 7918,
      "のでしょう": 7919,
      "都市国": 7920,
      "何かの": 7921,
      "しないと": 7922,
      "考えている": 7923,
      "今日の": 7924,
      "分からないが": 7925,
      "太陽神の": 7926,
      "飲み干": 7927,
      "を受ける": 7928,
      "ハハハハハハハハ": 7929,
      "//": 7930,
      "nクレアは": 7931,
      "がなかった": 7932,
      "凶悪": 7933,
      "加工": 7934,
      "助かる": 7935,
      "動ける": 7936,
      "地上": 7937,
      "声音": 7938,
      "穴を": 7939,
      "竜に": 7940,
      "繰り": 7941,
      "行って": 7942,
      "言われた": 7943,
      "記録": 7944,
      "鋭く": 7945,
      "（……": 7946,
      "からず": 7947,
      "という事実": 7948,
      "ならず": 7949,
      "どうも": 7950,
      "都市の外": 7951,
      "の一撃": 7952,
      "飛び出した": 7953,
      "飛ばした": 7954,
      "十分に": 7955,
      "尋ねる": 7956,
      "ちなみに": 7957,
      "おそらく": 7958,
      "せえ": 7959,
      "ついで": 7960,
      "どっち": 7961,
      "に目を": 7962,
      "の後": 7963,
      "のもの": 7964,
      "を眺": 7965,
      "ッカ": 7966,
      "ーっ": 7967,
      "万が一": 7968,
      "感知": 7969,
      "戦いを": 7970,
      "数秒": 7971,
      "映し": 7972,
      "権利": 7973,
      "決定": 7974,
      "硬直": 7975,
      "肩に": 7976,
      "腰が": 7977,
      "するか": 7978,
      "わけでもない": 7979,
      "父ちゃんが": 7980,
      "どれほど": 7981,
      "食べる": 7982,
      "われれば": 7983,
      "グロンゾンは": 7984,
      "◇◇◇◇": 7985,
      "バルジ": 7986,
      "ルーン文字": 7987,
      "nもう": 7988,
      "かろう": 7989,
      "の力": 7990,
      "ほん": 7991,
      "みると": 7992,
      "めの": 7993,
      "よっぽ": 7994,
      "コイツ": 7995,
      "冷燻": 7996,
      "勝ち": 7997,
      "勝負": 7998,
      "坂之": 7999,
      "弱点": 8000,
      "急ぎ": 8001,
      "慎重": 8002,
      "懸念": 8003,
      "探鉱": 8004,
      "時代": 8005,
      "正しく": 8006,
      "残っている": 8007,
      "殺して": 8008,
      "知れ": 8009,
      "祈りを": 8010,
      "迷惑": 8011,
      "邪霊": 8012,
      "額を": 8013,
      "！』": 8014,
      "の中の": 8015,
      "の中には": 8016,
      "かなりの": 8017,
      "ディズと": 8018,
      "もしも": 8019,
      "ってもら": 8020,
      "口を開いた": 8021,
      "おります": 8022,
      "見た目": 8023,
      "尽くす": 8024,
      "発生した": 8025,
      "双刃剣を": 8026,
      "姿を現した": 8027,
      "シェスカ": 8028,
      "1人": 8029,
      "いって": 8030,
      "いながら": 8031,
      "いました": 8032,
      "えっ": 8033,
      "が増": 8034,
      "が違う": 8035,
      "タラ": 8036,
      "二十": 8037,
      "去った": 8038,
      "告げる": 8039,
      "学生": 8040,
      "宣言": 8041,
      "形の": 8042,
      "構築": 8043,
      "物理": 8044,
      "目撃": 8045,
      "真剣": 8046,
      "練習": 8047,
      "道理": 8048,
      "野郎": 8049,
      "彼女には": 8050,
      "少しでも": 8051,
      "はいけない": 8052,
      "仕事の": 8053,
      "にしては": 8054,
      "なにか": 8055,
      "可能性が": 8056,
      "シンパ": 8057,
      "彼等は": 8058,
      "尋ねた": 8059,
      "を失った": 8060,
      "自由に": 8061,
      "最低限": 8062,
      "真っ直ぐに": 8063,
      "GG": 8064,
      "nクレアの": 8065,
      "nアイリスの": 8066,
      "きに": 8067,
      "さの": 8068,
      "さずに": 8069,
      "てくる": 8070,
      "まし": 8071,
      "められ": 8072,
      "クラウ": 8073,
      "クチュ": 8074,
      "ヶ月": 8075,
      "下から": 8076,
      "住まう": 8077,
      "先は": 8078,
      "前から": 8079,
      "包み": 8080,
      "建て": 8081,
      "成り": 8082,
      "替え": 8083,
      "活用": 8084,
      "浩介": 8085,
      "混ぜ": 8086,
      "盛り": 8087,
      "聖教": 8088,
      "速く": 8089,
      "ればいい": 8090,
      "魔術で": 8091,
      "だからな": 8092,
      "起こった": 8093,
      "スープ": 8094,
      "ＡＡＡＡＡＡＡＡＡＡＡＡ": 8095,
      "グレンの": 8096,
      "何も言": 8097,
      "ユーリの": 8098,
      "過ぎる": 8099,
      "感情を": 8100,
      "下ろす": 8101,
      "ダヴィネは": 8102,
      "100": 8103,
      "アアアア": 8104,
      "2人が": 8105,
      "かした": 8106,
      "さなかった": 8107,
      "のめ": 8108,
      "クロー": 8109,
      "ソフィア": 8110,
      "ブレ": 8111,
      "リザ": 8112,
      "不快": 8113,
      "世話": 8114,
      "反撃": 8115,
      "合いを": 8116,
      "喧嘩": 8117,
      "定の": 8118,
      "広が": 8119,
      "晒す": 8120,
      "漏れ": 8121,
      "通じ": 8122,
      "飲む": 8123,
      "骨の": 8124,
      "女性は": 8125,
      "おかしく": 8126,
      "足を踏み": 8127,
      "タイプ": 8128,
      "恐ろしく": 8129,
      "選択肢": 8130,
      "サイコシンパ": 8131,
      "クラウラン": 8132,
      "nまるで": 8133,
      "じろ": 8134,
      "すべて": 8135,
      "とにかく": 8136,
      "にあった": 8137,
      "はあった": 8138,
      "を整": 8139,
      "ウチ": 8140,
      "ラク": 8141,
      "一日": 8142,
      "伝え": 8143,
      "低く": 8144,
      "停止": 8145,
      "如く": 8146,
      "後悔": 8147,
      "我慢": 8148,
      "戦力": 8149,
      "支え": 8150,
      "返答": 8151,
      "這い": 8152,
      "銀糸": 8153,
      "集まり": 8154,
      "することも": 8155,
      "それなら": 8156,
      "というのが": 8157,
      "じゃん": 8158,
      "なんの": 8159,
      "リーダー": 8160,
      "手を伸ば": 8161,
      "状況は": 8162,
      "少女は": 8163,
      "を変える": 8164,
      "綺麗な": 8165,
      "フライタ": 8166,
      "にその": 8167,
      "の神": 8168,
      "も見": 8169,
      "イート": 8170,
      "ケイン": 8171,
      "ニュ": 8172,
      "ミラル": 8173,
      "保証": 8174,
      "刃蜂": 8175,
      "匂いが": 8176,
      "命に": 8177,
      "問いに": 8178,
      "埋め": 8179,
      "変え": 8180,
      "天魔": 8181,
      "度は": 8182,
      "待って": 8183,
      "手間": 8184,
      "拳聖": 8185,
      "持っている": 8186,
      "数十": 8187,
      "有名": 8188,
      "汗が": 8189,
      "潰す": 8190,
      "監視": 8191,
      "結城": 8192,
      "自己": 8193,
      "薬草": 8194,
      "誰か": 8195,
      "貫く": 8196,
      "進み": 8197,
      "そうで": 8198,
      "を見ていた": 8199,
      "どうせ": 8200,
      "ますよ": 8201,
      "てもら": 8202,
      "人格統合": 8203,
      "頭を下げる": 8204,
      "まともな": 8205,
      "おいて": 8206,
      "ついている": 8207,
      "わらわ": 8208,
      "ウウ": 8209,
      "コチラ": 8210,
      "到底": 8211,
      "外で": 8212,
      "奴ら": 8213,
      "帰る": 8214,
      "役に": 8215,
      "扉を": 8216,
      "拳が": 8217,
      "掴み": 8218,
      "明る": 8219,
      "楽しい": 8220,
      "猿狗": 8221,
      "耳に": 8222,
      "警告": 8223,
      "逸物": 8224,
      "開始": 8225,
      "首に": 8226,
      "？？": 8227,
      "？！」\\": 8228,
      "……！」": 8229,
      "それらを": 8230,
      "んでした": 8231,
      "っていい": 8232,
      "世界で": 8233,
      "出すと": 8234,
      "していなかった": 8235,
      "部屋を": 8236,
      "浮かび": 8237,
      "の魔術師": 8238,
      "新たなる": 8239,
      "単純に": 8240,
      "まともに": 8241,
      "浮遊人格統合": 8242,
      "てめえ": 8243,
      "浮遊人格統合技術": 8244,
      "❤\\": 8245,
      "くれている": 8246,
      "だなあ": 8247,
      "のですが": 8248,
      "りする": 8249,
      "バラン": 8250,
      "ミリー": 8251,
      "一言": 8252,
      "刻み": 8253,
      "性に": 8254,
      "槍が": 8255,
      "牢獄": 8256,
      "肉が": 8257,
      "身長": 8258,
      "魔道": 8259,
      "ウルへと": 8260,
      "これまで": 8261,
      "いいのか": 8262,
      "わけだ": 8263,
      "場所が": 8264,
      "世界が": 8265,
      "の一人": 8266,
      "ローブ": 8267,
      "スーアが": 8268,
      "かも知れない": 8269,
      "好きな": 8270,
      "まとめて": 8271,
      "事情を": 8272,
      "巨大なる": 8273,
      "いなかった": 8274,
      "うわ": 8275,
      "の所": 8276,
      "やめて": 8277,
      "ドール": 8278,
      "世の": 8279,
      "了解": 8280,
      "元気": 8281,
      "半透明": 8282,
      "幼馴染": 8283,
      "微笑み": 8284,
      "手放": 8285,
      "消えて": 8286,
      "用に": 8287,
      "脱出": 8288,
      "自体": 8289,
      "薄い": 8290,
      "襲い": 8291,
      "逃が": 8292,
      "ことになった": 8293,
      "そうです": 8294,
      "だけだった": 8295,
      "魔術は": 8296,
      "シズクと": 8297,
      "立ち上がり": 8298,
      "どこまでも": 8299,
      "といって": 8300,
      "分かっていた": 8301,
      "に見える": 8302,
      "をかけて": 8303,
      "楽しそうに": 8304,
      "関わらず": 8305,
      "と比べて": 8306,
      "よっぽど": 8307,
      "ミラルフィーネ": 8308,
      "n本来": 8309,
      "うのは": 8310,
      "かという": 8311,
      "しっかり": 8312,
      "ギャ": 8313,
      "バケ": 8314,
      "不尽": 8315,
      "中々": 8316,
      "乗る": 8317,
      "切れる": 8318,
      "告げた": 8319,
      "寄り": 8320,
      "封印": 8321,
      "度に": 8322,
      "徹底": 8323,
      "恐れ": 8324,
      "悪かった": 8325,
      "村で": 8326,
      "止まる": 8327,
      "災害": 8328,
      "理不尽": 8329,
      "破損": 8330,
      "鎧を": 8331,
      "ってない": 8332,
      "ようになった": 8333,
      "ものか": 8334,
      "もしない": 8335,
      "つけられる": 8336,
      "みたいに": 8337,
      "覚えのある": 8338,
      "カーラーレイ": 8339,
      "最大の": 8340,
      "グローリア": 8341,
      "自在に": 8342,
      "誤魔化": 8343,
      "うっ": 8344,
      "まれている": 8345,
      "もその": 8346,
      "やってる": 8347,
      "んが": 8348,
      "フフ": 8349,
      "メリット": 8350,
      "ルの": 8351,
      "ンド": 8352,
      "体勢を": 8353,
      "例えば": 8354,
      "建物": 8355,
      "撃ち": 8356,
      "日が": 8357,
      "有する": 8358,
      "此方に": 8359,
      "水車": 8360,
      "知って": 8361,
      "立っている": 8362,
      "触れた": 8363,
      "進んで": 8364,
      "骨が": 8365,
      "それだけで": 8366,
      "nそのまま": 8367,
      "などという": 8368,
      "自身を": 8369,
      "ギルド長": 8370,
      "を取り戻": 8371,
      "シンプル": 8372,
      "術式を": 8373,
      "最後まで": 8374,
      "単純な": 8375,
      "っつー": 8376,
      "たま": 8377,
      "ジョ": 8378,
      "ピン": 8379,
      "倒れた": 8380,
      "備え": 8381,
      "勢いを": 8382,
      "君は": 8383,
      "女王": 8384,
      "影が": 8385,
      "押さ": 8386,
      "支える": 8387,
      "最奥": 8388,
      "杖を": 8389,
      "此方を": 8390,
      "殺される": 8391,
      "結論": 8392,
      "線を": 8393,
      "者達は": 8394,
      "薬の": 8395,
      "走った": 8396,
      "週間": 8397,
      "選ぶ": 8398,
      "ってこと": 8399,
      "なくなって": 8400,
      "しかしその": 8401,
      "ところを": 8402,
      "引きず": 8403,
      "あっという": 8404,
      "人間が": 8405,
      "ヒトが": 8406,
      "を使った": 8407,
      "どうしようもない": 8408,
      "タイミングで": 8409,
      "nこんな": 8410,
      "があれば": 8411,
      "に着": 8412,
      "のと": 8413,
      "ふふ": 8414,
      "ほんと": 8415,
      "よぉ": 8416,
      "キロ": 8417,
      "ニヤ": 8418,
      "レロ": 8419,
      "具体": 8420,
      "助かった": 8421,
      "合わない": 8422,
      "同行": 8423,
      "土地": 8424,
      "幾ら": 8425,
      "度を": 8426,
      "捕ま": 8427,
      "操作": 8428,
      "暖房": 8429,
      "気絶": 8430,
      "熱を": 8431,
      "燻製": 8432,
      "続けてきた": 8433,
      "螺旋": 8434,
      "要は": 8435,
      "貴方が": 8436,
      "ではありません": 8437,
      "だったのだ": 8438,
      "―――――": 8439,
      "っていても": 8440,
      "振り回": 8441,
      "後ろから": 8442,
      "最初は": 8443,
      "かつての": 8444,
      "正確に": 8445,
      "首を傾げた": 8446,
      "特殊な": 8447,
      "n既に": 8448,
      "n僕が": 8449,
      "】、": 8450,
      "えぬ": 8451,
      "とお": 8452,
      "に応": 8453,
      "に頼": 8454,
      "べる": 8455,
      "ジィ": 8456,
      "ドレ": 8457,
      "ドロー": 8458,
      "ニコ": 8459,
      "主張": 8460,
      "僅か": 8461,
      "前提": 8462,
      "新人": 8463,
      "棟の": 8464,
      "気付": 8465,
      "発言": 8466,
      "私を": 8467,
      "精液": 8468,
      "者達の": 8469,
      "要求": 8470,
      "趣味": 8471,
      "迂闊": 8472,
      "静かな": 8473,
      "！！？」\\": 8474,
      "じゃなくて": 8475,
      "言葉の": 8476,
      "と思って": 8477,
      "彼らに": 8478,
      "言ってた": 8479,
      "黒炎砂漠": 8480,
      "真っ白": 8481,
      "真っ当な": 8482,
      "まさしく": 8483,
      "知雫は": 8484,
      "あたり": 8485,
      "たっぷりと": 8486,
      "n人": 8487,
      "nリーネは": 8488,
      "うな": 8489,
      "しみ": 8490,
      "し始めた": 8491,
      "に移": 8492,
      "にしても": 8493,
      "よー": 8494,
      "わった": 8495,
      "んん": 8496,
      "オー": 8497,
      "カの": 8498,
      "ボコ": 8499,
      "任せる": 8500,
      "動け": 8501,
      "叩いた": 8502,
      "壁が": 8503,
      "導権を": 8504,
      "悪くない": 8505,
      "掻き": 8506,
      "昨日の": 8507,
      "机に": 8508,
      "武具": 8509,
      "発する": 8510,
      "製造": 8511,
      "覚えて": 8512,
      "酒の": 8513,
      "隠れ": 8514,
      "と思っていた": 8515,
      "引き裂": 8516,
      "思い出す": 8517,
      "言い訳": 8518,
      "生きている": 8519,
      "此処で": 8520,
      "ユーリが": 8521,
      "の大麦": 8522,
      "！？』\\": 8523,
      "空間を": 8524,
      "アレは": 8525,
      "不死鳥の": 8526,
      "化け物": 8527,
      "あくまでも": 8528,
      "n見": 8529,
      "nクレア": 8530,
      "えー": 8531,
      "げげ": 8532,
      "せいか": 8533,
      "に近い": 8534,
      "のには": 8535,
      "助ける": 8536,
      "受ける": 8537,
      "同調": 8538,
      "天使": 8539,
      "失った": 8540,
      "奪う": 8541,
      "女衆": 8542,
      "宗次": 8543,
      "封じ": 8544,
      "屋根": 8545,
      "彼と": 8546,
      "戻る": 8547,
      "所を": 8548,
      "次々に": 8549,
      "注ぎ": 8550,
      "程の": 8551,
      "者だ": 8552,
      "職人": 8553,
      "遠慮": 8554,
      "ようには": 8555,
      "するのが": 8556,
      "それまで": 8557,
      "であることを": 8558,
      "っています": 8559,
      "ウーガは": 8560,
      "よりも早く": 8561,
      "少女の": 8562,
      "つもりはない": 8563,
      "過ぎた": 8564,
      "感情が": 8565,
      "における": 8566,
      "指先が": 8567,
      "無茶苦茶": 8568,
      "正確には": 8569,
      "音を立てて": 8570,
      "宗次郎": 8571,
      "かず": 8572,
      "かせた": 8573,
      "きった": 8574,
      "たかった": 8575,
      "たぶん": 8576,
      "の準備": 8577,
      "ウン": 8578,
      "カップ": 8579,
      "クラン": 8580,
      "ダツ": 8581,
      "ワダツ": 8582,
      "一見": 8583,
      "友人": 8584,
      "吊り": 8585,
      "呪い": 8586,
      "哀れ": 8587,
      "悪意": 8588,
      "感は": 8589,
      "扉を開": 8590,
      "掴んだ": 8591,
      "海の": 8592,
      "真なる": 8593,
      "秘密": 8594,
      "言われる": 8595,
      "謎の": 8596,
      "邪神": 8597,
      "銃を": 8598,
      "ないし": 8599,
      "そうね": 8600,
      "を見せた": 8601,
      "ことができた": 8602,
      "といえば": 8603,
      "おかしな": 8604,
      "二人に": 8605,
      "んじゃねえ": 8606,
      "を受けて": 8607,
      "天賢王の": 8608,
      "頑張って": 8609,
      "ワダツミ": 8610,
      "nならば": 8611,
      "かして": 8612,
      "くそ": 8613,
      "しちゃ": 8614,
      "だす": 8615,
      "はもう": 8616,
      "むように": 8617,
      "もら": 8618,
      "れなかった": 8619,
      "を守": 8620,
      "コー": 8621,
      "ゼウラ": 8622,
      "他に": 8623,
      "全体": 8624,
      "始めて": 8625,
      "姿勢": 8626,
      "得る": 8627,
      "憎悪": 8628,
      "払いの": 8629,
      "最深層": 8630,
      "止まった": 8631,
      "毒花": 8632,
      "漏らす": 8633,
      "火を": 8634,
      "腹が": 8635,
      "解き": 8636,
      "謝罪": 8637,
      "逸物を": 8638,
      "というのも": 8639,
      "上げると": 8640,
      "わけがない": 8641,
      "起こした": 8642,
      "夜桜が": 8643,
      "立ち上がった": 8644,
      "そうな顔を": 8645,
      "攻撃は": 8646,
      "付けられた": 8647,
      "気持ちいい": 8648,
      "グレーレの": 8649,
      "最初の": 8650,
      "っぽい": 8651,
      "一切の": 8652,
      "バベルの": 8653,
      "ンスゥ": 8654,
      "砕け散": 8655,
      "内心で": 8656,
      "声色で": 8657,
      "ジィンスゥ": 8658,
      "ゼウラディア": 8659,
      "50": 8660,
      "ah": 8661,
      "が出る": 8662,
      "ごく": 8663,
      "だというのに": 8664,
      "っっ": 8665,
      "に身を": 8666,
      "に参加": 8667,
      "もと": 8668,
      "イレ": 8669,
      "ガン": 8670,
      "ゴミ": 8671,
      "ッグ": 8672,
      "ピンと": 8673,
      "命が": 8674,
      "寄せる": 8675,
      "廊下": 8676,
      "微塵": 8677,
      "払った": 8678,
      "担当": 8679,
      "根本": 8680,
      "此方の": 8681,
      "蜜壷": 8682,
      "証明": 8683,
      "連続": 8684,
      "選ば": 8685,
      "震え": 8686,
      "領域": 8687,
      "自分たちが": 8688,
      "エシェル様": 8689,
      "わせて": 8690,
      "ローズ": 8691,
      "結界を": 8692,
      "が一番": 8693,
      "を放ち": 8694,
      "関わる": 8695,
      "に過ぎない": 8696,
      "素直に": 8697,
      "毒花怪鳥": 8698,
      "nもちろん": 8699,
      "そいつ": 8700,
      "の余": 8701,
      "ゅう": 8702,
      "を取": 8703,
      "を許": 8704,
      "パイ": 8705,
      "一発": 8706,
      "三人": 8707,
      "今すぐ": 8708,
      "具合": 8709,
      "対して": 8710,
      "彼方": 8711,
      "指が": 8712,
      "次は": 8713,
      "達成": 8714,
      "！？」": 8715,
      "２０": 8716,
      "……♥": 8717,
      "ってから": 8718,
      "から見": 8719,
      "それだけの": 8720,
      "それ以外": 8721,
      "彼女と": 8722,
      "あの時": 8723,
      "していて": 8724,
      "立てた": 8725,
      "立てる": 8726,
      "人格持ち": 8727,
      "やりたい": 8728,
      "無理矢": 8729,
      "ダヴィネの": 8730,
      "本来の": 8731,
      "疑問を": 8732,
      "宝石人形の": 8733,
      "nまた": 8734,
      "n彼が": 8735,
      "nやはり": 8736,
      "お嬢": 8737,
      "が大": 8738,
      "きました": 8739,
      "の言葉を": 8740,
      "ょっと": 8741,
      "コツ": 8742,
      "トー": 8743,
      "ニシ": 8744,
      "プロ": 8745,
      "下がる": 8746,
      "例の": 8747,
      "出している": 8748,
      "前には": 8749,
      "口が": 8750,
      "周り": 8751,
      "必然": 8752,
      "所は": 8753,
      "授業": 8754,
      "接近": 8755,
      "日常": 8756,
      "渡した": 8757,
      "発揮": 8758,
      "白く": 8759,
      "目標": 8760,
      "経過": 8761,
      "線に": 8762,
      "黒の": 8763,
      "ていい": 8764,
      "そのものを": 8765,
      "そのものが": 8766,
      "するため": 8767,
      "ことのない": 8768,
      "ならぬ": 8769,
      "へと向": 8770,
      "思い出した": 8771,
      "ませんが": 8772,
      "確認する": 8773,
      "口を開く": 8774,
      "気持ち良く": 8775,
      "と同じく": 8776,
      "らしき": 8777,
      "カカカ": 8778,
      "と思ったが": 8779,
      "黄金の": 8780,
      "白王陣の": 8781,
      "頭を下げた": 8782,
      "オオオオ": 8783,
      "わけにはいかない": 8784,
      "紛れもない": 8785,
      "恐るべき": 8786,
      "無理矢理": 8787,
      "せよ": 8788,
      "むに": 8789,
      "をと": 8790,
      "サエル": 8791,
      "ヤサエル": 8792,
      "人質": 8793,
      "光は": 8794,
      "北方の": 8795,
      "喜び": 8796,
      "堕ち": 8797,
      "奈落": 8798,
      "慈悲": 8799,
      "敵を": 8800,
      "時には": 8801,
      "気付いた": 8802,
      "済む": 8803,
      "空いた": 8804,
      "術の": 8805,
      "覆う": 8806,
      "認め": 8807,
      "賠償": 8808,
      "髑髏": 8809,
      "ったが": 8810,
      "……。\\": 8811,
      "ことには": 8812,
      "―――」\\": 8813,
      "ませんでした": 8814,
      "視線に": 8815,
      "に向ける": 8816,
      "当然の": 8817,
      "ヘッズハンターの": 8818,
      "移動する": 8819,
      "移動要塞": 8820,
      "ぶつかり": 8821,
      "大人しく": 8822,
      "それなりに": 8823,
      "坂之下": 8824,
      "クローロ": 8825,
      "30": 8826,
      "nシズクの": 8827,
      "せっか": 8828,
      "とその": 8829,
      "なってきた": 8830,
      "エレ": 8831,
      "デカ": 8832,
      "プレ": 8833,
      "ボール": 8834,
      "三面": 8835,
      "両手で": 8836,
      "元を": 8837,
      "塗り": 8838,
      "売り": 8839,
      "対峙": 8840,
      "届かない": 8841,
      "建築": 8842,
      "憑き": 8843,
      "抑える": 8844,
      "狙い": 8845,
      "疲れた": 8846,
      "発展": 8847,
      "直す": 8848,
      "砕く": 8849,
      "端から": 8850,
      "精々": 8851,
      "街を": 8852,
      "遅い": 8853,
      "運ば": 8854,
      "運ぶ": 8855,
      "鈍い": 8856,
      "銀竜": 8857,
      "頷いて": 8858,
      "額に": 8859,
      "顔色": 8860,
      "したような": 8861,
      "なんです": 8862,
      "しています": 8863,
      "思ったが": 8864,
      "魔眼の": 8865,
      "目的は": 8866,
      "生み出す": 8867,
      "夜桜さんが": 8868,
      "多少の": 8869,
      "抱きし": 8870,
      "首を横に振った": 8871,
      "三面鬼": 8872,
      "n同時に": 8873,
      "n先ほど": 8874,
      "n大罪都市": 8875,
      "nギークは": 8876,
      "くら": 8877,
      "さも": 8878,
      "の家": 8879,
      "を保": 8880,
      "交じ": 8881,
      "以降": 8882,
      "先日": 8883,
      "匂い": 8884,
      "商人": 8885,
      "大抵": 8886,
      "態を": 8887,
      "戦いに": 8888,
      "新谷": 8889,
      "方で": 8890,
      "皮膚": 8891,
      "直した": 8892,
      "結束": 8893,
      "肉体を": 8894,
      "至った": 8895,
      "表現": 8896,
      "詳しい": 8897,
      "資料": 8898,
      "贅沢": 8899,
      "追加": 8900,
      "逸らす": 8901,
      "餓者": 8902,
      "ないように": 8903,
      "それ以上に": 8904,
      "ことすら": 8905,
      "だけではない": 8906,
      "という事": 8907,
      "ものである": 8908,
      "上げながら": 8909,
      "顔を顰": 8910,
      "こんなに": 8911,
      "そうだね": 8912,
      "強くなる": 8913,
      "真っ先に": 8914,
      "多くは": 8915,
      "を使い": 8916,
      "パンッ": 8917,
      "ベッドに": 8918,
      "肩をすく": 8919,
      "を変え": 8920,
      "どちらも": 8921,
      "バラバラ": 8922,
      "n手": 8923,
      "でさえ": 8924,
      "とっく": 8925,
      "のことを": 8926,
      "ひっ": 8927,
      "を重ね": 8928,
      "ギネ": 8929,
      "ズタ": 8930,
      "テギネ": 8931,
      "一枚": 8932,
      "不気味": 8933,
      "全身を": 8934,
      "思えない": 8935,
      "抗議": 8936,
      "擦り": 8937,
      "時期": 8938,
      "歯を": 8939,
      "眼鏡": 8940,
      "級の": 8941,
      "羞恥": 8942,
      "膝を": 8943,
      "舞う": 8944,
      "警備": 8945,
      "開発": 8946,
      "いたが": 8947,
      "でも無い": 8948,
      "出来れば": 8949,
      "こういった": 8950,
      "理解できた": 8951,
      "仕事が": 8952,
      "つもりだった": 8953,
      "感覚が": 8954,
      "おいおい": 8955,
      "七天の": 8956,
      "ラースの": 8957,
      "魔石を": 8958,
      "表情を浮かべ": 8959,
      "創造主": 8960,
      "なかなか": 8961,
      "あっという間に": 8962,
      "n無": 8963,
      "n彼らは": 8964,
      "ぁあっ": 8965,
      "の音": 8966,
      "のではなく": 8967,
      "はお": 8968,
      "まー": 8969,
      "まれていた": 8970,
      "らりと": 8971,
      "ニシン": 8972,
      "唾液": 8973,
      "問い": 8974,
      "垂れ": 8975,
      "始まった": 8976,
      "帰り": 8977,
      "指揮": 8978,
      "断ち": 8979,
      "欠片": 8980,
      "残っていた": 8981,
      "母親": 8982,
      "毛皮": 8983,
      "流す": 8984,
      "眠り": 8985,
      "２１": 8986,
      "……』\\": 8987,
      "ってくれる": 8988,
      "それでは": 8989,
      "ろうとした": 8990,
      "自分から": 8991,
      "にも関わらず": 8992,
      "ままに": 8993,
      "都市に": 8994,
      "言っても": 8995,
      "ところが": 8996,
      "いかなかった": 8997,
      "頭を撫で": 8998,
      "にとっても": 8999,
      "理由が": 9000,
      "仲間の": 9001,
      "やり取り": 9002,
      "飛ばされた": 9003,
      "の内容": 9004,
      "イサナが": 9005,
      "たくさん": 9006,
      "ヴァン": 9007,
      "n現在": 9008,
      "が生": 9009,
      "しわ": 9010,
      "にくい": 9011,
      "を殺": 9012,
      "スピ": 9013,
      "タと": 9014,
      "ドラ": 9015,
      "一点": 9016,
      "事故": 9017,
      "二人を": 9018,
      "伝えて": 9019,
      "信用": 9020,
      "危ない": 9021,
      "固定": 9022,
      "姿勢を": 9023,
      "年も": 9024,
      "悍ましい": 9025,
      "映る": 9026,
      "有効": 9027,
      "湧き": 9028,
      "物資": 9029,
      "犠牲": 9030,
      "番兵": 9031,
      "背を": 9032,
      "角を": 9033,
      "送る": 9034,
      "速い": 9035,
      "進行": 9036,
      "運動": 9037,
      "間抜け": 9038,
      "してやる": 9039,
      "というものは": 9040,
      "を見ている": 9041,
      "しているのか": 9042,
      "どうだ": 9043,
      "ためだ": 9044,
      "ところは": 9045,
      "の一人が": 9046,
      "理解する": 9047,
      "n今回": 9048,
      "？」「……": 9049,
      "なにが": 9050,
      "神官の": 9051,
      "ション": 9052,
      "知雫が": 9053,
      "マオが": 9054,
      "首を傾げる": 9055,
      "太陽の結界": 9056,
      "司令塔": 9057,
      "真面目": 9058,
      "ヴァンノ": 9059,
      "n同じ": 9060,
      "nあれ": 9061,
      "n元々": 9062,
      "「――": 9063,
      "がれた": 9064,
      "が来た": 9065,
      "にまで": 9066,
      "を仕": 9067,
      "他人": 9068,
      "例外": 9069,
      "先生": 9070,
      "前へと": 9071,
      "含めて": 9072,
      "呪いの": 9073,
      "嘘を": 9074,
      "天祈": 9075,
      "強烈な": 9076,
      "待機": 9077,
      "抜いて": 9078,
      "撤退": 9079,
      "斬撃": 9080,
      "断言": 9081,
      "沢山": 9082,
      "流れる": 9083,
      "為の": 9084,
      "父親": 9085,
      "異なる": 9086,
      "石を": 9087,
      "破滅": 9088,
      "者として": 9089,
      "腐敗": 9090,
      "貸し": 9091,
      "越した": 9092,
      "途端": 9093,
      "鎧の": 9094,
      "隙を": 9095,
      "その力を": 9096,
      "そう思": 9097,
      "あるが": 9098,
      "かなあ": 9099,
      "されるのは": 9100,
      "の方は": 9101,
      "「…………」「": 9102,
      "されてしまった": 9103,
      "近くの": 9104,
      "シンラ": 9105,
      "伸びる": 9106,
      "気配が": 9107,
      "厄介な": 9108,
      "パーティー": 9109,
      "ハルズ": 9110,
      "せっかく": 9111,
      "餓者髑髏": 9112,
      "nという": 9113,
      "nまだ": 9114,
      "nこれは": 9115,
      "nシズクが": 9116,
      "tt": 9117,
      "ここの": 9118,
      "ささ": 9119,
      "の無い": 9120,
      "の向こう": 9121,
      "ふざ": 9122,
      "わかって": 9123,
      "トン": 9124,
      "万能": 9125,
      "体重": 9126,
      "何に": 9127,
      "偉大なる": 9128,
      "先で": 9129,
      "全体を": 9130,
      "到着": 9131,
      "危う": 9132,
      "実行": 9133,
      "少な": 9134,
      "忘れて": 9135,
      "消える": 9136,
      "濃い": 9137,
      "目に見": 9138,
      "眼を": 9139,
      "瞳に": 9140,
      "禍々しい": 9141,
      "種の": 9142,
      "紹介": 9143,
      "置く": 9144,
      "肯定": 9145,
      "言いた": 9146,
      "隣で": 9147,
      "……）": 9148,
      "から目を": 9149,
      "その前に": 9150,
      "する必要": 9151,
      "んだぞ": 9152,
      "というのなら": 9153,
      "を見ながら": 9154,
      "しくは": 9155,
      "感じない": 9156,
      "わせた": 9157,
      "切り替": 9158,
      "……」『": 9159,
      "疑問に": 9160,
      "冒険者ギルドの": 9161,
      "グロンゾン": 9162,
      "バクダン": 9163,
      "ほうが": 9164,
      "重要な": 9165,
      "それぞれ": 9166,
      "ミリーナ": 9167,
      "バケモノ": 9168,
      "さした": 9169,
      "し続ける": 9170,
      "はあ": 9171,
      "一時": 9172,
      "互いに": 9173,
      "作られた": 9174,
      "反論": 9175,
      "名は": 9176,
      "大地": 9177,
      "威圧": 9178,
      "室の": 9179,
      "帰還": 9180,
      "幾つも": 9181,
      "情け": 9182,
      "政治": 9183,
      "断片": 9184,
      "死にか": 9185,
      "消去": 9186,
      "眉間に": 9187,
      "翼を": 9188,
      "者と": 9189,
      "言いたい": 9190,
      "足の": 9191,
      "ってくれ": 9192,
      "ようとも": 9193,
      "ことだろう": 9194,
      "そうそう": 9195,
      "ことは無い": 9196,
      "ディズに": 9197,
      "気にしない": 9198,
      "しようとする": 9199,
      "ばかりだ": 9200,
      "とは思う": 9201,
      "連中は": 9202,
      "いてい": 9203,
      "すみ": 9204,
      "すまん": 9205,
      "てない": 9206,
      "としていた": 9207,
      "にしろ": 9208,
      "の顔": 9209,
      "は今": 9210,
      "は全く": 9211,
      "も同": 9212,
      "もった": 9213,
      "もいい": 9214,
      "やっている": 9215,
      "を背負": 9216,
      "クス": 9217,
      "ムニ": 9218,
      "ルト": 9219,
      "休み": 9220,
      "働き": 9221,
      "君が": 9222,
      "天拳": 9223,
      "子に": 9224,
      "尋常": 9225,
      "急いで": 9226,
      "懐から": 9227,
      "投擲": 9228,
      "有している": 9229,
      "機神": 9230,
      "次々と": 9231,
      "歩いて": 9232,
      "段階": 9233,
      "相変わらず": 9234,
      "眼球": 9235,
      "確かな": 9236,
      "義務": 9237,
      "補助": 9238,
      "赤黒い": 9239,
      "身で": 9240,
      "身分": 9241,
      "そう思った": 9242,
      "しかなかった": 9243,
      "にもう": 9244,
      "ことは出来ない": 9245,
      "ままの": 9246,
      "状況で": 9247,
      "であったが": 9248,
      "やってくる": 9249,
      "騎士団の": 9250,
      "んじゃないか": 9251,
      "となれば": 9252,
      "分からなかった": 9253,
      "話し合": 9254,
      "椅子に座": 9255,
      "かねない": 9256,
      "クウは": 9257,
      "突如として": 9258,
      "エレベー": 9259,
      "❤❤」\\": 9260,
      "かぶ": 9261,
      "かれていた": 9262,
      "が出来": 9263,
      "ぐり": 9264,
      "で最も": 9265,
      "どろ": 9266,
      "に陥": 9267,
      "ろよ": 9268,
      "スマ": 9269,
      "パート": 9270,
      "メージ": 9271,
      "ンビ": 9272,
      "並ぶ": 9273,
      "中心に": 9274,
      "使えない": 9275,
      "包囲": 9276,
      "増や": 9277,
      "寄る": 9278,
      "戦いで": 9279,
      "有の": 9280,
      "様を": 9281,
      "照ら": 9282,
      "硬い": 9283,
      "繋がる": 9284,
      "込めた": 9285,
      "進んだ": 9286,
      "離れる": 9287,
      "ようだが": 9288,
      "を見れば": 9289,
      "できれば": 9290,
      "さんに": 9291,
      "時間の": 9292,
      "わずに": 9293,
      "魔獣を": 9294,
      "アカネを": 9295,
      "分かってる": 9296,
      "良くない": 9297,
      "普段の": 9298,
      "地下牢の": 9299,
      "やれやれ": 9300,
      "魔界の": 9301,
      "じゃねえか": 9302,
      "たびに": 9303,
      "真なるバベル": 9304,
      "エレベーター": 9305,
      "nそもそも": 9306,
      "お尻": 9307,
      "し折": 9308,
      "の山": 9309,
      "を続ける": 9310,
      "イメージ": 9311,
      "ズミ": 9312,
      "ナナ": 9313,
      "ョル": 9314,
      "伝える": 9315,
      "切れた": 9316,
      "外套": 9317,
      "専門": 9318,
      "幸運": 9319,
      "性能": 9320,
      "撃破": 9321,
      "敵に": 9322,
      "朝の": 9323,
      "煙が": 9324,
      "異様な": 9325,
      "瞳は": 9326,
      "短く": 9327,
      "組んで": 9328,
      "絡み": 9329,
      "続いた": 9330,
      "能力は": 9331,
      "腕で": 9332,
      "負担": 9333,
      "金は": 9334,
      "間を": 9335,
      "集め": 9336,
      "首が": 9337,
      "髪が": 9338,
      "から外": 9339,
      "ているのは": 9340,
      "だったのか": 9341,
      "どう考えても": 9342,
      "なんというか": 9343,
      "の中央": 9344,
      "ますね": 9345,
      "えてきた": 9346,
      "引きつ": 9347,
      "状況が": 9348,
      "になってしまった": 9349,
      "彼等の": 9350,
      "はははは": 9351,
      "安全な": 9352,
      "いっぱい": 9353,
      "nあまりにも": 9354,
      "n村長婦": 9355,
      "nアイリスが": 9356,
      "」\",": 9357,
      "いかに": 9358,
      "か分からない": 9359,
      "が来る": 9360,
      "の儀": 9361,
      "はなく": 9362,
      "びた": 9363,
      "やりと": 9364,
      "ッコ": 9365,
      "ネズミ": 9366,
      "一部": 9367,
      "元より": 9368,
      "入って": 9369,
      "出せる": 9370,
      "到達": 9371,
      "即答": 9372,
      "受けて": 9373,
      "右手を": 9374,
      "回った": 9375,
      "太い": 9376,
      "嫉妬": 9377,
      "少々": 9378,
      "意志": 9379,
      "挙げ": 9380,
      "握った": 9381,
      "本を": 9382,
      "活躍": 9383,
      "済んだ": 9384,
      "痛みを": 9385,
      "種類": 9386,
      "細工": 9387,
      "脳が": 9388,
      "規則": 9389,
      "観客": 9390,
      "貴重": 9391,
      "込める": 9392,
      "適当な": 9393,
      "量は": 9394,
      "障害": 9395,
      "飛翔": 9396,
      "でもって": 9397,
      "っているのか": 9398,
      "ウーガが": 9399,
      "シアーシャに": 9400,
      "精霊憑き": 9401,
      "されてる": 9402,
      "近づき": 9403,
      "ヘッズハンターは": 9404,
      "音を鳴": 9405,
      "明らか": 9406,
      "シャナイアは": 9407,
      "捨てた": 9408,
      "に戻る": 9409,
      "今度こそ": 9410,
      "死霊術師": 9411,
      "丁寧に": 9412,
      "nでも": 9413,
      "”。": 9414,
      "『――――": 9415,
      "けの": 9416,
      "すような": 9417,
      "ちぎ": 9418,
      "で見": 9419,
      "なことを": 9420,
      "やれば": 9421,
      "らっしゃ": 9422,
      "を除": 9423,
      "ピク": 9424,
      "マト": 9425,
      "ルク": 9426,
      "元から": 9427,
      "大切": 9428,
      "尤も": 9429,
      "尾を": 9430,
      "引いた": 9431,
      "強制": 9432,
      "提供": 9433,
      "教育": 9434,
      "日も": 9435,
      "来ていた": 9436,
      "焼く": 9437,
      "男衆": 9438,
      "眼帯": 9439,
      "薙ぎ": 9440,
      "訳ではない": 9441,
      "誕生": 9442,
      "酒造": 9443,
      "鍛え": 9444,
      "してみ": 9445,
      "するには": 9446,
      "それ故に": 9447,
      "それらの": 9448,
      "を見つけた": 9449,
      "と思えば": 9450,
      "などの": 9451,
      "攻撃の": 9452,
      "！！！】」\\": 9453,
      "動かし": 9454,
      "村長の": 9455,
      "の外に": 9456,
      "死霊騎士": 9457,
      "ナイフを": 9458,
      "双刃剣": 9459,
      "が起こる": 9460,
      "幾度となく": 9461,
      "ついでに": 9462,
      "n不": 9463,
      "n母ちゃん": 9464,
      "nシアーシャは": 9465,
      "があって": 9466,
      "すか": 9467,
      "とやら": 9468,
      "に仕": 9469,
      "にウルは": 9470,
      "ふわ": 9471,
      "んのか": 9472,
      "中でも": 9473,
      "伝わ": 9474,
      "何せ": 9475,
      "半端": 9476,
      "単なる": 9477,
      "幾つか": 9478,
      "数に": 9479,
      "整備": 9480,
      "無尽": 9481,
      "熱い": 9482,
      "物だ": 9483,
      "石の": 9484,
      "空の": 9485,
      "空気": 9486,
      "立派": 9487,
      "組む": 9488,
      "緋色の": 9489,
      "考慮": 9490,
      "聞きたい": 9491,
      "自体が": 9492,
      "視の": 9493,
      "設置": 9494,
      "詰めた": 9495,
      "返し": 9496,
      "金額": 9497,
      "関わり": 9498,
      "集まる": 9499,
      "？！": 9500,
      "ＮＮ": 9501,
      "しておく": 9502,
      "そうになった": 9503,
      "この世界の": 9504,
      "んできた": 9505,
      "できず": 9506,
      "俊介と": 9507,
      "ことは無かった": 9508,
      "のであれば": 9509,
      "くらいだ": 9510,
      "込んできた": 9511,
      "程度で": 9512,
      "いくつ": 9513,
      "人形の": 9514,
      "ですよね": 9515,
      "が見える": 9516,
      "近くに": 9517,
      "笑いながら": 9518,
      "バクダンが": 9519,
      "飛んできた": 9520,
      "久しぶり": 9521,
      "ビーカ": 9522,
      "n上": 9523,
      "n魔女": 9524,
      "nそこで": 9525,
      "いざ": 9526,
      "お兄": 9527,
      "はじ": 9528,
      "をな": 9529,
      "を下": 9530,
      "ミリア": 9531,
      "ルート": 9532,
      "並べ": 9533,
      "主に": 9534,
      "分かって": 9535,
      "去る": 9536,
      "奴の": 9537,
      "年前": 9538,
      "幸福": 9539,
      "座る": 9540,
      "待った": 9541,
      "敵意": 9542,
      "死ね": 9543,
      "滞在": 9544,
      "炎を": 9545,
      "痛みに": 9546,
      "立って": 9547,
      "端を": 9548,
      "結び": 9549,
      "肌を": 9550,
      "貫いた": 9551,
      "身は": 9552,
      "食堂": 9553,
      "ＧＹ": 9554,
      "だったか": 9555,
      "このような": 9556,
      "なると": 9557,
      "だろうし": 9558,
      "ちゃった": 9559,
      "手によって": 9560,
      "ことがあった": 9561,
      "くらいなら": 9562,
      "どこまで": 9563,
      "結果として": 9564,
      "二人で": 9565,
      "厭勝が": 9566,
      "与えられた": 9567,
      "スロウス": 9568,
      "nこうして": 9569,
      "いれば": 9570,
      "おっ": 9571,
      "が無": 9572,
      "くちゃ": 9573,
      "こなかった": 9574,
      "たしか": 9575,
      "と見": 9576,
      "とおり": 9577,
      "と判断": 9578,
      "に隠": 9579,
      "に至る": 9580,
      "の通り": 9581,
      "めく": 9582,
      "も角": 9583,
      "リカ": 9584,
      "リング": 9585,
      "下で": 9586,
      "出ない": 9587,
      "出入り": 9588,
      "姿が": 9589,
      "挑発": 9590,
      "探し": 9591,
      "曰く": 9592,
      "気なく": 9593,
      "灰色の": 9594,
      "留め": 9595,
      "石灰": 9596,
      "行われる": 9597,
      "諦めた": 9598,
      "重力": 9599,
      "量を": 9600,
      "順調": 9601,
      "風が": 9602,
      "…………」\\": 9603,
      "それから": 9604,
      "こともない": 9605,
      "冒険者は": 9606,
      "声を上げる": 9607,
      "されても": 9608,
      "意味が": 9609,
      "まずい": 9610,
      "パンっ": 9611,
      "ジャインの": 9612,
      "つつあった": 9613,
      "何処か": 9614,
      "キスを": 9615,
      "一方的に": 9616,
      "ましょうか": 9617,
      "綺麗に": 9618,
      "残念ながら": 9619,
      "レベルの": 9620,
      "nギーク": 9621,
      "n再び": 9622,
      "かせて": 9623,
      "こち": 9624,
      "さぁ": 9625,
      "さりと": 9626,
      "ましく": 9627,
      "を負": 9628,
      "ケット": 9629,
      "トロ": 9630,
      "マギ": 9631,
      "交代": 9632,
      "人だ": 9633,
      "作る": 9634,
      "依然": 9635,
      "傷が": 9636,
      "元で": 9637,
      "兎も角": 9638,
      "忙しい": 9639,
      "水が": 9640,
      "目覚": 9641,
      "稼働": 9642,
      "粉砕": 9643,
      "置いた": 9644,
      "襲いか": 9645,
      "討ち": 9646,
      "購入": 9647,
      "達から": 9648,
      "駆ける": 9649,
      "って言う": 9650,
      "ことだった": 9651,
      "だけなら": 9652,
      "この街": 9653,
      "になってる": 9654,
      "これも": 9655,
      "あああ": 9656,
      "上げられた": 9657,
      "られるのは": 9658,
      "魔物達の": 9659,
      "考えていると": 9660,
      "それにしても": 9661,
      "様子はない": 9662,
      "破壊の": 9663,
      "何度か": 9664,
      "しばし": 9665,
      "少年は": 9666,
      "振り返った": 9667,
      "と比べれば": 9668,
      "新たに": 9669,
      "貴方は": 9670,
      "こぼれ": 9671,
      "とも言える": 9672,
      "マトモ": 9673,
      "nイサナ": 9674,
      "n2人の": 9675,
      "「“": 9676,
      "おは": 9677,
      "げえ": 9678,
      "とこ": 9679,
      "に限": 9680,
      "ぬよう": 9681,
      "の戦士": 9682,
      "みは": 9683,
      "を示": 9684,
      "を取る": 9685,
      "ミクリ": 9686,
      "偉い": 9687,
      "免罪": 9688,
      "出していた": 9689,
      "加速": 9690,
      "努力": 9691,
      "動いている": 9692,
      "台無し": 9693,
      "壊滅": 9694,
      "定期": 9695,
      "居ない": 9696,
      "広く": 9697,
      "張る": 9698,
      "当時の": 9699,
      "暴力": 9700,
      "村を": 9701,
      "浮き": 9702,
      "積極": 9703,
      "絞り": 9704,
      "蠢く": 9705,
      "裁判": 9706,
      "音に": 9707,
      "顎を": 9708,
      "ないか": 9709,
      "それら": 9710,
      "そうした": 9711,
      "のはず": 9712,
      "ならん": 9713,
      "えるような": 9714,
      "いるが": 9715,
      "そこを": 9716,
      "クレアに": 9717,
      "もう一": 9718,
      "都市を": 9719,
      "ませんか": 9720,
      "といっても": 9721,
      "音が響く": 9722,
      "手の平": 9723,
      "厭勝は": 9724,
      "容易く": 9725,
      "ため息をついた": 9726,
      "竜牙槍の": 9727,
      "同士の": 9728,
      "さすが": 9729,
      "祈りを捧": 9730,
      "nルイ": 9731,
      "n僕の": 9732,
      "えれば": 9733,
      "えながら": 9734,
      "くりと": 9735,
      "でな": 9736,
      "ばない": 9737,
      "ふん": 9738,
      "へし折": 9739,
      "りも": 9740,
      "わた": 9741,
      "イブ": 9742,
      "キツ": 9743,
      "メイ": 9744,
      "体調": 9745,
      "保護": 9746,
      "僕も": 9747,
      "分に": 9748,
      "割れ": 9749,
      "地で": 9750,
      "天衣": 9751,
      "女将": 9752,
      "嬉しそうに": 9753,
      "年は": 9754,
      "心は": 9755,
      "思えた": 9756,
      "急に": 9757,
      "掲げ": 9758,
      "教師": 9759,
      "染み": 9760,
      "止ま": 9761,
      "深々と": 9762,
      "物質": 9763,
      "病院": 9764,
      "終焉": 9765,
      "莫大な": 9766,
      "計算": 9767,
      "設計": 9768,
      "辿り着": 9769,
      "遅れて": 9770,
      "防備": 9771,
      "音と": 9772,
      "その場に": 9773,
      "ということだ": 9774,
      "はずだが": 9775,
      "立ち上が": 9776,
      "によっては": 9777,
      "気づいて": 9778,
      "られても": 9779,
      "当たらない": 9780,
      "が一気に": 9781,
      "技術を": 9782,
      "感情の": 9783,
      "吐き出した": 9784,
      "の竜は": 9785,
      "に手を当て": 9786,
      "ラストの": 9787,
      "不思議そうに": 9788,
      "ハンガー": 9789,
      "目を覚ました": 9790,
      "レナード": 9791,
      "nクレアが": 9792,
      "あふ": 9793,
      "いけ": 9794,
      "おめ": 9795,
      "にゃ": 9796,
      "にしか": 9797,
      "むような": 9798,
      "代表": 9799,
      "何ら": 9800,
      "助けた": 9801,
      "声と共に": 9802,
      "子宮": 9803,
      "射精": 9804,
      "巨体": 9805,
      "得た": 9806,
      "手甲": 9807,
      "打つ": 9808,
      "早々に": 9809,
      "曖昧": 9810,
      "点を": 9811,
      "男性": 9812,
      "痕跡": 9813,
      "竜竜": 9814,
      "細かい": 9815,
      "経緯": 9816,
      "膨ら": 9817,
      "荷車": 9818,
      "行かない": 9819,
      "踵を": 9820,
      "迎え": 9821,
      "量が": 9822,
      "開いて": 9823,
      "頃の": 9824,
      "風呂": 9825,
      "ったりと": 9826,
      "ってくれた": 9827,
      "その結果": 9828,
      "それこそ": 9829,
      "それ以上の": 9830,
      "それらは": 9831,
      "されていく": 9832,
      "されていない": 9833,
      "迷宮探索": 9834,
      "のが見えた": 9835,
      "てもらう": 9836,
      "存在が": 9837,
      "存在している": 9838,
      "飛び散": 9839,
      "通りに": 9840,
      "逃げた": 9841,
      "付けられる": 9842,
      "イスラリア大陸": 9843,
      "やすく": 9844,
      "ウィザードが": 9845,
      "ニンジャが": 9846,
      "を睨む": 9847,
      "コレは": 9848,
      "竜牙槍を": 9849,
      "雰囲気を": 9850,
      "中央工房": 9851,
      "フライヤ": 9852,
      "相応の": 9853,
      "に関しては": 9854,
      "問いかける": 9855,
      "えど": 9856,
      "お父": 9857,
      "ができる": 9858,
      "せなかった": 9859,
      "っが": 9860,
      "なんな": 9861,
      "の数": 9862,
      "の術": 9863,
      "はしなかった": 9864,
      "もた": 9865,
      "をお": 9866,
      "エリア": 9867,
      "キレ": 9868,
      "センチ": 9869,
      "バード": 9870,
      "何事": 9871,
      "何やら": 9872,
      "保管": 9873,
      "入らない": 9874,
      "全身に": 9875,
      "収穫": 9876,
      "司祭": 9877,
      "向上": 9878,
      "室に": 9879,
      "工夫": 9880,
      "愛撫": 9881,
      "戦場": 9882,
      "損な": 9883,
      "書いて": 9884,
      "皆が": 9885,
      "第一": 9886,
      "苦手": 9887,
      "見せた": 9888,
      "言われ": 9889,
      "話題": 9890,
      "認める": 9891,
      "転がり": 9892,
      "頭の中で": 9893,
      "しており": 9894,
      "することが": 9895,
      "そう言うと": 9896,
      "っているが": 9897,
      "シズクを": 9898,
      "よりも遙かに": 9899,
      "存在していた": 9900,
      "はないが": 9901,
      "それでいい": 9902,
      "無理やり": 9903,
      "少女が": 9904,
      "ショーツ": 9905,
      "繰り返し": 9906,
      "精霊の力を": 9907,
      "ようとしていた": 9908,
      "キュウビが": 9909,
      "ゼロツーが": 9910,
      "アルノルドは": 9911,
      "異常な": 9912,
      "イカザは": 9913,
      "を求める": 9914,
      "微笑む": 9915,
      "恥ずかし": 9916,
      "恥ずかしい": 9917,
      "傷を負": 9918,
      "チンポ": 9919,
      "どうでもいい": 9920,
      "ahah": 9921,
      "n下": 9922,
      "nアイリス": 9923,
      "うと": 9924,
      "おー": 9925,
      "すのは": 9926,
      "に角": 9927,
      "の仕事": 9928,
      "めいた": 9929,
      "るようにして": 9930,
      "を利用": 9931,
      "フラ": 9932,
      "ボス": 9933,
      "並び": 9934,
      "他人の": 9935,
      "取れ": 9936,
      "呼んで": 9937,
      "回っていた": 9938,
      "寄せて": 9939,
      "平和": 9940,
      "床暖房": 9941,
      "後も": 9942,
      "思えば": 9943,
      "息が": 9944,
      "持っていた": 9945,
      "推測": 9946,
      "方から": 9947,
      "渡された": 9948,
      "焼け": 9949,
      "舌打ち": 9950,
      "苦々しい": 9951,
      "薄く": 9952,
      "話した": 9953,
      "進める": 9954,
      "違って": 9955,
      "金が": 9956,
      "雫は": 9957,
      "っており": 9958,
      "その言葉に": 9959,
      "という話": 9960,
      "この刑務所": 9961,
      "どうすれば": 9962,
      "れてしまった": 9963,
      "言葉の意味": 9964,
      "シズクも": 9965,
      "ただし": 9966,
      "顔をしか": 9967,
      "ちらりと": 9968,
      "に対しても": 9969,
      "受け止める": 9970,
      "ましたね": 9971,
      "頭を抱": 9972,
      "魔獣は": 9973,
      "どこから": 9974,
      "当然のように": 9975,
      "レイは": 9976,
      "よろしい": 9977,
      "訓練所": 9978,
      "生み出された": 9979,
      "ピュアホワイトの": 9980,
      "落ち着いた": 9981,
      "となっていた": 9982,
      "果たして": 9983,
      "冷静に": 9984,
      "混じった": 9985,
      "首を横に振る": 9986,
      "フォロー": 9987,
      "出会った": 9988,
      "もしかして": 9989,
      "フギン": 9990,
      "降り注ぐ": 9991,
      "免罪官": 9992,
      "n長": 9993,
      "n勇者": 9994,
      "nエリン姉": 9995,
      "々とした": 9996,
      "が終わった": 9997,
      "きり": 9998,
      "けられた": 9999,
      "に収": 10000,
      "らしながら": 10001,
      "カール": 10002,
      "キラ": 10003,
      "ゲーム": 10004,
      "マカール": 10005,
      "事な": 10006,
      "他にも": 10007,
      "個体": 10008,
      "兎に角": 10009,
      "剥が": 10010,
      "口で": 10011,
      "奉仕": 10012,
      "山ほど": 10013,
      "怪訝": 10014,
      "戦いは": 10015,
      "日目": 10016,
      "本人": 10017,
      "歳の": 10018,
      "浄化": 10019,
      "濡れた": 10020,
      "点は": 10021,
      "然とした": 10022,
      "監房": 10023,
      "直前": 10024,
      "言わない": 10025,
      "連携": 10026,
      "重く": 10027,
      "闇に": 10028,
      "音は": 10029,
      "黒板": 10030,
      "黒睡": 10031,
      "ことしか": 10032,
      "自分たちを": 10033,
      "ほどだ": 10034,
      "アイリスちゃん": 10035,
      "全ては": 10036,
      "はずもない": 10037,
      "ってもらう": 10038,
      "攻撃が": 10039,
      "魔力は": 10040,
      "当然だ": 10041,
      "っくり返": 10042,
      "人格が": 10043,
      "完全な": 10044,
      "ソレを": 10045,
      "は一切": 10046,
      "乗り越": 10047,
      "最近は": 10048,
      "特別な": 10049,
      "にはいられなかった": 10050,
      "赤ずきん": 10051,
      "慎重に": 10052,
      "２１星": 10053,
      "き出し": 10054,
      "しげに": 10055,
      "たまた": 10056,
      "に集中": 10057,
      "ぬように": 10058,
      "の強": 10059,
      "のですね": 10060,
      "のようだ": 10061,
      "ひっくり返": 10062,
      "もそう": 10063,
      "やむ": 10064,
      "ァッ": 10065,
      "コント": 10066,
      "デザイン": 10067,
      "ワー": 10068,
      "ーキ": 10069,
      "体格": 10070,
      "優れた": 10071,
      "内を": 10072,
      "加え": 10073,
      "勝てる": 10074,
      "尻穴": 10075,
      "所為": 10076,
      "支払": 10077,
      "散らす": 10078,
      "死体を": 10079,
      "活性": 10080,
      "浅い": 10081,
      "煙を": 10082,
      "真実": 10083,
      "第三": 10084,
      "結婚": 10085,
      "美しく": 10086,
      "詰める": 10087,
      "辛い": 10088,
      "頼り": 10089,
      "……？」": 10090,
      "って事": 10091,
      "その言葉を": 10092,
      "その場で": 10093,
      "ようとしている": 10094,
      "ジグと": 10095,
      "冒険者を": 10096,
      "こうと": 10097,
      "迷宮を": 10098,
      "の方を向": 10099,
      "受け止め": 10100,
      "ましたが": 10101,
      "に向き": 10102,
      "ときの": 10103,
      "の上から": 10104,
      "事実を": 10105,
      "覚えている": 10106,
      "可能性がある": 10107,
      "になります": 10108,
      "感覚に": 10109,
      "振り返り": 10110,
      "眉を顰": 10111,
      "続きを": 10112,
      "お互いの": 10113,
      "倒れ伏": 10114,
      "受付嬢": 10115,
      "半透明の": 10116,
      "n前": 10117,
      "n村": 10118,
      "nシアーシャが": 10119,
      "」」\\": 10120,
      "がたい": 10121,
      "くっ": 10122,
      "くように": 10123,
      "ついていた": 10124,
      "づらい": 10125,
      "るか": 10126,
      "ノア": 10127,
      "ピッ": 10128,
      "値段": 10129,
      "叩いて": 10130,
      "右腕": 10131,
      "墜ち": 10132,
      "広がり": 10133,
      "待た": 10134,
      "折り": 10135,
      "揉み": 10136,
      "敗北": 10137,
      "日に": 10138,
      "気にも": 10139,
      "簡易": 10140,
      "頭から": 10141,
      "そう思い": 10142,
      "ように見える": 10143,
      "のかと": 10144,
      "なんてい": 10145,
      "なんでも": 10146,
      "冒険者たちが": 10147,
      "けどな": 10148,
      "らしいが": 10149,
      "魔物は": 10150,
      "声を上げた": 10151,
      "ませんね": 10152,
      "首をかし": 10153,
      "に入り": 10154,
      "依頼を": 10155,
      "を見るに": 10156,
      "楽しみ": 10157,
      "用意した": 10158,
      "悲鳴が": 10159,
      "答えは": 10160,
      "ファイブ": 10161,
      "を見つめる": 10162,
      "ぶん殴": 10163,
      "ごめんな": 10164,
      "方向に": 10165,
      "ベグードは": 10166,
      "純粋な": 10167,
      "黒睡帯": 10168,
      "n両": 10169,
      "n自分が": 10170,
      "n二人は": 10171,
      "”。\\": 10172,
      "おや": 10173,
      "でに": 10174,
      "とある": 10175,
      "に合わせて": 10176,
      "はならない": 10177,
      "やれる": 10178,
      "を打ち": 10179,
      "チェ": 10180,
      "テン": 10181,
      "ポー": 10182,
      "仲間に": 10183,
      "何もない": 10184,
      "剣士": 10185,
      "去って": 10186,
      "地図": 10187,
      "声だった": 10188,
      "変える": 10189,
      "得ない": 10190,
      "殺された": 10191,
      "溶け": 10192,
      "漏れる": 10193,
      "無意識": 10194,
      "物だった": 10195,
      "生命": 10196,
      "眷族": 10197,
      "砕けた": 10198,
      "神が": 10199,
      "粘魔王": 10200,
      "縫い": 10201,
      "纏う": 10202,
      "腰の": 10203,
      "設備": 10204,
      "話に": 10205,
      "説得": 10206,
      "護符": 10207,
      "込めて": 10208,
      "階級": 10209,
      "風来": 10210,
      "ＧＡ": 10211,
      "から逃": 10212,
      "れるような": 10213,
      "にはならない": 10214,
      "ようにも": 10215,
      "ようになる": 10216,
      "んでる": 10217,
      "じゃ無い": 10218,
      "なんとも": 10219,
      "なんとなく": 10220,
      "の中では": 10221,
      "顔を上げる": 10222,
      "させない": 10223,
      "声をかける": 10224,
      "気にする": 10225,
      "してもらう": 10226,
      "気がした": 10227,
      "しようとしている": 10228,
      "アルンビ": 10229,
      "られてしまった": 10230,
      "今日まで": 10231,
      "先ほどまでの": 10232,
      "おうとした": 10233,
      "ジャインが": 10234,
      "反応は": 10235,
      "飲み込む": 10236,
      "十分な": 10237,
      "クナトルレイク大会": 10238,
      "nウルと": 10239,
      "加護を": 10240,
      "未来革命機関の": 10241,
      "aaaaaaaa": 10242,
      "の類い": 10243,
      "そうなると": 10244,
      "複雑な": 10245,
      "違和感": 10246,
      "黒剣騎士団": 10247,
      "未知の": 10248,
      "数百年": 10249,
      "探鉱隊": 10250,
      "アルンビョル": 10251,
      "nグ": 10252,
      "n彼": 10253,
      "n誰": 10254,
      "nさて": 10255,
      "nどうやら": 10256,
      "…！」\\": 10257,
      "くなって": 10258,
      "の底": 10259,
      "のいい": 10260,
      "の竜の": 10261,
      "ぶら": 10262,
      "ぽつ": 10263,
      "ッサ": 10264,
      "リとした": 10265,
      "乗った": 10266,
      "乳房": 10267,
      "何者": 10268,
      "勉強": 10269,
      "否応": 10270,
      "始めている": 10271,
      "威力を": 10272,
      "届いた": 10273,
      "崩れた": 10274,
      "店の": 10275,
      "形が": 10276,
      "投げた": 10277,
      "抜けて": 10278,
      "新不": 10279,
      "浸食": 10280,
      "煙草": 10281,
      "理性": 10282,
      "理想": 10283,
      "白銀": 10284,
      "的確": 10285,
      "皮紙": 10286,
      "真美": 10287,
      "神を": 10288,
      "神経": 10289,
      "纏わり": 10290,
      "置かれた": 10291,
      "薄暗い": 10292,
      "襲う": 10293,
      "言わ": 10294,
      "資源": 10295,
      "達には": 10296,
      "間近": 10297,
      "魅了": 10298,
      "するのも": 10299,
      "そうではない": 10300,
      "しか無い": 10301,
      "ジグも": 10302,
      "になれば": 10303,
      "ともに": 10304,
      "になると": 10305,
      "ませた": 10306,
      "世界に": 10307,
      "なんだって": 10308,
      "何かし": 10309,
      "自身も": 10310,
      "の人生": 10311,
      "のを感じた": 10312,
      "生きて": 10313,
      "でありながら": 10314,
      "理由を": 10315,
      "今日も": 10316,
      "無理だ": 10317,
      "関係ない": 10318,
      "かもしれないが": 10319,
      "グレーレが": 10320,
      "カルカラが": 10321,
      "であろうとも": 10322,
      "ブラックの": 10323,
      "部分を": 10324,
      "面倒な": 10325,
      "名前は": 10326,
      "マオは": 10327,
      "落ち着き": 10328,
      "容易に": 10329,
      "チラリと": 10330,
      "溜息をついた": 10331,
      "を纏った": 10332,
      "カタカタ": 10333,
      "ハリアン": 10334,
      "nなにせ": 10335,
      "おはよう": 10336,
      "コントロール": 10337,
      "\"【": 10338,
      "://": 10339,
      "htt": 10340,
      "n本": 10341,
      "n正直": 10342,
      "ps": 10343,
      "さして": 10344,
      "しね": 10345,
      "ずる": 10346,
      "のための": 10347,
      "もんだ": 10348,
      "をし": 10349,
      "を経": 10350,
      "を隠": 10351,
      "を目指": 10352,
      "ミュ": 10353,
      "互いの": 10354,
      "出され": 10355,
      "分ける": 10356,
      "合わ": 10357,
      "在る": 10358,
      "地帯": 10359,
      "増えた": 10360,
      "大幅": 10361,
      "奪った": 10362,
      "女に": 10363,
      "審判": 10364,
      "当初": 10365,
      "当時": 10366,
      "忌避": 10367,
      "掲げる": 10368,
      "救う": 10369,
      "柄な": 10370,
      "溢れる": 10371,
      "無防備": 10372,
      "狙いを": 10373,
      "男だ": 10374,
      "発した": 10375,
      "的で": 10376,
      "眺める": 10377,
      "神は": 10378,
      "繁華": 10379,
      "背に": 10380,
      "背後の": 10381,
      "至極": 10382,
      "賭け": 10383,
      "首筋": 10384,
      "その姿は": 10385,
      "のは間違いない": 10386,
      "ものに": 10387,
      "ためか": 10388,
      "身体から": 10389,
      "リスト": 10390,
      "があると": 10391,
      "アイリスに": 10392,
      "の方へと": 10393,
      "であって": 10394,
      "逃げ出した": 10395,
      "振る舞": 10396,
      "一瞬の": 10397,
      "魔女釜": 10398,
      "事実に": 10399,
      "姿を消": 10400,
      "わざと": 10401,
      "向けられる": 10402,
      "を放った": 10403,
      "連中が": 10404,
      "指先で": 10405,
      "笑みを浮かべる": 10406,
      "食いしば": 10407,
      "頭を下げ": 10408,
      "を起こす": 10409,
      "北方２１星": 10410,
      "グルフィン": 10411,
      "似たような": 10412,
      "左右に": 10413,
      "まっすぐに": 10414,
      "ヘイルダ": 10415,
      "風来鮊": 10416,
      "https": 10417,
      "おらず": 10418,
      "きれない": 10419,
      "どい": 10420,
      "に飛び": 10421,
      "のね": 10422,
      "は出来ない": 10423,
      "はありません": 10424,
      "らな": 10425,
      "を強く": 10426,
      "を維持": 10427,
      "ガチ": 10428,
      "バチ": 10429,
      "パク": 10430,
      "プリ": 10431,
      "一帯": 10432,
      "主が": 10433,
      "事だった": 10434,
      "休憩": 10435,
      "伸介": 10436,
      "何で": 10437,
      "倒れる": 10438,
      "出さない": 10439,
      "削り": 10440,
      "力強く": 10441,
      "品を": 10442,
      "地位": 10443,
      "強大な": 10444,
      "悪魔": 10445,
      "悲惨": 10446,
      "曲がり": 10447,
      "治癒": 10448,
      "派遣": 10449,
      "灰都": 10450,
      "状の": 10451,
      "独り": 10452,
      "生まれる": 10453,
      "知恵": 10454,
      "程に": 10455,
      "窓から": 10456,
      "緊急": 10457,
      "装飾": 10458,
      "詰めて": 10459,
      "調理": 10460,
      "返事を": 10461,
      "酒場": 10462,
      "面で": 10463,
      "高級": 10464,
      "鼻を鳴": 10465,
      "？』『": 10466,
      "してない": 10467,
      "かったが": 10468,
      "「………": 10469,
      "しません": 10470,
      "なんじゃ": 10471,
      "とも思ったが": 10472,
      "かなければ": 10473,
      "ディズも": 10474,
      "取り出した": 10475,
      "迷宮が": 10476,
      "時間帯": 10477,
      "言葉を吐く": 10478,
      "いくつか": 10479,
      "の大結束": 10480,
      "仲間を": 10481,
      "かってくる": 10482,
      "どれほどの": 10483,
      "戦士達は": 10484,
      "をかける": 10485,
      "光景を": 10486,
      "シャナイアの": 10487,
      "厭勝の": 10488,
      "nこれが": 10489,
      "規模の": 10490,
      "者もいる": 10491,
      "ひとまず": 10492,
      "微笑んだ": 10493,
      "真剣な": 10494,
      "じろぎ": 10495,
      "カーラーレイ一族": 10496,
      "メイド": 10497,
      "!!": 10498,
      "n以前": 10499,
      "えられる": 10500,
      "おぞ": 10501,
      "かん": 10502,
      "がれる": 10503,
      "が無かった": 10504,
      "すんな": 10505,
      "だという": 10506,
      "づく": 10507,
      "とばかりに": 10508,
      "どのように": 10509,
      "にしている": 10510,
      "のさ": 10511,
      "の件": 10512,
      "ふり": 10513,
      "ままで": 10514,
      "めば": 10515,
      "パチ": 10516,
      "上級兵士": 10517,
      "下手": 10518,
      "主は": 10519,
      "交換": 10520,
      "仲良く": 10521,
      "使え": 10522,
      "働く": 10523,
      "全滅": 10524,
      "写真": 10525,
      "割に": 10526,
      "土竜": 10527,
      "壊れた": 10528,
      "大地の": 10529,
      "好奇": 10530,
      "察した": 10531,
      "将来": 10532,
      "得られる": 10533,
      "戻って": 10534,
      "服の": 10535,
      "様だ": 10536,
      "独特": 10537,
      "確定": 10538,
      "筈だ": 10539,
      "羊皮紙": 10540,
      "苦痛": 10541,
      "苦しい": 10542,
      "貝殻": 10543,
      "骨を": 10544,
      "鼻で": 10545,
      "……！！": 10546,
      "ているが": 10547,
      "自分も": 10548,
      "と思しき": 10549,
      "いつか": 10550,
      "良いのか": 10551,
      "場所だ": 10552,
      "場所の": 10553,
      "世界は": 10554,
      "なんだが": 10555,
      "ことが出来た": 10556,
      "くらいで": 10557,
      "動きで": 10558,
      "nしかしその": 10559,
      "n今の": 10560,
      "立てて": 10561,
      "武器は": 10562,
      "なにやら": 10563,
      "飛ばし": 10564,
      "ごとに": 10565,
      "nだからこそ": 10566,
      "こっちの": 10567,
      "振り返ると": 10568,
      "に戻った": 10569,
      "突っ込む": 10570,
      "引っ張り": 10571,
      "シグリズ様": 10572,
      "幾つかの": 10573,
      "突き刺さった": 10574,
      "創り出した": 10575,
      "仕方がない": 10576,
      "を開始した": 10577,
      "トールステイン大": 10578,
      "トーマス": 10579,
      "すみません": 10580,
      "nシアーシャ": 10581,
      "n他の": 10582,
      "n恐らく": 10583,
      "nゆえに": 10584,
      "いじ": 10585,
      "おる": 10586,
      "がどう": 10587,
      "が起き": 10588,
      "が発生": 10589,
      "とど": 10590,
      "なか": 10591,
      "に来て": 10592,
      "ねる": 10593,
      "を残": 10594,
      "を食べ": 10595,
      "イイ": 10596,
      "トイレ": 10597,
      "ビビ": 10598,
      "ンリ": 10599,
      "二階": 10600,
      "人材": 10601,
      "何だ": 10602,
      "何よりも": 10603,
      "俺を": 10604,
      "側で": 10605,
      "化する": 10606,
      "呆れ": 10607,
      "大半": 10608,
      "天愚": 10609,
      "妨害": 10610,
      "家は": 10611,
      "干し": 10612,
      "引っか": 10613,
      "悪いが": 10614,
      "愚痴": 10615,
      "慣れている": 10616,
      "時速": 10617,
      "殺害": 10618,
      "混ざ": 10619,
      "焦げ": 10620,
      "物で": 10621,
      "特有の": 10622,
      "現場": 10623,
      "皆様": 10624,
      "皆無": 10625,
      "皮肉": 10626,
      "自慢": 10627,
      "色に": 10628,
      "訪れた": 10629,
      "誰かに": 10630,
      "貢献": 10631,
      "送った": 10632,
      "道の": 10633,
      "集めて": 10634,
      "頃から": 10635,
      "頬に": 10636,
      "頼も": 10637,
      "という訳": 10638,
      "言葉で": 10639,
      "ちゃくちゃ": 10640,
      "俊介を": 10641,
      "感じていた": 10642,
      "お前も": 10643,
      "同じように": 10644,
      "声を出す": 10645,
      "表情に": 10646,
      "スーツ": 10647,
      "黒炎払いの": 10648,
      "アルは": 10649,
      "のを確認": 10650,
      "ストレ": 10651,
      "になってしまう": 10652,
      "想像も": 10653,
      "作業を": 10654,
      "ピュアホワイトは": 10655,
      "背後で": 10656,
      "圧倒的に": 10657,
      "フェンリ": 10658,
      "ペリィは": 10659,
      "依然として": 10660,
      "nディズの": 10661,
      "」「…………」「": 10662,
      "たくない": 10663,
      "だわ": 10664,
      "の足": 10665,
      "の悪い": 10666,
      "ひび": 10667,
      "まってる": 10668,
      "もはや": 10669,
      "を理解": 10670,
      "デパート": 10671,
      "ペース": 10672,
      "上層": 10673,
      "上がら": 10674,
      "付与": 10675,
      "促す": 10676,
      "個人": 10677,
      "元凶": 10678,
      "光に": 10679,
      "動いて": 10680,
      "家で": 10681,
      "後を": 10682,
      "後から": 10683,
      "戦いが": 10684,
      "所から": 10685,
      "掴んで": 10686,
      "文化": 10687,
      "来ている": 10688,
      "母の": 10689,
      "気だ": 10690,
      "気になった": 10691,
      "決まった": 10692,
      "牽制": 10693,
      "種を": 10694,
      "補給": 10695,
      "言えない": 10696,
      "身じろぎ": 10697,
      "間で": 10698,
      "限度": 10699,
      "鳴る": 10700,
      "した瞬間": 10701,
      "んでしょう": 10702,
      "とは言い": 10703,
      "とは別の": 10704,
      "などは": 10705,
      "―――。\\": 10706,
      "魔物達を": 10707,
      "であれ": 10708,
      "と言い": 10709,
      "魔力で": 10710,
      "つもなく": 10711,
      "込んでくる": 10712,
      "ハハハ": 10713,
      "武器の": 10714,
      "口を挟": 10715,
      "どれも": 10716,
      "破壊する": 10717,
      "可能性もある": 10718,
      "いったい": 10719,
      "ゼロは": 10720,
      "向けられた": 10721,
      "知らなかった": 10722,
      "出現する": 10723,
      "わかっている": 10724,
      "与えられる": 10725,
      "を見つめ": 10726,
      "首を傾げ": 10727,
      "大事な": 10728,
      "突き刺さる": 10729,
      "二度と": 10730,
      "真っ白な": 10731,
      "しわを": 10732,
      "n問": 10733,
      "n小": 10734,
      "n竜の": 10735,
      "nしかも": 10736,
      "nhttps": 10737,
      "『…………": 10738,
      "ぁぁ": 10739,
      "うような": 10740,
      "うまく": 10741,
      "くく": 10742,
      "せられる": 10743,
      "なしに": 10744,
      "なのだろうか": 10745,
      "の出": 10746,
      "も無かった": 10747,
      "ゆっくり": 10748,
      "を犯": 10749,
      "を聞き": 10750,
      "コック": 10751,
      "コイン": 10752,
      "トの": 10753,
      "ミミ": 10754,
      "上半": 10755,
      "与える": 10756,
      "丸く": 10757,
      "再会": 10758,
      "動けない": 10759,
      "南区": 10760,
      "即ち": 10761,
      "向かい": 10762,
      "増える": 10763,
      "外れ": 10764,
      "奏で": 10765,
      "家を": 10766,
      "席を": 10767,
      "忠告": 10768,
      "操り": 10769,
      "本格": 10770,
      "死亡": 10771,
      "残骸": 10772,
      "決める": 10773,
      "渦島": 10774,
      "溜め": 10775,
      "獣の": 10776,
      "現れる": 10777,
      "的だ": 10778,
      "的だった": 10779,
      "衝動": 10780,
      "要素": 10781,
      "見ている": 10782,
      "赤く": 10783,
      "路地": 10784,
      "鏡の": 10785,
      "震わせる": 10786,
      "静寂": 10787,
      "したか": 10788,
      "したまま": 10789,
      "その上で": 10790,
      "それらが": 10791,
      "それ以外の": 10792,
      "ことではない": 10793,
      "けるような": 10794,
      "ありえない": 10795,
      "ことはある": 10796,
      "nそのため": 10797,
      "さんと": 10798,
      "させられた": 10799,
      "エシェルに": 10800,
      "同じく": 10801,
      "はずだった": 10802,
      "よりも更に": 10803,
      "ジャンが": 10804,
      "ませんよ": 10805,
      "言葉を吐いた": 10806,
      "と言われれば": 10807,
      "いでいる": 10808,
      "！？\\": 10809,
      "なのかは": 10810,
      "でしょうね": 10811,
      "が見えた": 10812,
      "魔眼が": 10813,
      "速度は": 10814,
      "をもって": 10815,
      "なさそうだ": 10816,
      "わかっていた": 10817,
      "不思議な": 10818,
      "果てに": 10819,
      "心の底から": 10820,
      "問うた": 10821,
      "おおおおおおおお": 10822,
      "フォル": 10823,
      "陽喰らいの儀": 10824,
      "ざるを得なかった": 10825,
      "ドラッグ": 10826,
      "何かしらの": 10827,
      "nそこ": 10828,
      "nここ": 10829,
      "nなるほど": 10830,
      "』。": 10831,
      "お前に": 10832,
      "こん": 10833,
      "さる": 10834,
      "せられた": 10835,
      "つな": 10836,
      "てしまう": 10837,
      "の声が": 10838,
      "は必要": 10839,
      "ぶりに": 10840,
      "へえ": 10841,
      "りだ": 10842,
      "を始める": 10843,
      "マン": 10844,
      "ルール": 10845,
      "不審": 10846,
      "中庭": 10847,
      "付かない": 10848,
      "健康": 10849,
      "切っ": 10850,
      "単に": 10851,
      "天剣の": 10852,
      "宙を": 10853,
[...]
